memory_initialization_radix=16;
memory_initialization_vector=
  0000000B, 0000000E, 00000025, 00000018, FFFFFFCD, 00000003, 00000010, FFFFFFFA,
  FFFFFFF2, 00000015, 0000001F, 00000010, 00000054, 00000021, 0000000E, 00000028,
  0000002B, 0000003F, FFFFFFCE, 00000009, 0000001F, FFFFFFF6, FFFFFFF9, 0000004B,
  00000002, FFFFFFFC, 0000000E, 00000028, FFFFFFD9, 00000021, FFFFFFFB, 00000040;
