memory_initialization_radix=16;
memory_initialization_vector=
  04, FF, 02, FD, 03, FD, 04, 04, FF, 04, 06, 00, 05, 00, 02, 06,
  FE, 01, 00, 02, 02, 02, 00, 04, FD, 01, 02, FD, FE, FE, 04, 05,
  01, 05, 05, FF, FD, FF, 03, 06, 0B, 08, 03, FE, 04, 03, FF, FF,
  00, 02, 04, 02, 02, FE, FF, 06, FE, 04, FD, FD, 06, 00, 03, FE,
  03, 00, 03, FE, 01, 01, FE, FF, 04, F8, FD, 02, FC, FE, 03, 00,
  06, 02, FE, FD, FE, 03, 04, 02, 02, FD, FB, 00, FE, EE, EB, EB,
  F0, F9, F8, FC, F3, FC, FE, FC, FF, F2, F0, F3, F8, 03, FE, FF,
  00, 06, 03, 01, FC, 00, F8, F5, EB, DC, D0, E5, EE, FA, 06, 08,
  01, 12, 07, F0, ED, E2, E8, EF, F3, 05, 01, FD, 04, FD, 04, 05,
  06, FD, FC, F7, E7, DA, E3, F1, F5, 02, 02, FA, F7, 05, FC, F5,
  F8, EF, F2, ED, F8, 0E, 05, FF, 04, 02, 06, FC, FD, 05, 05, 07,
  F1, EE, 07, 0A, 02, F9, FC, EC, EC, F2, F6, F7, FC, 0D, 0C, ED,
  00, 0D, 06, 05, 03, FE, 02, 04, FE, FA, FE, 0D, F6, 02, 1F, 0F,
  0D, FD, FB, 00, FD, 05, 0E, FE, 05, 0C, 0C, 08, FF, FC, 05, 06,
  00, FF, 02, 01, FA, FC, F8, 0C, 09, F8, FF, FF, 17, 06, 0F, 13,
  1E, 14, 11, 0D, 16, 0D, 10, 19, 10, FD, FE, FF, FD, 02, 03, 03,
  F6, FB, FC, 08, 00, FB, 03, 0D, 13, 0C, 0D, 15, 17, 1D, 19, 13,
  13, 13, 13, 16, 1A, 1B, 01, 06, 06, 05, 02, 04, 00, 08, 08, 10,
  05, 01, FD, 04, 03, 03, 11, 12, 0A, 18, 22, 0A, 14, 0D, 11, 16,
  19, 0D, 0F, 06, 05, 05, 06, 05, F9, F3, 05, 0D, F6, F9, F2, 02,
  FA, FC, F6, EC, EE, FE, FF, FF, 08, 04, 02, 08, 15, 0D, 09, FE,
  01, 06, FD, 00, F6, ED, FF, 0F, FD, 0D, 08, FE, 08, FD, F6, ED,
  E7, ED, F7, FC, FA, FC, 07, 03, 07, 0F, 05, FC, 04, 03, 04, 0D,
  F7, FA, 06, 0B, 08, 16, 14, 05, 08, FF, F2, DD, EF, ED, F3, F1,
  F2, FC, FE, 06, 0E, 09, 03, FC, FD, FD, 05, 03, F0, 14, 0D, 07,
  FF, 0D, 10, FD, F3, F1, F0, F0, DA, E8, E7, F0, F1, 08, 06, 05,
  10, F7, FF, 04, 05, 02, 05, FD, F6, 07, 0B, 0F, FC, 11, 03, 01,
  ED, E5, E7, F1, EC, EC, F1, EB, F1, 00, F3, 0C, 1B, F8, F5, FE,
  03, FD, 01, FB, FC, 0A, 05, 00, FF, 06, 02, F3, E6, ED, F3, F7,
  F6, F9, F5, ED, F6, F8, EF, 0A, 08, F0, FB, FD, 06, FF, FF, EF,
  02, 0B, 03, 05, 03, 0D, 06, DD, DB, 00, 07, 02, F7, FE, F6, F5,
  F6, F0, ED, 09, 07, FD, FC, 02, 01, 04, 04, F0, FF, 00, 04, 05,
  13, 0A, E4, E4, E7, F7, FC, F3, F2, F8, F3, F0, F4, FC, 0A, FF,
  F9, F6, 04, 04, 02, 04, 01, EE, 03, FE, 0B, 0A, 17, 12, EF, E4,
  F8, F6, EE, EE, EF, FA, F7, F6, FE, F8, 0E, E3, F0, 00, 02, 02,
  05, 08, FE, F3, F3, FF, 13, 09, 17, 05, FF, 02, 02, F9, F0, F5,
  EF, FD, EC, ED, ED, F4, FC, E5, EF, F7, 03, 02, 02, FF, FE, FA,
  EA, F5, 06, 08, 08, 0A, 10, 09, FD, F7, F1, EB, F2, E6, E1, E8,
  E9, F2, FC, F1, F5, FC, 05, 03, 02, FD, 00, 09, EE, FF, 0C, 09,
  09, 06, 05, 01, 00, FF, 00, F8, F4, F5, F7, EF, E7, F0, 05, 02,
  FC, FF, 05, 02, 01, 00, 00, 04, 08, 0B, 0D, 06, FF, 0B, 0C, 12,
  0B, 08, 0D, 07, 03, FF, F3, F6, E5, E9, FB, 0B, 09, 01, 01, 05,
  00, FD, FF, FF, 07, 12, F4, ED, F9, 0B, 0E, 06, 03, 06, 00, 02,
  FA, 0F, 06, FF, F8, FB, 04, 0A, 11, FE, 02, 01, 05, 04, 01, 04,
  09, F1, FD, 01, FC, FA, FA, 11, 08, 12, 01, FB, 07, 0B, FD, 07,
  05, 06, 0F, 07, 0D, FE, 02, 04, FD, 03, FF, 01, F8, E3, E3, F1,
  06, FA, EF, 04, 0A, 05, F5, F5, FC, 03, 03, 10, 06, 02, 06, FE,
  04, 02, 00, 03, FE, 04, 01, 00, 00, 05, FE, 08, 03, FF, 03, 06,
  00, 04, 05, FE, FF, 06, 02, FE, 02, 00, FE, FE, 02, 00, 05, 01,
  03, 03, 01, 04, 05, 04, FD, 00, 04, 04, FF, 01, FD, FF, FD, 00,
  02, FD, 03, 02, 00, 03, FF, 06, 05, 04, FE, 03, FE, 00, 00, 05,
  FE, 04, FD, FF, 02, 00, FE, FE, 06, 06, FD, 03, 02, 01, FE, 05,
  00, 01, 06, FE, FE, 06, 03, 02, 04, 03, 04, 03, 06, 02, 00, FC,
  FB, FA, 02, FC, 00, F7, F4, F7, FB, F6, FA, F9, 00, FC, 00, 02,
  01, 04, 02, 06, 03, FD, 01, 01, FE, FE, 01, FE, F9, E9, EC, F3,
  F9, 07, 0A, F3, F9, FD, F8, 02, 00, F9, FB, FB, 03, 02, FE, 03,
  04, 05, FD, 01, FD, F9, FE, FC, EE, E4, E7, FE, FD, 12, 09, F1,
  FD, 0E, 14, 14, FE, FC, FF, FB, F7, F9, 05, 05, FF, 05, FC, FD,
  FD, FF, EE, F2, EF, EC, EA, F0, EE, 03, 03, EF, F6, 02, 04, FB,
  00, FA, FC, F7, FB, FC, 01, FD, 01, 00, 01, 0D, 12, 0C, 00, F6,
  F8, DD, E2, F2, 04, 07, 09, 00, EF, FD, 06, FD, EE, 08, 04, F4,
  F0, EC, FA, FC, 02, 02, 07, 16, 0C, F5, 0F, 08, FE, FF, F9, FF,
  FB, E9, F0, F4, FB, F4, 09, 00, EB, DC, EE, F4, EF, F6, FC, 04,
  01, 01, 0B, 15, 08, FF, 01, 0C, 12, 00, 05, F9, 08, F8, 01, 07,
  04, 00, 09, F7, FB, FC, F1, 11, F7, F6, FC, FD, 05, 0A, 04, 16,
  1D, 20, 05, 0D, 01, 0C, 01, 05, 03, 03, 01, 02, F8, 00, FD, 02,
  0E, 1B, 05, 16, 02, F6, F8, FC, FF, 06, 12, 1A, 20, 15, 02, 09,
  02, 0B, 09, 17, 03, 06, 07, F6, FA, 06, 01, 07, 15, 0F, 1B, 15,
  09, FB, FC, 00, 01, 08, 17, 21, 0E, FD, FC, 08, F8, 0B, 05, 12,
  0D, FC, E8, E9, F9, 08, 10, 13, 16, 04, 11, 16, 15, 02, FF, 02,
  01, 07, 0E, 15, 05, FE, 04, 0D, 01, 0C, 0D, 13, 02, D5, CB, E3,
  19, 1B, 06, FF, 03, 05, 12, 16, 28, 0F, FF, 00, FE, 0A, 19, 05,
  F3, F6, 0F, 06, FF, 10, 19, 16, F1, C1, B7, D8, 0C, 04, FE, F5,
  FF, 06, 08, FE, 14, 0E, 04, 00, 00, 00, 12, 08, EC, 0E, 0F, FD,
  FC, 09, 1D, 14, D6, 9C, C2, F7, F5, F4, FF, F9, F8, FE, 0D, 15,
  0B, 11, 04, 02, 03, FC, 05, 03, F3, 0A, 0E, 0B, FA, 04, 25, 01,
  AD, A7, E9, 05, F4, FF, 04, 02, 06, 0E, 0D, 02, 0E, 09, 03, 02,
  04, 03, 05, 05, 07, 01, FD, 0F, 0B, 08, 0E, CA, 97, CA, 04, F9,
  F0, 03, FF, 05, 05, 10, 00, FE, FB, F7, 04, 03, FE, 01, FD, 03,
  0E, 05, F5, 03, FE, FD, F6, C4, B3, F8, FF, F1, F6, FB, FF, F2,
  04, 01, 0A, FF, FF, 04, FE, FE, FF, 04, 02, F3, 02, 03, F9, 05,
  04, FA, E5, CD, E0, EF, F8, F2, FD, 01, 0A, EC, F2, 00, 0C, FE,
  F5, 00, 02, FF, 02, 08, FE, F1, 0D, 0C, 08, 01, 01, FA, E1, E1,
  F5, F6, 01, FB, F2, 09, 05, F9, FF, F5, 00, EA, FA, 02, FF, 01,
  01, FD, FE, F7, 02, 0D, F8, FB, F5, F2, 05, 10, 09, FD, FB, F0,
  F1, F5, F5, FB, F0, FA, F6, E9, FA, FD, FF, 06, FF, 00, 00, 01,
  FD, 0A, F0, F0, EC, F8, 15, 14, 07, F7, F4, EB, FA, F7, F6, FA,
  EE, F6, F8, F5, 08, FD, 02, 00, 02, 05, 03, FE, F4, 09, 05, FB,
  0B, 0D, 08, FE, 01, 06, 07, 05, 03, FE, 03, FB, E4, F2, F9, FB,
  00, FC, 05, FF, 02, 05, FD, 01, FA, 03, 17, 0D, FD, 07, 05, FE,
  07, 00, 06, 06, 03, 0D, F9, FF, EC, F5, F7, F3, F7, FA, 04, 03,
  05, 00, 02, FE, 02, 09, 0F, 0A, 0C, F9, F8, F4, 02, FA, FD, FC,
  FD, FF, F6, 09, EE, F9, 02, F2, FB, FD, 03, FD, 00, 02, 00, 06,
  FF, FB, F7, 0B, 0E, 06, FF, 03, 02, 0D, 08, 04, 1C, 03, 02, 0D,
  F7, FD, 06, FB, 02, FF, 04, FE, 00, FD, 01, FD, FC, F6, ED, F6,
  FA, FA, F3, FF, 0F, 09, FE, 00, 07, FC, 0C, 24, F9, 01, 08, 05,
  04, 00, 04, 01, FF, 01, 00, 05, 02, 00, 04, 00, FF, 02, 05, 01,
  00, 0E, 0A, 03, 09, 0D, 13, 08, 03, 0A, 03, 04, 03, FD, FE, FD,
  06, 07, 08, 03, 0C, 0A, 0A, 0A, 09, 05, 0B, 09, 06, 09, 04, 04,
  05, 0A, 08, 0B, 06, 04, 04, 0A, 0B, 05, 09, 04, 05, 04, 04, 03,
  08, 08, 06, 04, 05, 0C, 0B, 08, 0B, 09, 0D, 0F, FD, 04, 0C, 0C,
  0B, 03, 09, 09, 0B, 05, 0C, 0B, 07, 0A, 08, 03, 09, 04, 06, 0A,
  04, FF, 00, 03, 06, 09, 0B, 20, 19, 17, 10, 08, 0F, 0B, 0C, 07,
  03, 0B, 07, 03, 0B, 04, 05, 04, 0B, 06, 08, 05, FB, F5, F7, F1,
  F9, ED, E8, F2, 05, 1F, 0F, 0C, 01, FF, 03, 0C, 04, 09, 07, 06,
  05, 09, 09, 04, 05, 0A, 08, 02, FC, F0, F7, F3, EE, EE, EC, EC,
  FD, 0B, 04, 18, 1A, 03, FD, EC, F0, 04, 0A, 08, 0A, 06, 04, 03,
  09, 04, 04, FF, EE, E1, D8, E2, F0, EE, F7, 0B, F9, 02, 03, 0A,
  FE, 09, 07, F1, F5, 04, 04, 0B, 06, 0A, 05, 0B, 05, FF, FC, EF,
  E7, D9, E4, F9, EF, F1, FF, 00, FF, 09, 03, F7, F5, 05, F9, F9,
  F6, FE, 06, 06, 03, 08, 01, 03, 05, FF, EF, EB, E1, DF, ED, F6,
  09, 07, 0E, 02, 02, FD, FA, FC, 08, 02, F9, EE, E8, FA, 07, 03,
  0B, 04, 01, 0C, 07, FD, FC, F1, EA, DF, F2, FB, 07, 0D, 03, FA,
  EC, F4, FB, 04, F9, EC, F3, EE, F1, F5, 06, 05, 08, 0A, 09, 07,
  06, FC, F5, DF, D9, EE, 0A, 05, FD, 07, 0D, 09, F5, F6, 01, FE,
  E2, F2, FB, EF, F2, F6, FA, 06, 07, 08, 0B, 02, FC, F4, EA, E3,
  EE, F0, 08, 05, FF, 10, 1E, 0C, 03, F1, 01, 04, DA, EB, F9, E9,
  F6, F6, FC, 06, 0C, 07, 0B, 05, 07, F6, EF, F1, F0, FC, 06, 09,
  00, 17, 0F, 08, 04, 00, 14, FF, F6, F1, ED, E3, EC, ED, 05, 0B,
  0A, 0B, 0C, 08, 06, ED, EB, EF, FF, 05, F9, 14, 03, 0F, 12, 15,
  10, 07, 0C, F5, E5, EB, E8, E7, F5, F8, FD, 07, 03, 0A, 09, 09,
  FF, EF, F0, F7, 08, 05, 00, 06, 05, 12, 1A, 16, 10, 07, 10, EC,
  E4, F5, F6, F4, FC, FA, F9, 07, 04, 04, 06, 0B, 05, FE, E3, EC,
  FA, 0C, FD, FB, ED, 09, 0D, 06, 08, F1, F4, E6, EE, F4, EF, F8,
  00, 0B, 09, 06, 0C, 04, 08, 08, 01, FA, E9, DD, FA, 0B, 00, F6,
  F3, 06, 0C, 04, 14, F6, EC, F1, FD, 03, F8, F4, FA, 08, 07, 0A,
  04, 0A, 0B, 05, 02, FB, FB, E7, FB, 04, 04, 09, FB, FC, 0A, 03,
  0C, EA, E8, F2, 00, FE, F4, F5, FA, F7, 01, 06, 0B, 05, 04, 08,
  07, FC, F3, E7, F2, FA, FC, F5, F9, 02, 0C, FB, F2, E1, EE, E8,
  09, 09, FA, F3, F2, F9, 02, 02, 06, 06, 04, 0A, 04, FB, E1, D6,
  E4, 06, 07, FC, FA, 05, FA, F3, E3, F5, FB, F6, FE, FD, DB, E9,
  F2, 02, 0E, 0B, 09, 04, 07, 01, 06, F4, E5, E5, E4, 05, 0E, 0F,
  01, FF, F4, EF, F4, 04, FA, 07, FF, F0, E6, F0, 01, 09, 0B, 07,
  09, 06, 04, 04, 00, EF, ED, EA, F6, FC, 10, 09, 04, EF, F5, F6,
  FD, 03, FB, 02, FF, EE, F0, FF, 04, 05, 05, 08, 04, 04, 03, 03,
  FF, E8, E0, D9, FC, FF, 05, 09, FD, FD, FB, FD, 01, FC, FD, FA,
  F7, F7, F5, 05, 09, 09, 05, 0A, 0A, 0C, 0A, 04, 01, FB, EC, E9,
  01, F4, FA, EB, F2, 02, 06, 11, 11, 0A, 05, F3, ED, FC, 00, 03,
  04, 05, 07, 06, 09, 04, 0C, 01, FA, 04, 00, FB, 0B, F6, F8, FA,
  08, 08, 00, 09, 14, 19, 03, F1, F1, FE, FD, 03, 05, 04, 05, 09,
  08, 04, 08, 07, 01, 09, F8, F2, F3, F6, F5, E6, E6, E9, F3, FF,
  FE, F8, 06, F6, FF, 06, 07, 08, 05, 07, 05, 09, 0A, 05, 07, 08,
  09, 0A, FF, 05, 07, FD, EC, F3, E6, F4, F4, DF, FE, 10, 1B, 03,
  05, 07, 03, 09, 06, 0B, 06, 0B, 06, 07, 08, 08, 0A, 0B, 09, 09,
  0E, 14, 0A, 1A, 1F, 02, 14, 0F, 0C, 12, 10, 06, 0C, 03, 05, 0A,
  09, 08, 06, 04, 06, 07, 03, 0C, 04, 09, 0C, 0A, 03, 06, 08, 0D,
  06, 08, 10, 0E, 09, 0C, 06, 0C, 04, 07, 03, 05, 03, 07, 07, 09,
  06, 02, 00, 02, FF, 02, FF, 07, 06, 04, 00, 07, 06, 04, 01, 04,
  05, 03, 05, 06, 01, 07, 01, 01, FF, 01, FE, 06, 02, 02, 03, 04,
  FF, 08, 04, 05, 06, 09, 02, 09, 05, 00, FD, 02, 05, 02, 05, 09,
  05, 08, 07, 02, 02, 02, FE, 06, 04, 02, 00, 04, 05, 03, 03, 09,
  0D, 0B, 0C, 0F, 18, 1E, 1E, 0D, 12, 1C, 10, 0A, 0C, 0F, 0E, 0A,
  02, 04, 00, 01, FF, 06, 01, FF, FF, 09, 0E, 0A, 12, 24, 15, 12,
  0C, 00, 10, 0C, 0E, 06, 04, 10, 0C, 18, 10, 11, 0A, 00, 00, 04,
  02, 07, 02, 03, 07, 0A, 0E, 11, 13, 10, 08, FC, FF, 02, 00, F3,
  F8, FF, F7, 0E, 15, 0E, FE, 0F, 0A, 06, FF, 01, 01, 04, 05, 03,
  05, 04, 06, 05, 0F, 05, 07, EF, F7, F7, 10, 01, 00, F9, 02, FE,
  01, 0B, 06, 12, 04, 03, 08, 04, 04, 05, 01, 00, 07, FB, FD, 05,
  0B, 05, EC, DB, D0, E8, F7, 06, F9, F5, EB, F2, ED, F2, 06, 0B,
  F7, 01, 0D, 0D, 02, FF, 07, FC, 05, 01, 02, 04, 0A, 03, EC, E4,
  E6, EF, FD, FC, F8, FF, F4, ED, F1, E7, FF, EC, FB, FE, 06, 06,
  02, 08, FF, FF, FC, FA, FF, 04, F9, 08, F9, EA, E0, F9, FD, FC,
  F6, F7, F0, ED, EB, EC, F2, EB, E6, F2, FB, FF, FF, FF, 03, 06,
  FE, F8, F4, F9, F9, F4, F5, EC, EB, EA, F0, FF, 03, F9, F2, FF,
  FC, F9, F0, E9, E9, EF, FE, 01, 04, 04, 01, FC, FB, 04, EF, F5,
  04, F6, F3, F0, E9, EA, F0, 07, 02, 03, FA, FE, 01, FE, FB, EC,
  EE, F7, FC, 01, 02, 01, FE, 03, F1, F3, EE, EC, 05, FF, FB, ED,
  E8, F0, F8, FA, 05, F8, F4, FB, FD, FE, FD, F2, E4, FA, F8, 01,
  01, FF, 05, F8, E0, EE, F6, 00, 09, FF, 10, 0B, 05, 0B, F1, F5,
  05, F4, F5, FE, 01, 09, 01, F5, F7, FC, FF, 05, 06, FF, 01, F8,
  E3, FA, 05, FC, 05, 07, 0D, 1B, 18, 10, F0, 08, 0D, 04, 01, 05,
  FE, 13, 0E, 1B, 11, 01, 07, 03, 02, 02, 03, 0A, 01, 10, 10, 0C,
  0E, 0F, 0E, 0D, 16, 14, FF, 0F, 11, 08, FD, 08, F9, 0A, 13, 15,
  1A, 0C, 00, 05, 08, 05, 05, 07, 02, 0D, 18, 1D, 0D, 08, 03, 02,
  0F, 0F, 0D, 0F, 12, 0C, 00, 09, FC, 0A, 16, 0A, 08, 18, 03, 00,
  05, 03, 08, 0C, FD, 0C, 0E, 14, 08, 07, 07, 03, FC, 00, 0B, 16,
  0D, 0E, 01, 0C, 0E, 19, 0F, 08, 0A, 23, 02, 02, FF, 04, 04, 0A,
  06, FD, 07, 06, 05, 06, 07, 04, EE, F6, 0D, 13, 16, 08, 0A, 03,
  09, 15, 08, 03, 01, 1C, 04, 00, 07, 05, 08, 07, 0C, FF, FB, 00,
  01, 03, 02, FD, 05, 00, 0A, 0C, 10, 06, 0D, FD, 03, 0E, FE, 03,
  0F, 09, FF, 02, 05, 07, 00, 0B, 09, FD, 04, 04, 01, 04, 02, 04,
  FA, F4, 05, 09, 0F, 0B, 0B, F4, FC, 01, F8, F9, 00, 08, 08, 01,
  05, FE, 01, 03, 00, EE, EA, 03, F8, 03, 03, 04, 03, F5, 02, 08,
  08, 03, 08, EE, F0, F8, F1, F2, F7, F3, 09, 05, 05, FF, 06, 01,
  02, F5, DE, E8, 01, F8, F8, FF, 02, 03, FD, F6, F9, 09, FA, ED,
  F4, 04, 00, F2, E0, F8, 01, 07, 01, 04, 02, 03, 02, F9, EA, E0,
  ED, FB, 02, FA, F8, FA, ED, F0, F4, EF, F2, F7, F2, 08, FD, EB,
  E7, F3, 04, 04, 00, 03, FF, 07, 01, 01, F4, F5, F1, E7, E9, F1,
  F7, EA, EF, EE, ED, E7, FD, F9, FA, 11, F7, EC, E9, FF, 02, 06,
  00, 04, 07, 03, 02, 02, F8, F9, F5, F2, E3, F4, F2, EB, F8, FE,
  09, 02, 05, 06, 0B, 0B, F8, F1, 00, 03, 06, FF, 04, 07, 01, 01,
  02, 02, FF, F8, F9, EE, E9, F9, E6, F4, F8, FC, F4, F8, EF, F2,
  02, F9, FC, F8, FD, FF, 03, 02, FF, 05, 04, FF, 07, 04, 01, FB,
  F3, F5, EE, F2, E6, EC, E2, E3, F0, F1, E8, F0, EF, FD, FB, FE,
  00, 05, 04, 04, 01, 05, 00, 02, FF, 00, 05, FD, FE, FE, FD, FD,
  00, 03, F4, FE, 00, 06, 00, 01, 04, 02, 03, FF, 06, 07, FF, 02,
  00, 01, 08, 04, 04, 06, 04, 03, 06, 03, 05, 00, 08, 02, 00, 03,
  06, 08, 08, 05, 00, 05, 00, 06, 03, 07, 09, 02, 07, 06, 00, 06,
  05, 00, 03, 09, 06, 03, 06, 04, 02, 05, 07, 04, 04, 09, 05, 02,
  09, 07, 02, 07, 07, 01, 05, 06, 06, 05, 05, 05, 00, 02, 04, 09,
  05, 0A, 00, 05, 08, 09, 0E, 0A, 12, 13, 13, 0E, 09, 0C, 06, 09,
  04, 01, 03, 02, 04, 08, 02, 00, 05, 05, 08, 01, 08, 00, FF, 00,
  F9, F9, 00, FF, F8, 02, 10, 0D, 0B, 09, 06, 0A, 06, 02, 07, 01,
  03, 09, 08, 02, 00, 00, FC, FB, EE, F6, F5, 01, FD, F2, 02, 02,
  09, 01, 00, FE, FE, FE, FD, 0C, 09, 09, 05, 08, 04, 00, 08, 05,
  FB, F6, EA, E7, F2, 02, 03, 0E, 08, 09, FE, F8, 01, 0D, 00, FF,
  0A, 00, 03, 04, 08, 0A, 03, 06, 03, 06, 03, 00, 01, FC, E0, EB,
  00, EF, F5, 07, 01, 03, 01, 05, 00, 0D, 03, 10, 04, FD, 0D, 10,
  0D, 0E, 00, 00, 03, 01, FF, 02, F6, EE, E6, DF, F7, FD, 0B, 03,
  F5, FB, FC, 08, 05, 06, 11, 0B, 02, 01, 09, 09, 07, 05, 01, 01,
  02, 07, 05, 01, FB, F3, FB, F3, 08, 10, 08, 05, 01, FF, FB, 03,
  0B, F4, F5, FB, EA, F6, FC, F2, 0B, 16, 0E, 08, 04, 04, 00, FD,
  F1, E4, EA, F1, 0C, 1C, 0C, 11, 05, EC, CD, D6, EC, E4, DC, EC,
  EC, EC, F5, FA, 18, 16, 0A, F9, 03, 03, 00, F9, F1, E5, E4, F2,
  0C, 12, 17, 18, 18, F5, DE, DE, EE, F4, F3, F5, F8, EF, FC, 0E,
  13, 09, 02, 03, 00, 06, 03, FB, EF, EE, EC, F8, 02, 0D, 12, 1A,
  20, 10, FE, 00, 02, 0D, 0E, 0D, 04, FF, 03, 1E, 1E, 18, 11, 08,
  05, 01, FF, F6, EB, EB, F0, F0, 01, 03, 03, 1A, 1A, 1D, 01, 07,
  03, 11, 0A, 09, 0F, 0E, 10, 1F, 10, 00, 07, FD, 02, 00, 06, F6,
  F1, E6, DD, F8, FA, 0A, 0D, 16, 18, 11, 07, 0B, 03, FE, 01, 09,
  17, 0F, 0F, 00, 02, FA, FF, 01, 08, 04, 01, 01, FD, F1, E8, 01,
  F4, FA, 0B, 0D, 01, 07, 13, 08, 04, 02, F3, F7, 03, 13, 0C, F9,
  F7, F5, FF, FF, 01, 03, 08, 03, 01, FB, F1, F7, F1, F6, FE, 03,
  FE, 02, 0D, 06, 02, FD, F5, F2, E8, 07, 0B, F5, FB, FA, F8, 06,
  02, 02, 02, FC, F8, F3, F0, F2, F8, F3, F5, FA, 05, FE, FC, 06,
  00, FF, F1, EC, EA, F3, FE, F8, F6, F6, F4, 05, 02, 03, 01, FC,
  F8, F8, F6, F7, 05, 00, F5, F8, FE, F9, F7, 00, 06, FE, F6, F5,
  FA, FB, FA, FD, 02, F4, FC, 03, 07, 05, 02, FF, FA, 0A, 12, 02,
  10, 02, F7, 02, FD, F7, F1, F7, FC, FE, EF, F2, F6, E9, F8, F9,
  F5, F9, FD, 01, 06, 03, 01, FC, FA, 01, FB, 02, 1A, 02, 02, F8,
  01, F6, F9, F8, FD, FA, F1, FE, F6, F4, 06, FD, F7, F7, FE, 06,
  04, 04, 00, FC, FA, FB, F0, F9, 0D, 09, 10, 04, 08, FB, ED, FF,
  F7, F7, F4, FF, F9, 04, 09, F4, F5, FB, 04, 06, 04, 06, 05, 04,
  08, FA, F4, FE, FB, 0D, 01, 06, 03, FC, F2, F6, F0, F5, F5, F7,
  FF, 01, FD, F4, FB, 02, 05, 07, 04, 04, 08, 02, 12, 01, EF, FD,
  F2, FB, 01, 06, 08, 08, 02, F7, F4, EC, FA, FC, F7, E9, F3, 02,
  00, 04, 03, 07, 04, 05, 01, FF, 07, 08, F6, FA, 05, F8, FE, FD,
  0D, 0B, 12, FE, 00, F9, ED, E1, DB, F2, FC, 08, 09, 03, 08, 00,
  06, 06, 01, 00, FF, 06, F3, FE, 07, 04, 0A, 02, 08, 0A, 0A, 12,
  16, EF, EA, EE, FB, 00, 04, 02, 03, 00, 02, 05, 07, 08, 02, 00,
  05, FD, F8, FF, FC, F5, 02, FB, F2, 0C, 0F, 1F, 2A, 23, 11, 07,
  04, FE, 01, 07, 02, 00, 00, 02, 06, 03, 05, 00, 01, 04, 09, 09,
  0A, 11, 0A, 0A, 0C, 06, 08, FB, 04, 0F, 09, 05, 04, 04, 07, 00,
  06, 00, 04, 03, 09, 07, 05, 02, 08, 06, 00, 03, 01, 06, FD, 09,
  FF, FE, 05, 02, 00, 01, 05, 09, 07, FF, FD, 07, 01, 04, 08, 05,
  03, 01, FF, FD, 03, FB, 02, FB, FC, FD, FB, 02, FB, FC, FF, FD,
  FC, 03, FC, FF, FA, 00, 02, 00, FB, FE, FE, 00, FC, FA, FE, 01,
  02, FA, 04, 07, 03, 03, 02, 05, 02, 00, 02, 01, 06, 04, 03, 03,
  FE, 00, 08, FE, FC, FD, 01, FC, FF, FA, FD, 01, FC, 00, 01, 0B,
  0B, 04, 0F, 1B, 19, 0E, 0D, 07, 09, 16, 12, 10, 12, 0E, 0E, 06,
  FF, 02, 01, FD, FC, FD, 01, 01, 01, 05, 0F, 12, 17, 1B, 18, 0C,
  0E, 18, 14, 08, 15, 11, 1B, 1A, 10, 1B, 15, 08, FD, 00, FE, FE,
  03, 02, F7, FE, 03, 06, 17, 14, 11, 10, 09, 05, 01, 01, 08, 00,
  0B, 11, 0C, 0D, 09, F5, F0, EE, E9, F9, 00, 03, 02, 03, FB, FF,
  0C, 00, F8, 02, FE, 03, 03, FB, FB, F2, FD, 01, 03, 03, FF, 0B,
  0F, F8, E9, EE, ED, F5, 01, FE, FD, FB, 03, 07, 14, FF, FC, 06,
  07, FD, 09, 0F, 01, FB, FD, 03, FF, F3, F2, EF, E6, EE, EB, E3,
  ED, 01, FB, 02, FB, FC, 02, 07, 1B, 07, 02, 13, 07, 00, 07, 06,
  01, 01, 01, FD, EE, E6, E4, D1, CC, E1, D9, DE, F6, 07, FE, 03,
  00, 02, 03, 05, 1A, 07, F8, 07, FD, F2, F9, F5, F2, 01, F4, E6,
  DD, D4, D6, CE, D9, DA, E3, EA, F5, FA, FD, 03, FC, FE, FE, FE,
  15, FC, F9, F9, F7, EE, E1, E1, E2, E3, F1, DE, E3, DB, DE, DA,
  E6, E7, F1, F1, 00, 02, F9, FD, FD, FD, 00, FE, 03, F2, E5, E3,
  E9, EB, E6, EA, F3, F1, F2, F0, FE, FB, FF, FC, 04, F6, F4, 01,
  07, F7, 00, FC, FD, FD, FB, FA, FD, E8, ED, F3, EF, F7, F3, 0A,
  00, FB, 0C, F5, 0E, 11, 0A, 0C, 02, FF, FD, 11, 0C, FA, FA, FB,
  FE, 00, 02, FD, F7, E7, F8, 0C, 07, 04, 0D, 15, 09, 06, 0D, 00,
  1B, 14, 10, 04, 0E, 05, 00, 0A, 08, 01, 00, 02, FE, 00, 01, 01,
  F3, F4, 0A, 0C, 0B, 02, 05, 05, 07, 04, 07, 0F, 1B, 02, 02, 04,
  00, 0A, FD, 17, 0C, 04, F7, FC, FB, FE, FC, 03, EA, F7, 18, 0A,
  FF, 05, 07, 09, F6, FD, 0C, 13, 13, F2, 01, FB, 08, 14, 05, 05,
  09, FC, FB, FC, FF, 02, 00, 02, F6, FE, 19, 08, F7, FF, 07, FD,
  FA, 01, 08, 04, 05, F1, 0E, 0A, 0D, 12, 05, 07, 0C, FB, F3, 00,
  FB, 02, FD, 09, FE, 0E, 0D, FD, F1, 02, 0E, 0B, 0A, 0A, 01, EB,
  E9, EA, 02, 0D, 05, 0E, 10, 05, 16, 0A, F7, FE, 02, FB, FE, 0B,
  FA, 01, 07, 03, 05, F6, 05, 07, 10, 04, F8, EC, F2, FC, FA, 07,
  03, 0D, 0F, 04, F3, F9, F7, 04, FE, FB, 00, 0A, FA, 00, FD, 0A,
  06, F9, 03, FF, 0A, 03, F6, F9, 04, 0A, FF, FA, FC, 08, 04, FF,
  EF, FD, F9, FB, FE, FE, 02, 0C, 03, FE, 04, 03, 09, 08, 0A, 08,
  07, 01, FA, 02, 09, 0D, FE, F5, 03, FF, FD, 02, F4, FF, 03, FE,
  FA, FC, 00, 0F, 07, FE, F9, 03, 06, 06, 05, 04, 02, 0C, 0F, 08,
  05, FF, 01, F8, 03, 03, FA, F7, F5, 02, FF, FE, 02, 03, 02, 0C,
  00, E4, EF, 00, FD, FD, FC, FF, 06, 10, 18, 0A, 0E, 0D, 11, 06,
  08, F7, EF, EC, EC, 02, 04, 03, FB, FA, 05, 0A, 08, F2, FD, 05,
  02, 00, FB, F7, FD, 0D, 07, 0E, 0F, 11, 02, 06, 00, F0, F4, EE,
  EF, F6, FB, 02, 02, 01, 05, 08, 06, 0A, FF, 04, 0E, 12, 0E, 02,
  FC, 01, FA, 01, F6, F7, FE, 01, FF, 03, FC, FB, F8, F9, FF, FA,
  FE, FC, 03, 06, 02, FF, 07, 0C, 0F, 11, 08, 03, 09, FD, 05, 01,
  08, 00, F0, FC, 02, 0D, 04, FE, 00, 02, 00, FE, FE, 00, 02, FA,
  FB, 03, 06, 0A, FE, 01, 0D, 13, 0C, 0A, 0B, 0B, 1A, 16, 04, 07,
  FE, FA, FA, F8, FE, 02, 03, FA, FD, FD, 01, 02, 03, FE, FF, FA,
  FD, FD, FB, F9, F6, 02, FE, FE, 02, FE, 02, 03, 04, FF, FD, FB,
  FD, FC, FE, FD, FE, FD, 00, 03, FF, 01, 00, FA, FE, FB, FD, FA,
  FB, FD, FA, FE, 02, 03, FD, FD, FB, FF, FE, FC, 01, FE, FD, FD,
  01, 00, 05, 02, 02, 00, 03, 01, 00, 08, 02, 04, 08, 00, 05, 04,
  01, 03, 04, 04, 08, 07, 01, 01, 08, 08, 06, 00, 02, 05, 08, 04,
  05, 08, 06, 04, 07, 02, 05, 06, 07, 05, 03, 07, 02, 08, 05, 05,
  02, 08, 09, 05, 04, 05, 08, 03, 01, 02, 02, 06, 05, 06, 08, 02,
  01, 08, 00, 06, 07, 06, FE, FD, FB, FD, 02, 01, 03, 02, 08, 09,
  05, 06, 01, 02, 04, 00, 08, 06, 06, 09, 06, 07, 0B, 0D, 08, 14,
  09, 1C, 27, 11, 00, 05, FD, F0, FE, 00, 04, 06, 05, 01, 07, 07,
  05, 07, 00, 01, 09, 09, 0E, 16, 1E, 18, 1A, 14, 14, 25, 1F, 10,
  09, 01, 00, F2, E9, EE, F9, EC, F4, FF, 07, 02, 06, 04, 07, 00,
  06, 05, 0A, 10, 07, 00, 01, 03, 0A, 21, 1B, 1C, 05, FB, FA, 02,
  F1, F6, F2, DB, F9, 0A, 05, 06, 04, 03, 04, 0A, FF, FA, F3, FC,
  F8, F8, F9, EE, EF, 01, F8, 07, 1C, 13, 0A, 03, 0A, 05, E7, E3,
  EC, 0D, 01, FE, 02, 09, FF, 06, 01, FF, FB, F6, F0, F2, EE, E1,
  E1, EC, F5, 11, 1C, 28, 1F, 07, 0B, FC, E5, E2, F4, FA, 0A, 02,
  05, 04, 02, 05, 01, F8, 03, F5, F1, F4, F3, EE, FE, 08, 02, 04,
  0D, 12, 14, 0A, 12, 07, 04, EE, FA, F4, 0B, 02, 04, 06, 04, FD,
  F8, FD, FB, FD, FC, FB, 07, F7, 03, 16, 00, EE, F1, FC, F2, 07,
  19, 0C, 0C, 09, 01, F6, 00, 00, 02, 02, 06, 03, FC, EF, F3, FA,
  F5, 06, 07, 04, 05, 06, 06, E8, F0, EF, FD, 00, 21, 16, 21, 1A,
  E4, E5, 00, 09, 04, 08, 08, 00, F9, EA, F1, 05, 09, 06, 03, 05,
  EC, FC, 03, FF, F7, 03, 08, 11, 1D, 10, 16, 0A, EB, F7, 06, 05,
  05, 01, 06, FF, FC, F6, F8, 09, FB, 07, 0A, 04, E8, F6, 07, 05,
  00, 14, 13, 0C, 06, 0A, 09, 11, 01, FE, 06, 02, 01, 03, FF, 03,
  FE, 03, F4, 03, FC, 04, 03, F1, F2, FF, 07, 0F, 0B, 05, 09, 01,
  01, 04, 0D, 0B, 00, 03, 03, 06, FF, 04, 01, FC, FA, 03, F8, F4,
  FC, 08, FF, F6, FF, 09, 05, 16, FC, 0A, 01, F7, 04, 10, 09, 07,
  0C, FA, 02, 03, 01, 08, 06, F6, 04, 1C, FB, F9, FD, 04, 08, F9,
  07, 15, 0E, FC, F2, FA, FC, F2, 03, FE, 07, 0E, 0D, FA, FD, 07,
  03, 00, 05, 03, 0D, 17, FF, 00, FF, 13, 03, 09, 04, FD, F7, E9,
  F0, F7, ED, F7, F7, F4, 02, FC, F9, FC, 00, 02, 02, 02, 08, 09,
  07, 00, FB, 0A, 05, 0C, 01, 07, FE, EB, E9, E9, F4, 06, FF, 11,
  F6, FC, 01, F6, F8, F5, 02, 05, 08, 09, 03, 0C, 04, 02, FD, 02,
  10, 0B, FF, FB, E7, E6, FA, 08, FE, 0E, 0E, 00, FA, F8, F9, F2,
  F1, FE, 01, 07, 04, 05, 05, 0D, 01, 03, FB, F7, 0A, 06, 00, EB,
  E8, F7, FD, 08, 05, 12, 0B, 01, FF, FB, EA, EC, F6, FD, 05, 04,
  05, 07, 06, 08, 10, 11, F5, F9, F4, 04, 06, FB, F4, F6, 06, 0D,
  00, 00, F9, FF, FF, F2, E6, E3, F2, 01, 03, 02, 06, 04, 03, 11,
  0E, FD, FD, 04, F5, F9, 05, 05, FA, F9, 0B, 08, F7, FC, F9, 09,
  FE, DB, E4, E5, ED, 06, 02, 04, 03, 07, 03, 07, FB, F6, FA, F6,
  EE, FE, 01, 10, 0C, 0D, 0B, 08, F6, F7, FD, F9, E4, E2, EE, F3,
  F9, 06, 03, 01, 03, 06, 0A, 03, EE, F5, F4, FE, 09, 09, 0D, 12,
  0D, 17, 06, 04, FA, 07, F9, E9, DC, F0, F4, FA, 02, 06, 03, 00,
  04, 01, 09, 08, 00, F8, 02, 0C, 0A, 01, FF, F1, 0C, 01, E5, F3,
  FC, 0B, FE, F5, F7, FC, 01, FF, 01, 07, 02, 04, 08, 05, 01, FF,
  F7, 00, 03, 0E, 25, 19, 06, 01, 11, 01, FC, FE, FE, 0A, 0E, 06,
  0D, 09, 09, 00, 05, 06, 05, 01, 00, 07, 01, 08, 07, 0B, 0D, 07,
  FD, FF, 06, 0C, 03, FF, 16, 0B, 04, 0F, 0A, 0A, 05, 05, 06, 07,
  09, 04, 00, 00, 05, 07, 07, 01, 01, 07, 03, 06, 02, 01, 07, 04,
  02, 04, 07, 02, 05, 08, 08, 05, 03, 08, 00, 03, 07, FF, 01, 04,
  FF, FF, FF, FE, 06, 00, 04, 01, 06, 00, 01, FF, FF, 03, FF, 06,
  04, 02, 06, 01, 04, 04, 02, 03, 06, 00, 04, FF, 00, 01, FE, FE,
  FF, 06, 05, 04, 02, 04, 03, FF, FC, FE, 02, 04, FF, 01, FE, 05,
  02, FE, 04, 02, FE, 00, FD, 03, 03, FD, 02, FF, FF, 04, 02, 07,
  05, 07, 0C, 04, FF, 01, 16, 19, 0E, 0A, 06, 0F, 05, 00, 03, 00,
  01, FF, 02, 06, FE, 02, 05, 05, 05, 00, 04, 0C, 08, 0C, 12, 06,
  07, F8, 02, 0C, 10, 0D, 0A, 1A, 16, 0D, 09, FE, 05, 06, FE, 04,
  00, 06, 06, FE, 05, 0B, 0F, 08, 03, 04, 16, 0E, 07, 0B, FC, FC,
  FD, 04, 11, 0A, F6, 01, FF, FC, 03, 08, 04, 05, FE, 03, 01, 03,
  0A, 1B, 14, 0F, 00, 0A, 12, 14, 12, 1B, 08, 07, 0C, FD, 01, 01,
  F6, F5, F8, FE, 06, 03, 02, 05, 04, 05, 01, 01, 0D, 1A, 20, 11,
  05, 11, 13, 17, 05, 0B, 06, FE, F6, F7, 08, FD, F7, EF, E3, F2,
  FA, 04, 01, 05, 00, 04, 03, 08, 13, 0F, 1B, 0F, FD, 03, FE, 06,
  02, FA, 01, F3, F4, F2, F1, F2, F0, EF, E7, E6, FA, F8, 02, 02,
  06, 06, 05, 0B, 15, 00, 02, FD, EC, E9, F7, E8, ED, FB, 0A, F2,
  E6, E7, EB, EC, E3, E1, E6, E8, FA, 04, 05, 02, 05, FF, 01, 03,
  0E, F4, E1, E6, D8, CF, DA, E5, EE, 09, 0A, 09, EE, F0, EE, E5,
  DE, DC, DF, E0, EF, 07, 04, 03, 05, 01, FE, 06, F6, D5, C7, C9,
  CF, DA, E9, FC, 05, 16, 14, 01, FE, F6, F5, F1, E9, E7, E6, ED,
  F8, 04, 05, 06, FE, FF, FA, 03, ED, CE, CC, DA, EA, E5, 05, 14,
  1C, 18, 0B, 02, F7, F9, FF, FC, 06, F9, F5, F4, 00, 0D, 04, 04,
  FE, FE, 00, F7, EC, F0, E5, 08, 15, 0D, 11, 17, 16, 10, 06, F4,
  F8, F4, FF, 01, 0C, 08, F9, EB, F3, 13, 05, FE, 01, FD, 01, FE,
  EF, FE, 21, 1C, 1A, 13, 07, 01, 0C, 0D, 08, F9, F7, EF, F8, 00,
  11, 0E, FC, F2, 00, 0D, 04, 05, 05, 01, FF, FE, F8, F9, 18, 0A,
  0D, 08, FC, F8, 08, 09, 0E, FD, F8, FA, 02, 07, 04, 0B, 01, F6,
  00, 0B, 07, 03, 03, 03, 06, 09, 03, F6, 00, E0, E9, F2, E6, F3,
  07, 04, FD, F4, 06, FF, 07, 04, 0B, 0A, FF, FF, 0D, 06, 07, 04,
  01, 00, 06, 08, FF, EE, E6, D8, D2, E6, E8, EA, E8, F8, FF, F0,
  FE, F0, 0B, 0C, 05, 0B, 16, FF, 1D, 15, 01, 05, 00, FF, 08, 0A,
  FD, F8, F3, EE, F5, F2, F9, E2, E6, F9, 00, FB, FE, EF, FE, 03,
  F5, 06, 00, 04, 04, 07, 01, FC, FE, 00, 07, 0D, 01, 11, 0D, 07,
  0C, 0E, 03, EB, F3, 03, 05, FD, FC, 00, FD, F7, F8, 09, FB, 01,
  05, 09, 03, 05, FF, FD, 03, 0F, 04, 11, 09, 0C, 0A, 11, 10, 09,
  08, 02, 02, 13, 0F, 0B, 06, F9, F5, F9, FA, 0E, 0B, 0F, 05, FF,
  05, 01, 07, 0B, FC, 01, 00, 01, 04, 14, 05, 0B, 04, FD, 05, 0E,
  0A, 03, 10, 06, 01, F8, 04, 0F, 08, 09, 04, 04, 04, 06, 03, 07,
  F8, F4, FA, 05, 01, 0F, 09, 03, 05, FE, 06, 01, 00, 03, 18, 0F,
  FD, EB, 02, 08, 0A, 07, FE, 02, 02, 05, 00, 02, 02, 05, 05, 06,
  FD, 0A, 03, FD, F2, FB, F9, 06, F8, FA, 07, 0F, 0F, FE, FD, 00,
  01, FE, 03, 01, 02, 06, 02, 04, FE, 07, 04, 0C, 0C, 1B, 11, 04,
  FB, F5, 00, 03, FB, F1, 01, 0F, 1A, 02, F8, 01, 04, FF, 04, 00,
  05, 04, 05, 03, 05, 04, 0A, 11, FE, 06, 15, 0D, F9, FE, 0A, 02,
  F9, 04, 00, 02, FB, 01, 00, 05, 08, 02, 04, 03, 01, 00, FF, 05,
  FE, FA, FF, FB, FE, F5, EF, E9, F1, FA, 04, F7, E8, F3, F9, 0B,
  04, FB, 02, 01, 02, 01, FE, 06, 04, 00, 00, 03, 03, 06, 04, FE,
  FF, FA, F5, F8, FE, 01, FA, FF, FD, 03, FF, FE, 03, 00, FF, 00,
  03, 02, 00, 01, 06, 05, 04, 00, 05, 01, FF, 00, 05, 00, 00, 00,
  01, 05, FE, FE, 06, 03, FE, 04, 06, FF, FE, 05, FF, 01, 03, 00,
  01, 05, FF, 01, FF, 03, 04, 04, 02, FE, 02, 04, 00, 04, FF, FF,
  FF, FE, 03, 01, 01, 06, 01, 05, 01, 00, 00, 03, 04, 02, FF, 03,
  FF, 07, 02, 01, FC, FD, 03, FD, 01, 03, FD, 06, 04, FF, FD, 06,
  FF, 00, FF, 01, 00, 07, 01, 00, 04, 05, 07, 05, 05, 03, FD, FA,
  FA, 00, F6, F9, F2, FC, 00, 08, 16, 08, 06, 02, 01, FA, FC, FA,
  FC, 02, 03, 04, FF, 03, 07, FE, FA, FD, FD, F8, E7, E5, EE, 08,
  F3, F8, 07, 14, 13, 13, 0F, 12, 07, F2, E5, E7, F5, 02, 04, 03,
  FF, 00, 03, FF, FE, F5, FB, FA, ED, EF, 02, 12, 03, FD, FC, 0B,
  0D, 12, 1C, 11, 04, F5, E8, D9, EE, FB, FE, 01, 05, 04, 01, 04,
  F9, FE, FA, FA, F6, F2, 0A, FA, F1, EB, E6, EF, 02, 18, 23, 15,
  06, 06, 09, 0E, 03, FA, 01, FF, 05, 02, 02, 06, FB, 05, 14, 08,
  01, 07, 03, EF, ED, E9, CE, D6, F9, 16, 19, 0D, 1B, 10, FD, 0D,
  02, F5, FE, 01, 06, 06, 02, 04, 07, 13, 16, 07, F0, F9, FB, FD,
  F9, ED, D1, DD, 02, 0F, 19, 1A, 17, 07, 07, 01, F8, F8, 02, 04,
  FF, 04, 05, 0C, 02, 0C, 0C, F0, E1, F4, F1, F5, F9, EA, C9, D7,
  0E, 1E, 10, 09, 08, 05, 06, F9, E3, F7, 04, 03, 03, 00, 03, 08,
  EE, FD, EC, EB, F3, F3, FC, FA, 00, F3, C6, D8, 18, 1B, 10, 0C,
  05, 0C, FA, E3, EF, FA, FE, FE, 05, FF, 02, 03, ED, ED, D9, E7,
  FC, F9, F8, FA, FF, E5, CB, E7, 1B, 1D, 13, 08, F8, FF, E6, D4,
  E9, FC, FE, 05, FF, 04, FF, FC, EC, EA, F8, F6, F3, F3, 01, EF,
  F0, EA, E1, FA, 12, 1A, 14, FD, FF, E8, DE, D7, F2, 01, 03, FF,
  01, 01, FE, FF, ED, F8, 0E, F8, F7, F6, FD, 04, FC, F8, F1, FF,
  0B, 1B, 04, F2, F8, FC, EE, E5, FE, 0A, 06, 04, FF, FF, FC, FF,
  0D, 03, 05, FF, 05, FC, 02, 01, F5, F8, F8, F4, 01, 12, 08, FA,
  04, 02, 0B, FD, 13, 0F, 0B, 00, 04, 01, FE, 04, 1B, 16, 0A, 0F,
  FE, 08, 09, FE, 01, 03, 01, FE, 04, 0F, 03, 04, 11, 10, 10, 15,
  12, 0B, 05, 04, 00, 04, 03, 09, 19, 16, 03, 09, 01, FD, 04, 0A,
  05, 0B, 06, 00, 06, 0D, 09, 0C, 01, 04, 0F, 15, 0C, 0A, 05, 05,
  05, 02, 02, 05, 0C, FF, 00, F5, FA, 01, F7, 00, 00, 03, 09, 03,
  00, 0B, 14, 15, 02, 14, F9, 0B, 16, 0E, 01, 04, 03, 07, 0A, 08,
  09, 0B, 06, FD, F1, F9, F7, 04, F8, F9, FD, FA, FB, 06, 14, 05,
  FA, FF, ED, FC, 07, 0C, 09, 00, 01, 05, 06, 13, FD, 0C, 00, 00,
  FC, 01, F3, F5, F9, F9, FB, 04, 00, 02, 07, F6, EF, F8, EE, F1,
  02, 09, 07, 02, 02, 02, 01, 16, 02, FF, 07, 0D, FA, FA, F3, FE,
  FA, FE, 00, 08, 06, 0A, 06, FA, F8, 01, F7, FC, 09, 04, 08, 02,
  02, 00, 0A, 1A, 18, FB, 08, 04, 03, F9, F7, FB, FD, 03, FB, 03,
  0C, 0F, 0E, 07, 0F, 0E, FF, 10, 12, 03, 03, 03, 00, 02, 0B, 0F,
  0F, 0C, 07, 02, 0B, FF, FB, F5, FA, F7, FA, 07, 04, 0B, 0B, 0B,
  07, 0D, 08, 15, 19, 03, 02, 01, 06, 02, 03, 09, 0B, 10, 14, 04,
  06, FE, FC, 03, F6, F8, F9, F9, F1, FB, FD, 01, 09, 1B, 12, 09,
  10, 09, 03, 06, FE, 02, 01, 02, 00, 02, 00, 0B, 04, 07, 02, F7,
  F7, FB, F3, F7, F9, 02, 0B, 02, 0C, 20, 08, 03, 03, 05, 00, 03,
  FF, 04, 04, 05, 02, EF, EF, F6, FE, FD, FD, FE, 09, 12, 0B, F9,
  04, 01, 02, EE, F2, 07, FF, 01, FD, 06, FF, 02, 01, 05, 06, 05,
  FC, FA, EB, ED, F8, F3, ED, F8, 06, 01, F4, FB, F7, F4, 02, E6,
  E8, F4, FD, 03, FF, 06, 02, 06, 03, 05, 03, 00, 04, FF, FD, FB,
  F6, 03, F7, F1, F6, F1, F0, F2, EB, F1, F0, F9, FD, F6, FF, FF,
  00, 05, 07, 07, 07, 04, 01, 03, 05, FE, 00, 00, 01, 04, FF, 00,
  05, FE, 02, 04, 00, 01, FC, 02, 03, 02, FF, 07, 00, 03, 04, 06,
  03, 03, 03, 08, 01, 09, 04, 06, 03, 05, 05, 04, 01, 04, 05, 01,
  03, 04, 04, 06, 02, 06, 09, 09, 04, 02, 08, 07, 08, 02, 06, 07,
  04, 02, 0A, 05, 0A, 03, 09, 0C, 06, 08, 02, 0C, 08, 08, 07, 07,
  0D, 0A, 09, 04, 01, 02, 04, 08, 01, 04, 03, 04, 09, 06, 0A, 0E,
  0B, 0F, 12, 18, 20, 14, 15, 1C, 1D, 1B, 0F, 11, 12, 10, 13, 0F,
  04, 01, 06, 04, 00, 05, 00, 01, 08, 0A, 14, 0D, 0A, 1B, 10, 07,
  00, 02, 06, 04, 11, FF, FC, 23, 1C, 19, 12, 12, 07, 02, 01, 04,
  06, 09, 06, 02, 01, 0B, 0E, 0A, 05, 0D, 1A, F9, F8, FB, F1, ED,
  EF, FE, 09, 14, 09, F1, E3, EF, F8, FD, 09, 06, 02, 01, 02, 02,
  0A, 0A, 01, F6, 03, 07, 01, F7, FE, F2, F1, FC, 03, 01, 03, 07,
  FB, E9, DC, ED, E2, F6, 01, 04, 00, 09, 03, 0A, 10, 00, 01, FA,
  FD, F4, F6, FE, FA, EC, E9, 00, 01, FF, F8, F3, DC, DC, E1, E6,
  F3, F7, 03, 01, 07, 03, 08, 02, 09, 01, FD, 00, 00, 03, FC, 01,
  F8, F1, F3, F8, F9, 0B, FC, E6, E4, D3, D2, D8, F4, 00, 03, 05,
  07, 01, 0C, 02, 0E, 04, 02, 07, 07, 07, 06, FA, F8, F5, FC, F0,
  F4, FF, EE, D5, E8, DD, DD, E9, E8, EE, FC, FC, 06, 06, 09, 00,
  F4, F8, EE, 05, 07, FA, FF, 00, F7, F0, 00, 05, F5, 01, E7, E2,
  F1, F0, FA, F7, E2, E3, FA, 08, 03, 06, 08, F6, EC, 00, F8, 05,
  08, FC, 00, FA, EF, FD, 0B, 0D, FB, 01, EA, ED, F4, 03, 0D, 00,
  FE, EE, 01, 00, 08, 04, 04, F8, F8, F9, F1, 05, 01, 01, 02, FB,
  F1, FA, 07, 03, 04, 00, EB, FF, 05, 07, 09, 04, E9, F0, F5, 03,
  01, 05, 08, 00, FC, F3, E9, 08, 02, F7, F9, FD, FE, FC, 0B, 06,
  07, FE, FC, 0B, 06, 0A, 07, 01, 04, 01, F8, 03, 09, 04, 0A, 04,
  00, FA, F2, F6, EF, EC, F8, E9, F0, 0A, 09, 05, 06, F8, 0F, 16,
  05, 11, 13, 22, 12, FF, 04, 06, 03, 05, 05, 09, F4, F2, F3, E8,
  FE, 03, 06, FA, 08, 0B, 0B, 0A, 08, F9, 0B, 0D, 0E, 15, 19, 20,
  00, 0C, 09, 07, 05, 05, 01, 08, F1, EF, FB, 04, 04, 0E, 04, 07,
  03, 1B, 0C, F7, F7, FA, 05, 0C, 0E, 0D, 14, 10, FA, 14, FE, 08,
  05, 04, 01, 05, F7, F9, 0A, 06, FD, 08, 09, 0E, 02, 08, 12, FD,
  05, FE, 0E, 0D, 06, 05, 08, 05, 06, 14, 08, 02, 01, 01, 01, 04,
  F5, EC, 0B, FB, FB, 0C, 14, 03, FC, 0A, 17, 03, 07, 06, 07, 0B,
  15, 0E, 0D, FF, 0A, 15, 08, 08, 06, 08, 04, 03, 02, F2, F7, 03,
  F7, 0A, FB, F7, 05, 0E, 13, 0B, FB, 08, 0D, 12, 0F, 09, F8, 0D,
  11, 16, 00, 03, 01, 04, FF, 03, 00, F6, F4, FA, E5, FF, 00, 04,
  0A, 12, 10, 0F, FF, 05, F8, F1, F5, FB, FD, 06, 02, 09, 09, 04,
  09, 01, 01, 03, FE, F9, F9, F7, F2, FA, 0C, 11, 19, 13, 15, 0F,
  07, 01, F3, E3, EB, EC, F9, F7, F2, F7, 0A, 00, 03, 01, 00, 05,
  F3, F3, F8, FF, FF, F8, 04, 03, 0D, 0C, 13, 04, 04, F3, E8, DE,
  DE, DA, E3, D9, E1, F9, 0B, 02, 01, 02, FF, 02, 03, FE, EE, E5,
  F9, 03, 09, E6, EA, F4, F6, F3, F6, E6, EB, EE, E3, EB, EE, DF,
  E8, F8, 02, 06, 06, 06, 07, FE, FD, FC, FD, F2, ED, F6, F4, EF,
  F8, ED, F0, F6, 00, F5, EB, F1, 00, 01, F3, F4, EB, FD, 06, 09,
  06, 05, 02, 06, 04, 08, 02, EC, E8, F2, FC, F8, F3, EE, F7, EB,
  F9, 06, FA, F8, F7, FD, 00, 02, 0A, 04, 04, 08, 01, 07, 07, 03,
  07, 02, FE, F2, F4, F6, F6, FC, FB, FE, FB, F5, F7, F2, E9, E9,
  F6, 02, 01, FE, 06, 08, 08, 00, 00, 08, 09, 04, 05, 09, 06, 04,
  05, 07, 09, 05, F5, FA, EC, F2, F3, F6, F8, F9, FC, 04, 03, 07,
  09, 03, 06, 01, 04, 08, 07, 05, 07, 03, 09, 08, 06, 0A, 03, 09,
  06, 06, 07, 07, 0A, 08, 06, 01, 02, 07, 04, 03, 04, 03, 07, 05,
  02, 07, 09, 04, 04, 0A, 05, 07, 08, 05, 01, 09, 07, 07, 06, 09,
  05, 07, 09, 01, 09, 01, 03, 09, 06, 07, 07, 05, 07, 04, 06, 06,
  02, 09, 00, FE, FE, 02, 03, 01, 01, 07, 08, 05, FC, 04, 01, 00,
  01, 05, 00, 05, 02, 09, 01, 04, 04, 03, 02, 06, 0A, 06, 06, FE,
  05, 0B, FD, FE, FC, 03, 01, FF, 03, 03, 0A, 07, 05, 09, 02, 01,
  02, 09, 03, 05, 07, 08, 09, 02, 04, 08, 05, FC, FB, 00, F5, FF,
  F4, ED, F2, E9, EE, F2, F0, F4, F4, 04, 12, 0B, 07, 06, 09, 09,
  05, 05, 03, 01, 03, 0F, 0E, 12, 05, 04, FD, FD, 01, FC, EE, E7,
  FB, F4, F9, FD, 02, 09, 16, 19, 13, 02, 08, 07, 04, 03, 04, 07,
  FC, 09, 1A, 0D, 1F, 0F, F2, E9, FB, EC, E9, F4, 03, 05, FC, 01,
  05, 05, 0D, 11, 10, 06, 01, 09, 07, 06, 03, 02, F5, 0E, 0F, 0B,
  0D, 02, E6, F3, FA, F2, F1, F6, 02, 0F, FE, FE, 02, 0C, 01, 08,
  FA, FF, 05, 02, 09, 06, 0B, 00, F2, 10, 15, 0C, F7, FE, F6, F5,
  FA, F2, EE, F9, 00, 10, 05, 02, 05, 06, 04, 07, FA, 05, 04, 07,
  07, 07, 0B, 04, F8, 0E, 0E, 07, FC, 0D, 06, FA, F5, F8, F9, FA,
  02, 04, 02, FB, 04, FF, FA, 02, 04, FC, FB, 07, 01, 03, 04, 02,
  08, 0F, FE, F8, FF, 17, FA, F7, F8, F3, F4, FD, 01, 07, FE, FC,
  01, 07, 07, FE, F3, FA, 02, 04, 07, 0B, 09, 04, 07, 00, F0, FD,
  05, 10, FA, FC, 07, EE, E5, FD, 0B, 10, 06, 01, 03, 03, 0E, EE,
  EC, 01, FE, 05, 04, 05, 07, 02, 04, 01, FA, FD, 07, 0A, 0F, 03,
  0D, F0, E3, 01, 0A, 09, 04, FB, FE, 02, 08, F0, DD, FD, 04, 07,
  02, 0A, 0E, 00, FB, FE, F9, 00, 03, FF, 08, 10, 15, F5, DB, 01,
  14, 01, 07, FF, 04, 05, 02, F5, F3, 00, 05, 03, 03, 08, 0B, 04,
  FB, 08, 00, 03, 03, 01, 06, 0C, FE, DA, E2, FB, 0A, 00, 02, F7,
  01, 0B, 04, F9, F0, F6, 02, 00, 03, 08, 06, 08, 01, 0D, F2, FE,
  06, FE, 0A, 09, F9, E4, EA, F6, 04, 0B, 00, 11, 06, 04, 08, 07,
  E4, F5, 04, 06, 09, 09, 04, 09, F4, F8, 02, F9, 05, 08, 09, 03,
  F9, E9, EE, FB, 0C, 0E, 04, 0C, 06, 03, 1D, 04, D6, E7, FB, 04,
  06, 05, 02, F9, F8, F7, 07, 11, 08, FC, 05, FA, F3, EA, F7, 0C,
  0A, 0D, 14, 0E, 12, 17, 0F, F8, E6, E4, F1, 04, 01, 08, 04, F9,
  06, FA, 0B, 16, 0C, FE, 08, F2, E2, EC, 08, 1A, 15, 13, 1D, 0B,
  08, 15, 09, F5, EF, F4, 04, 01, 0A, 09, 08, 06, 07, FF, F6, 10,
  0C, 0E, FE, E3, DD, 02, 13, 0D, 16, 12, 09, 06, FF, FF, FE, F6,
  F5, F6, 04, 06, 07, 0B, 05, 0C, 06, 03, 06, 0F, 1A, 01, E6, DF,
  DE, F5, 14, 10, 07, 07, F7, 06, EB, F2, DB, EC, 00, FE, 04, 08,
  07, 03, 03, 02, 00, FB, 05, F9, E7, D2, D7, DC, E5, F8, 10, 0A,
  0B, 07, 0B, 00, EF, EF, DC, E1, 0C, FD, 03, 01, 02, 07, 07, FA,
  FE, F8, F3, DF, DC, C3, D4, DF, F6, 08, 12, 05, 07, 04, 01, FF,
  F7, FF, FA, F6, 09, FC, 00, 04, 04, 05, 01, FE, FD, 01, ED, DA,
  E1, E1, EF, F3, FE, 03, 03, FE, FB, F2, FC, 06, FD, 01, 04, 04,
  08, 01, 07, 03, 07, 03, FF, 06, 03, 04, EF, DB, DB, ED, 03, 01,
  02, 01, 03, 00, FC, FC, FF, 04, 05, 0B, 07, 01, 00, 06, 03, 09,
  02, 02, 05, 06, 03, 00, F5, ED, EF, F7, F8, 07, 02, 01, FD, FA,
  04, FB, F0, F8, FF, 04, FD, FB, FF, 07, 03, 05, 01, 04, 05, 01,
  06, FB, EF, E5, FC, 00, F6, FF, FF, FD, 0A, 02, 01, F7, FC, E7,
  E9, F9, F2, FF, FD, 07, 05, 01, 04, 08, 05, 08, 03, 01, FF, 00,
  0A, 12, 02, 00, F6, F7, F6, 00, 0A, 09, 04, 0E, 00, FD, 06, 05,
  06, 03, 02, 04, 01, 06, 02, 09, 01, 05, 07, 05, 04, 06, 05, 01,
  06, 08, 05, 0A, 09, 10, 0D, 0B, 08, 07, 0A, 08, 04, 06, 0A, 04,
  FF, FF, 01, FB, 02, FC, FE, 02, FB, FB, 00, FC, FD, FF, FC, FF,
  01, FE, FB, 02, FD, 01, FD, 02, 03, 01, FD, FF, FB, 03, FE, 03,
  FC, 01, FF, 02, FF, FE, FD, 01, 01, 02, FD, 01, FD, FF, FF, 00,
  00, FD, FF, FB, 00, FC, FD, FF, FF, 01, FE, FC, FC, 00, 02, FD,
  FC, F7, F7, F6, FA, F6, F7, F5, F2, F7, F9, F3, F6, FE, F7, FC,
  02, 03, FC, 03, FD, FD, 01, FE, FE, F9, F9, FE, FE, EA, F2, FF,
  03, 00, 00, FE, 01, F1, E2, EA, F7, F1, F2, F5, FE, 04, 01, FE,
  FC, 03, 04, FE, 02, FB, FF, FF, F3, 03, 04, 1B, 03, 02, 02, 0C,
  04, 14, 0B, ED, EC, FC, FF, 00, 09, 09, 04, 03, 02, 03, FE, 03,
  FE, 06, FF, FF, 05, 04, FA, F6, FA, 03, FF, 03, FB, FA, 0B, FB,
  ED, F2, 02, 01, 04, 0B, 03, FB, 01, 02, FF, 09, 11, 0D, 0B, FF,
  08, 00, F6, F2, EC, EE, F5, EF, E2, F0, 07, 00, FA, 0E, 00, F3,
  FE, 09, 09, 02, FD, FC, 07, 14, 12, 03, 0B, 01, 09, 04, F4, F3,
  FB, F2, EE, F1, F7, 03, 06, 06, FD, 01, FF, 00, 00, 08, 00, 03,
  02, 02, 02, 0E, 0D, 14, 0B, 07, 08, 01, 03, FF, 10, 08, 02, 0C,
  0C, 0A, 0D, 02, 0C, 11, 09, 05, 01, F6, FD, FC, FE, 04, 01, 0B,
  1A, 15, 12, 0E, 0E, 13, 17, 1A, 19, 21, 1F, 1B, 19, 0A, 07, 06,
  04, 02, 0A, FD, FD, FD, FC, 06, FD, 03, 06, 17, 12, 02, 03, 04,
  0C, 1F, 12, 19, 19, 33, 24, 19, 18, 06, 0C, 07, 08, FD, FC, F8,
  FB, 09, 09, FD, 00, 03, 0F, 1A, 11, FF, FC, F8, FE, 0A, 12, 25,
  17, 14, 0C, 09, F7, FC, 07, 04, 09, F7, F4, F5, F9, 09, 01, FC,
  00, 02, 0B, 08, FF, 00, 0C, 12, 02, 03, 0E, 08, F8, ED, ED, EF,
  EE, 02, 09, 0D, 08, FA, 01, F8, F7, 07, FF, 01, FE, 05, 0A, F6,
  F0, 04, 00, 01, F5, F4, FC, F5, EE, E7, F9, E9, F4, F7, 04, 07,
  FB, 08, 01, F7, 0A, 02, 00, 01, FE, 05, 05, F3, E6, F5, EB, ED,
  EB, F6, F3, F4, EE, E1, FF, 03, F0, F1, 00, 04, 0C, 0E, 11, 0A,
  0D, F0, FF, 02, FF, 02, 01, EA, F0, F8, F6, EE, EA, F5, FE, F6,
  EF, F2, F8, FB, E2, EE, 00, 0C, 0F, 0D, 03, 0E, 1B, EF, FF, 00,
  FB, FF, FC, EE, F0, F9, F4, FC, 08, F9, 00, F5, F6, EF, E7, E9,
  E4, F7, F6, 08, 0B, 03, FF, 04, 07, E5, 03, 02, 01, 02, FC, F9,
  F4, 08, 0B, 02, 0B, F8, 07, 03, 05, F3, F7, ED, F0, 09, F9, FF,
  01, F9, 01, 05, 08, EF, 01, 0A, 02, 03, 03, F6, EE, 0C, 0A, 0D,
  0A, 00, FF, 03, FE, F5, FB, 05, FF, 07, FB, FA, 02, 04, 0E, 0C,
  FE, F0, F9, FF, FD, 00, 04, F9, 03, 04, 03, 01, 0B, FB, F1, F7,
  0E, 09, 09, FF, FE, 08, FF, 08, 00, F6, 07, 01, 09, FF, FA, 01,
  03, 03, 01, 02, FA, FC, F8, FB, 09, F7, F7, FF, 00, 09, 00, FA,
  F7, FF, F8, 01, E7, F7, 09, 11, 0D, FE, 02, FE, 02, FE, 00, FB,
  F9, E9, EA, EA, F7, F8, FB, FF, 09, FF, FB, FA, FA, F4, 02, F8,
  E5, ED, FD, 08, 05, FD, 02, FC, 03, 03, 00, FF, F0, F2, FE, F2,
  FB, FB, F5, F1, 03, 01, 09, 03, FC, 05, 05, F3, E2, F5, 0D, 00,
  FA, F7, FD, FD, FD, 02, 03, FF, 08, 0C, 13, 09, F5, 06, 0B, 09,
  0B, FB, FE, F9, 02, 0A, FF, EB, E9, F5, FE, FB, FF, F8, FC, 02,
  FB, 00, 01, 01, 13, 18, 14, 0B, FF, F6, FF, F6, F4, F1, F8, F9,
  FC, 0C, FF, 00, FE, F9, 02, FE, FE, FD, FF, FF, 03, 04, 03, 01,
  0B, 10, 18, 22, 09, FD, 01, 0D, 1C, 0E, 07, 0B, 21, 1F, 12, 1D,
  07, 04, 0B, FE, 07, FB, FB, FB, FF, FC, FC, FF, FC, F6, F5, 08,
  0A, 05, 0D, 13, 0B, 13, 16, 17, 12, 11, 10, 0F, FB, FE, 05, 02,
  03, 03, 04, 03, FB, FB, 00, FF, FD, FE, FD, 03, 01, 02, 0F, 03,
  02, 07, 0C, 03, 01, 02, 04, FE, F8, 03, FF, FF, FB, FD, FD, 00,
  01, 02, 02, 06, 03, 03, 06, 02, 05, 01, 02, 00, FF, 07, 00, 01,
  02, 03, 00, 05, 01, 01, 03, FF, 03, 05, 05, 07, 02, 06, 04, 04,
  00, 00, 02, 04, 07, 00, 05, FF, 02, 01, 04, 01, 06, 01, 00, 04,
  03, 06, FF, FF, 06, 04, 00, 07, 03, 05, 00, 01, 01, 01, 02, 07,
  01, 03, FC, 04, 09, 08, 09, 0E, 07, FF, FC, FE, FF, FD, FD, FE,
  03, 04, 01, 03, 03, 01, 01, 08, 05, 03, 01, 04, 03, FE, 01, 0D,
  0F, 0A, FA, 0B, 01, FA, 01, 03, F2, F0, FE, FA, 00, 01, 00, 03,
  03, 07, 04, 07, 03, 07, 03, 01, 00, FE, FF, 03, 05, 05, 03, 00,
  16, 0F, 0A, 0D, 06, EF, F8, F7, F1, 04, 07, 02, 07, 03, 02, 08,
  06, 05, 02, 07, F3, F1, E6, E9, F8, 03, 08, 12, 0F, 04, 03, FF,
  0A, 06, FB, F6, F8, 07, 04, FF, 06, 07, FC, 07, 05, 05, F9, F2,
  F0, FE, 05, F3, FC, 0A, 07, 13, 05, F5, F6, FF, FA, 01, F7, F5,
  ED, 06, 01, FF, 01, 09, 05, 05, 13, 02, 01, 02, F7, 0D, 0C, 01,
  06, 04, 02, 05, 03, 04, F6, F4, 02, 08, 0D, EF, ED, F8, 00, 03,
  04, 05, 05, 07, 19, 01, 0B, 25, 16, 17, 13, 12, 15, 11, 04, F9,
  04, 07, 02, 09, FD, 00, 0D, EE, DE, F0, 09, FF, 04, 06, 09, 14,
  25, 05, 12, 1C, 28, 19, 0B, 12, 09, 08, FE, 07, 0B, 0A, 02, 05,
  07, 09, 0D, 03, E3, F3, 04, 0A, 00, 06, FF, 08, 1B, 00, 08, 12,
  19, 10, 01, FF, EB, EC, FC, 07, 01, 0B, 07, 11, 0F, 02, 05, FB,
  EE, 01, 02, 05, 00, 01, 01, F8, 07, 00, 09, 0C, 01, F7, EB, EB,
  ED, ED, 0A, 0D, 07, FF, FF, 04, 0C, EA, F6, 04, 12, 13, 04, 05,
  02, 05, 02, F5, F0, E6, D3, DE, C5, D0, DA, E3, F6, 0B, 14, 08,
  08, FC, F5, F9, EE, F3, FB, 04, 1A, 20, 06, 03, 07, 03, 04, F2,
  D3, D0, B0, B1, C0, D6, E6, F4, 05, 15, 0F, 04, 0B, 02, F5, F6,
  FD, 03, 05, 08, 11, 0F, 07, 03, 06, 01, 02, F6, D4, B9, BA, CC,
  E0, EC, F8, 0A, 11, 0C, 06, 02, FE, FE, FB, FD, FF, 0F, 0E, 08,
  05, 09, 0C, 02, 01, 02, 03, F5, D8, E0, 00, 07, 0E, 09, 07, 0D,
  0B, 1A, 0C, 03, FA, FC, 10, 09, FE, 12, 1C, 0F, 07, 07, 06, 08,
  06, 01, 01, 01, E9, F8, 11, 1B, 0F, 14, 0E, 06, 06, 17, 01, 00,
  00, 0B, 0C, 09, FB, 07, 0C, 08, 08, 15, 0D, 07, 07, 04, 02, 08,
  FB, 03, 11, 0B, 08, 0E, FE, 00, 0F, 0A, 00, F3, FD, 02, F1, 06,
  FE, 03, FB, F7, FC, 04, 08, 05, 00, 04, 06, 11, FA, 0D, FF, 0B,
  01, 11, 01, FC, F2, FE, F2, EF, FA, F7, F5, FC, F9, F5, FF, F7,
  FF, 10, 05, 06, 08, 00, 08, 0E, 13, 0A, FB, 07, FC, 07, FC, EC,
  EA, 00, F9, F1, F9, F5, F2, F5, F8, 01, 09, 18, 03, 0E, 07, 07,
  05, 03, 07, 24, 27, FA, FA, 0F, 01, F9, FF, F1, FB, 00, FB, F7,
  F1, EE, F9, 04, FB, 08, 12, 24, 00, 04, 04, 04, 02, 00, 05, 15,
  0E, F2, FF, 0B, 02, FE, FC, F9, 02, 07, FE, FE, 01, 05, 04, F9,
  F0, 04, 0D, 07, F4, 00, 06, 04, 04, 00, 04, 0A, 0E, 14, FF, 07,
  01, 03, 05, 08, FE, 06, 03, 03, 04, FB, F3, FA, F7, 04, 07, 03,
  F2, 00, 00, 02, 07, 01, 04, 01, 06, 00, FC, 08, 06, 06, F3, 0A,
  0B, 0D, FF, FE, FD, FA, 07, F5, F1, F9, FE, EF, 00, FE, 05, 04,
  07, 04, 00, 09, 0D, 10, 10, F5, EC, F3, F3, F8, 00, FE, FD, FE,
  F1, F8, F3, F2, E8, EB, E4, F0, F9, 08, 00, 03, 05, 05, 03, 07,
  03, 09, 16, 11, 05, FE, FA, FD, 00, F0, FB, 01, 01, 06, ED, EE,
  F1, DF, E8, F6, FA, 07, 08, 02, 03, 01, 07, 06, 00, F9, FA, 07,
  08, 04, 00, 02, FD, 01, FF, 02, FA, FD, 06, FE, FD, F5, FD, 03,
  FF, 04, 01, 04, FF, 04, 04, 00, 05, 06, FF, 04, 08, 04, 08, 06,
  04, 03, 09, 04, 00, 07, 01, 03, 00, 04, 01, 01, 01, 05, 01, 02,
  FD, 05, 05, FE, FD, 00, 05, 03, 03, FC, FD, 02, 02, FF, FE, 04,
  FD, FF, 00, 02, 03, 00, FE, 04, 01, 00, FC, 00, FE, 00, FD, FE,
  00, 01, FD, 05, 00, FF, 00, 04, 00, 01, 06, FC, FD, 02, FD, FE,
  04, FE, FF, 03, 05, FD, FF, 04, 00, FD, 00, FE, 01, 02, 00, 07,
  09, 0B, 0F, 0B, 0A, 0E, 02, FC, FC, 02, 05, 05, 03, 05, 06, 05,
  00, 05, 01, 03, FF, FE, 02, FE, 03, 03, 03, 08, 04, 1A, 13, 00,
  00, FC, E9, EB, E8, E3, EF, ED, F3, FE, 01, 08, 06, 01, 02, FE,
  FC, 02, 00, 04, 04, 00, FD, 08, 0A, 07, 01, FC, 10, 01, FD, F5,
  FF, 01, FB, FE, F9, F9, 02, 09, 07, 02, 00, FD, FC, FD, 00, FA,
  FD, F2, F6, 01, FA, F9, 00, FB, FD, E7, F2, F0, 07, FF, FB, 11,
  0A, 13, 0E, 07, 09, 09, 01, 02, 05, FF, 05, F7, F4, F9, F9, 0B,
  0A, FE, FC, FA, EE, DE, E9, F3, F5, F5, F6, 01, F2, FA, 03, 10,
  0E, 0C, 03, 08, 00, 02, FD, F0, FA, 08, ED, 09, 12, FB, F7, F1,
  EB, E5, E9, FC, F3, F5, F6, F8, F0, 0B, 0A, 00, 00, 0A, 07, 06,
  05, 00, 04, FC, FC, 00, F8, 08, FF, F7, 07, FD, ED, F4, F8, FD,
  01, F7, F5, FC, 0A, 0F, FE, 01, 0C, 11, 09, 00, 05, 01, 04, F8,
  FA, 02, F5, 08, 04, 02, 0B, FA, D9, E8, F8, 0C, 1A, 06, 0A, 06,
  12, 18, 0C, 18, 26, 21, 0A, 00, 01, 00, F8, F8, 09, 0F, FC, 0A,
  02, 04, 0F, 00, E7, E0, F3, 01, 0B, 09, 06, 05, 0A, 0C, 0E, 21,
  20, 0C, 07, 00, 00, 00, F8, 00, 0D, 0F, 00, 02, 02, 07, 07, FE,
  F9, D7, E4, F7, F9, EC, F9, FC, F5, FA, F2, FD, FD, 08, 07, 02,
  FC, FE, FD, 03, 05, 05, FB, 0F, 07, 04, 09, 15, 11, EC, E1, EF,
  EC, E7, E6, EF, F0, E9, E8, E3, ED, F6, FD, 01, 03, FE, FB, FA,
  EE, FB, 03, 01, 09, 02, 00, 0E, 1C, 05, F2, F5, F2, FC, 00, FD,
  F1, F0, F0, E0, DF, F3, FD, 04, FE, 00, FB, FA, 08, 10, 13, FF,
  FF, FC, 05, 10, 0E, 0F, F9, FA, 07, 05, F9, F9, F7, FB, FC, E7,
  E5, F0, 02, FD, 03, FD, FF, 04, 09, 05, 08, FF, 03, 02, FB, 03,
  12, 18, 12, F4, 06, F3, EA, ED, F4, E8, EC, FB, E7, FC, 06, FD,
  02, 04, 03, 04, FA, F9, 06, F6, FE, 07, FA, F2, 09, 11, 11, 05,
  0D, FB, EC, FB, E9, EA, F1, 02, F3, FD, FF, 04, FE, FF, FD, 04,
  F9, F8, FD, F4, F9, F7, F0, FF, 0F, 14, 08, 05, 02, FF, 00, 00,
  FC, F0, F8, F3, EF, FD, FE, 03, 05, FF, FB, FF, FE, F7, F6, E3,
  F3, F6, F3, FC, 1E, 1B, 04, FA, FA, F2, FE, 04, 01, F9, F2, F9,
  01, 04, 01, 02, FC, FE, 03, FB, FC, F4, F5, E9, F1, FF, 04, 06,
  09, 10, 01, 01, 05, 10, 06, FD, 0C, 0A, 01, 02, FD, 06, 06, 00,
  FD, 02, 01, FF, F7, F0, EE, FA, 01, 03, 14, 18, 11, 00, 02, 05,
  02, 0B, 16, FC, 01, 15, 0E, 10, FD, 04, 07, 03, FD, 01, 02, 02,
  FD, EA, F2, FD, FC, FE, 02, 13, 0B, 09, 08, 0F, 04, 1A, 0B, 0A,
  02, 19, 1E, 25, 0C, 06, 04, 02, 01, FC, 04, 04, 06, F6, ED, F4,
  00, 02, 01, 08, 04, 06, 09, 06, 09, 17, 09, 0F, 12, 1B, 10, 16,
  06, 01, FC, FC, 05, 01, 01, FD, 00, FC, E6, E6, 05, FD, 07, F9,
  04, 10, 0E, 11, 18, 0F, 0D, 07, 13, 17, 13, 03, 08, 01, 05, FD,
  FC, FE, 04, FF, F8, F1, DB, D9, F5, 03, FE, 06, 08, 09, 11, 03,
  08, FE, 00, 01, 07, 00, 09, 01, 0A, 00, 03, FE, FD, 02, FE, FD,
  FA, EF, E3, DE, E9, E4, F1, F0, FC, F2, EC, F5, E9, FF, F6, E3,
  E8, E5, F0, FD, 04, FF, FD, 04, 02, 04, 01, 01, FD, F9, F6, F4,
  FC, EA, E9, F3, F3, E1, DC, EC, EB, F0, F0, E6, F4, FB, 01, 03,
  FF, 04, 03, 00, 01, 00, FE, 01, 04, FF, FE, 00, 00, FC, F1, FF,
  03, 05, 01, FA, 00, FF, F8, FD, FC, FB, FD, FE, 00, 04, 02, 04,
  06, 05, 05, 00, 09, 03, 09, 00, 05, 01, 02, 06, 03, 03, 02, 09,
  05, 07, 08, 01, 01, 04, 01, 07, 05, 01, 09, 06, 09, 03, 02, 07,
  06, 08, 05, 03, 01, 01, 06, 0A, 02, 03, 05, 03, 04, 04, 07, 04,
  03, 00, 02, 09, 01, 01, 03, 04, 04, 08, 07, 01, 09, 02, 07, FF,
  04, 0B, 09, 0F, 0E, 08, 0B, 01, 03, FC, FF, FA, 03, 07, 07, 00,
  03, 02, 04, 05, 07, 04, 02, 01, 04, 05, FD, FF, 02, 09, 12, 0D,
  02, 06, 05, 0A, 00, 00, F7, F4, F5, F9, FB, 06, 0A, 06, 03, 05,
  07, 01, 07, FF, 00, FE, 02, 07, 02, 04, 00, F2, 05, 10, 08, F7,
  F8, FA, F3, FD, 04, FD, 01, 03, FC, FE, 04, 08, 04, 08, 08, FE,
  03, F8, FC, FC, F8, F2, FE, 12, 16, 09, 0B, F6, EC, F7, F5, FA,
  F4, 02, 06, FF, FE, FD, 05, 07, 03, 05, 00, 07, 01, F1, F0, F6,
  EB, EF, FC, 0F, 0E, 0B, 02, F2, F4, EC, E6, E7, EA, FC, 0E, 05,
  FC, 01, 00, 04, 04, 04, 06, 02, 02, F4, FF, FC, F2, F1, F9, 13,
  09, 07, FE, F2, EE, FC, F4, F8, F2, 02, 07, F4, FB, 00, 07, 07,
  08, 03, 05, 01, FA, F2, F7, EB, D6, E9, F6, 0B, 0A, 07, F7, F7,
  F5, FC, EB, FB, F7, FF, FA, EB, EF, FB, FF, 08, 04, 03, 08, 06,
  00, F9, F0, E9, E3, E7, F7, FC, 08, 07, FE, F1, FA, FC, FE, 04,
  07, 01, ED, E8, F7, ED, FC, 05, 02, 08, 06, 09, 08, 18, 04, F1,
  F0, F6, FB, FE, 02, 01, FD, F5, FF, 0D, 09, 04, 05, 0C, F7, E5,
  E8, E8, 01, 07, 06, 04, 04, 03, FA, F8, E8, F9, F6, F3, FB, 07,
  06, FB, ED, E2, F6, FD, FF, 00, F1, 03, 02, F3, D8, F2, 02, 02,
  09, 07, 01, 04, F1, DB, E5, F6, FA, F4, 06, 11, 10, 09, E6, E6,
  F9, FA, F3, F4, 05, 15, 12, F1, 00, FF, 07, 05, 04, 01, 07, 01,
  E4, E6, FE, FE, 01, 01, 0C, 19, 0B, F6, EE, FC, FD, 03, 03, 00,
  FD, 0D, 0C, 06, 0E, 15, 0C, 08, 03, 02, 02, 07, EC, 07, 0B, 0D,
  06, 0B, 0E, 18, 10, F1, F2, FA, FD, 01, F4, 08, FE, 01, 0C, 0C,
  19, 12, 09, 03, 05, 07, 08, 03, EF, 02, 03, 17, 09, 1D, 1D, 16,
  03, F0, 00, 03, 0D, 03, FD, 0A, F3, F9, 0A, 0B, 16, 12, 03, 07,
  01, 05, 04, 02, EF, 02, 10, 11, 0D, 19, 13, 0D, F3, EC, 04, 12,
  18, 12, 0D, 10, FB, 0D, 0C, 11, 0A, 19, 0D, 06, 09, 04, 0D, FB,
  05, 13, 0A, 10, 14, 13, 12, 00, E7, F6, 10, 10, 0E, 0E, 13, FD,
  FD, 0B, 0C, FF, 0A, 21, 10, 07, 08, 02, 07, FC, 16, 05, 04, 08,
  0B, 15, 04, F1, EC, F2, 0F, 0F, 0F, 00, 08, 05, 06, 06, 09, 09,
  0A, 09, 03, 09, 04, 02, 03, 0B, 14, 05, 0A, 0D, 08, 12, 08, FA,
  E9, F2, 0A, 09, FE, FC, 03, 0D, 0A, 05, 15, 00, 02, 04, 08, 04,
  02, 03, 07, 13, 1D, 09, FB, 04, 01, 02, 09, 0E, 01, E9, EC, EF,
  EE, F2, 06, 08, 04, 01, 05, FD, FC, FD, 08, 06, 04, 05, 0E, 0D,
  19, 09, FB, FD, 02, FB, 03, 07, FF, F5, E9, EF, F0, FB, F6, F8,
  04, 06, 01, 00, E8, F9, 08, 03, 03, 02, 10, 13, 0C, 0B, 0A, 08,
  0C, 10, 11, 0E, 0C, 01, EB, FB, FD, F6, F2, 07, 06, 05, FD, F5,
  F1, EA, FF, 07, 00, 09, 03, FF, FA, F9, FD, 04, 0F, 06, 0B, 02,
  FE, F4, FB, 00, F4, E7, FB, F1, F3, FC, F7, F4, F1, F4, 05, 04,
  05, 05, 05, FC, F6, E8, E8, DC, E3, EB, E8, F3, F2, FC, F6, 02,
  F9, ED, DF, DE, EF, F1, F3, FA, 08, 04, 06, 08, 02, 06, 03, 00,
  FF, F4, F7, EC, E4, E4, EB, E8, E0, E6, E4, EC, EA, DC, DE, DF,
  EE, F3, FD, FF, 02, 08, 04, 04, 03, 00, 08, 00, 01, FB, FF, FA,
  EF, F8, F1, F0, F4, F7, E1, EA, F2, FA, FC, FA, F5, FC, 05, 03,
  00, 06, 05, 05, 04, 04, 03, 08, 01, 04, 05, 00, F9, 00, FF, 03,
  01, 07, FD, 04, 05, 08, 04, 00, 00, 03, 04, 02, 01, 04, 07, 05,
  06, 03, 02, 05, 01, 04, 05, FE, 02, 05, 04, 04, 07, 00, 04, 05,
  03, 02, 06, 00, FD, FD, 04, FE, 02, 01, 01, 05, 04, 00, FF, 01,
  02, 02, FE, FD, 00, 05, FD, 02, 01, FE, 00, 03, 02, FE, 02, FC,
  03, 03, 02, 05, 04, FD, 03, 04, 03, FD, 00, 05, 03, 03, 02, 00,
  FB, 01, 03, 04, FF, FB, 00, FF, 03, FC, 01, 04, 06, 08, 02, 05,
  FE, 04, FF, FE, FE, 05, FE, 03, 05, FC, F9, F7, EF, F8, F7, FA,
  EA, EA, EA, F8, F5, FC, 02, FF, 07, 03, FF, 07, 02, 02, FF, 00,
  06, FF, 06, 04, 01, FE, FB, 05, 08, 05, FE, 01, F0, F2, F1, 00,
  04, FB, FE, F7, EF, EB, 02, 0D, 0D, 03, 05, 03, 03, FE, 02, FE,
  FB, FB, 04, 02, FB, FF, 0F, 01, F7, FE, FC, F2, F4, F7, FB, FB,
  F1, F6, F7, 01, 11, 11, 06, 00, FD, 04, 03, FC, FD, FF, 01, 05,
  03, 02, FC, F9, F3, 01, FD, FA, FC, FD, 03, FE, F7, FA, 08, 0B,
  15, 08, FC, 04, FF, 01, FF, FF, FA, 05, FD, F9, 01, 02, 02, F6,
  F7, 00, 00, 0C, 06, 02, 03, 05, F1, 0C, 0E, 11, 07, 06, 00, 05,
  05, 02, 01, 05, F5, 06, 0C, 04, 0B, 05, EF, E9, EF, FD, 0B, 0F,
  0C, FE, FB, 02, 04, 09, F4, F7, 0B, 0D, 01, 03, 00, 02, FF, FE,
  EE, EF, 11, 0B, 09, 08, 02, EF, EC, EC, FF, 05, 07, FB, 04, 01,
  04, FF, E4, EE, 07, 08, 02, FB, FE, 01, 03, FB, FE, FA, 0A, 0A,
  17, 21, 13, F0, DD, D8, F1, 08, FD, FC, FF, FB, EE, F6, F5, FB,
  06, 00, 04, FF, 02, 05, FC, FA, F1, 06, 0B, 0B, 1C, 2C, 18, FD,
  D8, DB, F4, FD, 00, 02, FA, FB, F8, 06, 03, 08, 0C, 01, 05, 02,
  FF, 01, 06, FA, F2, FD, 12, 00, 05, 22, 20, 13, F8, E9, F1, 01,
  F3, FB, FB, 01, FC, 0B, 03, 12, 0F, F7, FA, FC, 03, 04, FC, F7,
  F9, 04, 01, 0D, 0F, 26, 30, 21, 01, E8, EF, 00, F2, 05, 0A, 02,
  F7, 00, 0B, 0A, F9, 00, F9, FE, FE, 05, FA, F7, 02, 14, 0A, 0E,
  03, 14, 17, 22, 02, F4, F8, EF, F3, 06, 04, FE, F8, FE, 03, FD,
  11, 0A, F3, FE, 05, 00, 00, F9, 0D, 08, 0D, 19, 0E, 06, 10, 10,
  0D, 02, 03, ED, F1, 02, F6, FE, F7, F6, FD, 13, 10, 07, 02, 03,
  05, 04, 04, F2, F6, 04, 0D, 08, 1A, 00, 09, 13, 0B, 07, FC, F2,
  FA, F6, 00, FF, 06, FA, FD, 10, FC, 00, FC, 02, FF, 01, 02, F2,
  F9, 00, 01, 06, 17, 0F, 0C, 0B, 0A, 14, 02, F2, 03, F9, FE, F2,
  00, F5, FD, 07, FC, FB, FE, 00, 06, 03, 02, F2, 00, 05, 05, FC,
  05, 07, 02, FC, 0C, 07, FE, F4, F3, F6, F0, F3, 01, EF, FB, FD,
  F1, EB, F7, 00, 01, FF, 00, FB, FC, 0B, 00, FA, 00, FC, F4, F4,
  05, 07, 04, 00, F1, F4, 00, FE, FD, FA, 08, F9, F3, F1, FC, 02,
  05, 00, FF, FC, FA, 02, F8, F5, 02, FA, FD, FF, 10, 0B, 00, 0C,
  F9, F9, 00, FD, FB, 03, 0A, FA, F8, FC, FE, 03, FF, 02, FF, FB,
  FE, FB, F6, 04, 04, 05, 07, 01, 07, 00, 07, 0B, F2, FB, F1, F2,
  FA, FA, 06, FA, F3, FC, 05, 03, 02, 02, 02, FD, FB, F6, F5, 01,
  FC, FC, 06, FD, 01, 04, 07, 09, 01, 07, 02, FD, FB, 03, 00, FC,
  F5, F8, 05, FF, 05, 05, 04, FE, FA, F6, F7, F3, 0B, 02, 02, 03,
  04, 0A, 0F, 0B, 09, 0E, 08, 02, FD, F6, F2, FA, F2, FD, 03, 06,
  05, 03, 02, 02, 00, F9, F8, F6, F6, F9, FB, 10, 09, 06, FE, FE,
  FE, F8, 05, 00, 08, FA, F9, 07, F6, FF, FD, 01, 06, 02, 05, 00,
  FB, 00, FF, 00, F7, F9, F1, F2, E2, F1, F3, F5, FA, FF, 0C, 02,
  01, FF, F7, 03, FE, 01, 01, 04, FD, 06, FF, FE, 02, 08, 02, 04,
  06, 08, 00, FD, 0E, 08, 01, F5, FA, 04, F7, F1, 08, 01, F7, 05,
  06, 01, FE, FF, 04, 04, FF, FE, FE, FE, 03, FD, 04, 00, FF, 0A,
  04, FE, FB, 01, FD, F9, FC, 00, 03, FE, FC, FE, 03, 03, 01, 00,
  0A, 06, 0B, 03, 0B, 04, 09, 0A, 05, 08, 09, 05, 05, 01, 09, 0B,
  08, 04, 0A, 04, 05, 0A, 0A, 09, 07, 07, 09, 06, 09, 08, 09, 08,
  08, 07, 01, FD, 00, 09, 04, 03, 03, FE, 04, FF, 01, 05, 02, 07,
  04, 01, 03, 06, 04, 0B, 04, 02, 05, 09, 04, 0B, 04, 03, 06, FB,
  F9, 02, F7, F5, FA, FB, F6, 04, 01, FA, 01, FB, 02, F9, F8, 03,
  05, 0A, 05, 06, 04, 05, 04, 08, 04, 0B, FE, F8, F5, F3, EE, F2,
  F2, E7, EB, E4, F6, EE, F3, FC, F5, F2, F5, FB, 03, 06, 03, 07,
  04, 03, 06, 07, 04, 05, 02, F4, EA, E4, E0, E5, E0, E0, CB, E1,
  EA, DB, E8, F9, F6, 04, 0E, 06, FC, 04, 02, 06, 0A, 05, 07, 08,
  01, 0A, 04, 0B, 0D, 0D, FE, F7, FA, EF, EF, F1, F6, EC, EC, F0,
  E9, F3, 09, 05, 06, FF, 03, 08, 06, 03, 06, 08, 02, 04, 02, 0E,
  10, 11, 04, 01, FF, 00, 06, 02, 04, 05, FD, F8, F4, 03, 06, FC,
  00, FD, 0A, 04, 04, 03, 05, 0A, FB, 00, 05, 01, 01, 13, 05, FF,
  FF, 01, 03, F7, 03, 0E, FD, 07, 0B, 06, 03, 05, 0C, 08, 06, 02,
  03, 07, 06, 04, F5, 00, 05, 01, 10, 0D, 08, 07, 01, F7, 01, 01,
  F3, FE, 05, 03, FE, 00, 09, 0B, 02, 01, FF, 05, 0A, 04, 04, 03,
  FD, 0D, 02, FF, 07, 07, 07, 0B, 05, FF, 01, 05, FF, 04, 08, 00,
  FE, F8, FC, F1, FA, F0, FE, 12, 08, 06, 0A, 00, F6, 05, 00, F8,
  FD, 0E, 04, 04, 02, 06, 02, 1A, 10, FE, FB, 08, FC, F2, EB, EA,
  03, 04, 06, 0A, 0B, 04, 04, 02, F5, FD, F0, F8, 0C, FF, FF, 00,
  FC, F2, 01, 15, 0A, 08, F8, FD, 02, FC, F4, E7, F5, 01, F5, 05,
  06, 07, 05, 00, ED, F1, F4, F9, 06, F1, FC, F6, F2, FF, 08, 1B,
  0F, 06, 0D, 07, F6, E7, EB, E8, EE, 10, 06, 0B, 07, 02, 09, 03,
  00, EE, FE, 0F, 03, FD, 00, F9, 02, 16, 0D, 09, 0B, 13, 14, 00,
  FB, F5, EB, F3, 00, 09, 0C, 0B, 0A, 06, 06, 03, 0F, FA, FE, 0F,
  FF, 06, 04, F8, 14, 0B, 00, 13, 10, 17, 1B, 07, 0D, F5, F5, F1,
  F4, 0A, 10, 04, 08, 09, 07, FE, 0D, F7, FA, FC, FA, F9, 05, 06,
  0D, 02, 05, 1D, 16, 23, 0D, F8, 0C, 0F, 09, 05, FF, F5, 09, 0A,
  06, 0A, 02, 04, 05, F9, FF, 04, 07, 04, 03, 0D, 11, 0F, 17, 22,
  1E, 10, F7, FB, 02, 08, 02, 12, FD, FB, 10, 06, 05, 08, 03, 09,
  FF, 02, 05, F7, F6, 02, 09, 07, 0F, 12, 11, 16, 0D, F7, F0, F6,
  F7, F9, FB, 10, 07, 0C, 10, 09, 05, 03, 08, 0A, 09, 02, 00, F3,
  F1, F3, F6, FD, FD, 03, FC, F0, F1, F5, EA, EC, EA, EF, F1, F0,
  F6, 0E, 0B, 08, 04, 01, 09, 0E, 0C, F8, FB, F4, F0, F2, ED, F1,
  E7, EB, EC, E6, EB, EB, EB, EA, E6, F2, EE, EB, F5, 02, 03, 04,
  06, 05, 0A, 0E, 03, F2, E8, DE, E2, EC, E5, EB, E4, F3, EA, E9,
  EC, F0, EA, EB, EA, F8, F9, EB, F5, FB, 04, 07, 05, 03, 09, 0F,
  0A, FA, EA, DC, E3, F1, FC, F6, F5, F6, EE, EB, F7, E3, EE, DD,
  E5, FF, F2, EC, 00, F9, 06, 03, 0B, 07, 04, 0A, 10, 02, FC, F8,
  05, F6, FB, EB, EF, F2, F0, F4, F7, EC, E9, E2, ED, EF, FD, FD,
  03, 05, 02, 0B, 03, 03, 06, 07, 13, 0E, 11, 0D, 05, FB, FB, F7,
  F5, F5, F2, EE, F5, FC, FA, F0, ED, F1, FB, F6, 02, 03, 0B, 09,
  09, 0A, 07, 07, 12, 10, 0B, 07, 07, FE, F5, F7, F5, ED, F0, E8,
  FD, 03, FA, F0, FB, FC, FC, 04, 01, 0B, 0A, 09, 03, 03, 0A, 04,
  11, 19, 07, 05, 0A, FE, F0, 01, F3, EF, F3, EF, FD, EB, EC, F0,
  01, FD, F7, 01, FF, 06, 07, 09, 07, 05, 06, 03, 07, 04, 0A, 0F,
  0C, 0C, 0F, 0D, 04, 01, 0F, 18, 0C, FB, FB, 05, 06, FF, 00, 04,
  09, 09, 0A, 0B, 04, 07, 05, 05, 0B, 09, 0A, 02, 0A, 08, 0C, 05,
  0A, 09, 07, 08, 0C, 04, 04, 06, 0B, 06, 06, 07, 04, 08, 06, 0A,
  FF, FE, FE, FE, FD, 01, 01, 00, FB, FA, 01, FB, 01, 02, FA, 01,
  03, FE, FE, FF, FE, FC, FF, FB, 01, FB, FE, 00, 01, FC, FD, FB,
  03, 00, FE, 02, FB, FD, FE, 03, 04, 02, 01, FC, 01, 04, 03, 04,
  FD, 01, FE, FE, 01, 00, FA, FE, FF, FF, FE, FF, FA, FE, 01, FC,
  FF, 02, 08, 07, 0B, 03, 0A, 07, 0D, 14, 0F, 05, 0A, 0A, 08, 00,
  FB, FE, FB, FD, FF, FF, 01, FE, FC, FE, FE, F9, F7, 02, 0A, 00,
  FE, 04, 08, 0B, 08, 12, 19, 14, 00, 0F, 0B, 10, 05, FC, FD, FC,
  FE, FF, FD, 01, FD, F3, EF, E8, E8, EE, F5, F6, 03, 0C, 13, 15,
  1C, 11, 02, 05, 09, 0F, 0A, 07, 04, F7, FC, FC, 03, FB, FB, FE,
  FA, EE, E7, E1, E1, F5, 08, 12, 00, F9, 03, 0B, 13, 10, 0C, 05,
  14, 19, 14, 0B, 03, FC, 03, FC, 01, 02, FC, F9, F8, ED, E6, FD,
  FD, 00, 01, 03, 03, 08, 07, 03, 01, 02, 04, 05, F3, FD, 11, 06,
  05, FE, 00, 02, FA, FF, FF, F7, EC, E8, F3, F1, F8, 07, 16, 0B,
  06, 06, 03, 04, 01, 04, 0E, 03, E7, F9, 02, FE, FE, F9, FF, FE,
  FA, 01, FD, F6, E5, ED, FA, F2, F4, 04, 11, 1D, 0A, 13, 05, F5,
  FE, 08, E8, F1, F7, F4, FA, 01, F3, F5, 04, FC, FF, FF, 04, FC,
  EB, ED, F2, F4, FE, FE, 0C, 10, 0E, 01, FC, E6, E6, F3, E8, EC,
  EB, F0, FC, 01, 04, 0D, 06, FB, 00, FC, FD, F6, F6, F8, 0B, 02,
  0C, 0A, 0D, 0B, 0E, F6, F0, E3, E5, ED, F5, E4, EC, F6, FC, FC,
  FC, FE, 05, F9, 02, 03, FC, F9, FA, F5, 11, 0D, FF, 04, F4, 00,
  04, 05, FB, E4, EC, F0, F7, 06, EA, F3, E4, E9, F4, FC, 02, FE,
  01, 01, FC, 01, F1, EA, 00, 06, 00, FE, F7, 0B, 03, F7, E6, EB,
  F5, F8, FD, 04, 00, F9, EE, F4, 01, FD, FE, FC, 01, FC, 01, FB,
  F2, EC, 01, 06, F0, F6, FE, 0F, 09, F5, EE, F4, F0, F2, FD, F7,
  00, FB, FF, 06, 0C, 01, 00, 01, FF, FA, 01, FB, E9, F4, FE, 03,
  F2, F6, 05, 11, 04, F6, FB, FC, F7, F5, FA, EB, FD, FC, 07, 0F,
  1A, 10, 02, FD, FA, F9, FE, F9, F5, FA, EF, 08, F4, FD, 11, 13,
  0C, F3, F7, ED, 00, FC, 03, F7, FF, 10, FC, 0E, 22, 14, FE, 01,
  FB, FE, FB, 00, FD, FA, F6, 03, 01, FF, 17, 1C, 15, FB, FD, F8,
  F3, F5, EF, F4, FB, 06, 05, 15, 24, 19, FD, 00, FF, FF, FA, F5,
  F6, 00, F6, F6, 03, 0A, 24, 15, 08, F3, FB, EF, E2, ED, FA, FB,
  00, 07, 08, 08, 10, 06, FB, FF, FC, FC, 00, F9, FF, FE, 05, 06,
  02, 08, 16, 08, 03, F1, EE, F4, F5, ED, F5, FD, FE, FD, 00, 00,
  19, 07, F6, FB, 01, FA, 05, FB, 00, FC, 0C, 0C, 0F, 06, 0D, 0B,
  FD, EB, F4, F7, F8, FB, F7, 03, 04, 00, 05, F8, 07, 08, FF, FC,
  FE, FC, 05, 06, 10, 10, 04, 0E, 11, 0D, 18, 10, 04, FA, 01, 0F,
  FC, F0, FA, FC, F6, 02, 0D, 00, F4, 03, 02, FB, FF, 01, FE, 09,
  15, 05, FF, 06, 07, 19, 0E, 0D, 0F, 0C, 0E, 0B, F9, F9, F8, 06,
  FA, 0D, 16, 05, F3, 0F, FE, 00, 03, FA, 06, 0D, 15, 0A, 01, 0A,
  FD, 09, 0C, 0A, 11, 08, 08, 10, 04, 04, 06, 0E, 01, F6, FB, F6,
  F0, FD, 01, FE, 01, FC, FD, 07, 10, 15, 08, 02, 0B, 00, 0A, 03,
  09, 07, 0E, 05, 05, F5, 08, 0E, F8, F5, 01, F8, ED, FE, FC, 02,
  03, FF, FA, FB, FE, 03, 02, 00, 0E, 0B, 05, 0A, 0E, 0A, 03, 08,
  0A, FF, 1A, 0A, 08, F0, F0, F4, F7, FE, FE, FD, FE, FB, 02, FD,
  F8, F7, 07, 05, 0C, 1E, 2E, 1C, 0E, 17, 1D, 30, 1C, 20, 22, 14,
  07, 00, 0A, FC, FD, 00, 01, FB, FD, FA, FD, FD, FF, FC, FB, FB,
  F6, FB, 02, 10, 0B, 1A, 11, 0B, 06, 06, 07, 05, F9, FD, 00, FE,
  FE, 02, 02, FE, 00, FC, 00, FD, FE, FF, FD, FF, FC, FA, FB, FB,
  FD, FE, 02, FA, FF, FD, FF, 02, FC, 00, FD, FB, FC, 01, FB, FB,
  02, 03, 00, 05, 03, 00, FD, 02, 03, 04, 06, FF, 00, 04, 02, 03,
  02, 05, 05, 00, FF, 01, 06, 01, 03, FF, FE, 06, 05, 02, 01, FF,
  02, 02, FE, 02, 05, FF, FD, FE, FC, FF, 08, 06, 0A, 04, 03, 05,
  00, 05, 03, 00, FF, 01, 01, FE, 01, 00, FE, 03, 01, FD, 03, 01,
  00, 06, 05, 10, 0A, 0B, 00, 00, 08, 00, 02, FB, FE, FF, FD, FF,
  01, FF, 00, 00, 03, FE, 06, FE, 02, 02, 00, 03, 05, 0A, 14, 20,
  1D, 0F, 08, 00, FE, 08, 01, EC, FC, 07, 04, 02, 00, 01, FD, FF,
  FF, 03, 05, 02, FE, 03, 04, 03, 03, 02, 09, 1E, 1C, 18, 0E, 0B,
  04, 09, 11, 00, 0D, FC, F7, F5, FF, FA, FF, FC, 06, 03, 01, FC,
  06, FE, FB, FE, F5, FC, F6, F7, 05, 0A, 08, 05, 0B, 0A, 09, 07,
  09, 0C, 0E, 05, FB, 01, 00, FD, 06, 03, 01, 00, FB, F7, F2, EF,
  E9, F4, FC, F8, 07, 0F, 11, 2A, 23, 17, 0D, FA, F7, 0A, 02, 00,
  F8, FB, FC, 03, 01, 03, 02, 04, FC, F1, F1, E4, EC, F9, F7, 02,
  FF, 09, 24, 34, 21, 03, 04, F9, FD, 0A, 09, 01, FA, F2, F8, FF,
  01, 03, 05, FC, F4, E7, E6, ED, 02, FD, FE, 02, 03, 07, 14, 10,
  05, 02, 00, 05, F2, 04, 0B, FA, FC, FC, 06, 06, FE, 02, 03, 01,
  F5, E1, F0, FE, 05, 07, FF, FD, FA, F1, D6, C8, DA, 01, 0E, 0C,
  FD, FE, FD, FF, F4, 04, 04, 00, 00, 03, 06, 01, F0, F4, 11, 0B,
  06, F7, F4, F1, E1, C4, B3, BC, FC, 0D, 18, 0A, 10, 00, FD, ED,
  F0, FB, FE, 04, 03, 00, 03, FF, FB, F9, 04, 0C, F8, F5, EE, E8,
  E6, E0, F7, 05, 11, 11, 06, 07, 12, 0B, FA, E1, F0, 04, 03, FD,
  00, 05, FD, FA, F9, F7, F8, FC, F3, FE, FA, EB, F1, 01, 14, 0E,
  08, FD, 01, 0B, 12, 11, EC, E7, F7, 07, 05, FD, FD, 03, FE, FF,
  E6, F7, EA, F8, FF, 07, 05, FC, FD, 01, 08, FA, 02, FD, 11, 0E,
  12, F9, E8, EF, F4, FD, 00, FF, 03, 01, 01, 01, EF, DF, F2, F4,
  F3, EB, FF, 06, 02, 06, FF, 03, 07, 0A, 02, FF, F6, E4, EB, EB,
  E5, FC, 06, 05, FF, 02, 03, 09, FE, 05, FE, F7, F7, 00, FB, FD,
  01, 01, 0C, 07, 07, FC, 01, F1, EF, F3, F9, E5, EF, FB, FE, FE,
  02, 00, 07, 08, 0E, 0D, FF, FE, F7, 02, 03, 01, 06, 0A, 01, FA,
  FB, FC, FD, F3, F2, 06, 0C, F8, F7, FA, 00, 02, 04, 05, 07, 0D,
  0E, 10, FA, 03, 15, 04, 03, 09, 07, 0D, 0C, 0A, 03, F5, EF, F9,
  EB, FF, 08, 02, 05, 04, 07, FE, 04, 03, 06, 0C, 06, 0C, FF, FD,
  06, 00, 03, FE, F1, 06, 05, 0A, 01, FB, F7, F7, EB, FB, 0B, 10,
  17, 0D, 09, 04, 04, 03, 04, 10, 07, 07, 05, 07, FB, F8, F8, F8,
  F8, 05, 0C, 0B, 0A, 00, 02, FE, F0, F6, 00, 19, 0F, 06, 02, 03,
  04, FF, 02, 1B, 1C, 0D, 02, 0D, 04, FF, 02, FE, FB, 02, 05, 0E,
  00, 0A, 04, FE, F5, F6, FE, 0C, 0E, 07, 04, 03, 02, 01, 07, 0E,
  09, F9, 02, FF, 01, 01, 06, FE, 00, FB, F5, F1, 03, 05, 07, FF,
  F2, 08, 16, 0D, 08, 04, 02, FD, FE, FF, 06, FC, FC, 02, 06, 09,
  04, 00, FD, FD, F4, FC, F1, F1, F5, 05, FC, FD, FE, 0B, 0D, 0B,
  0D, 08, FE, 06, 00, FF, 06, FC, F8, F8, 00, 06, 09, 01, FD, FF,
  FF, FD, F6, 01, 0A, 0B, 07, 16, 17, 07, 11, 0F, 0A, FF, FD, 06,
  00, FE, 02, FD, 01, F8, F8, EF, F8, FE, F1, 07, 00, 07, FE, 0D,
  0E, 09, 10, 0A, 0E, 11, 09, 0B, 08, 05, FE, 04, 00, 00, FE, 03,
  02, FE, 01, F6, 06, 03, 11, 07, 11, 24, 0F, 0B, 05, 09, 16, 08,
  10, 0D, 06, 08, 02, FE, FE, 04, 03, 05, 05, FF, 01, FD, 04, 06,
  07, 03, 0D, 14, 0B, 0B, 0E, 0D, 15, 0B, 0B, 02, 01, 02, 03, 01,
  05, 05, 02, 02, FD, FF, FF, FE, FD, 05, 05, 00, 03, 01, FF, FE,
  02, FF, 05, 04, FE, 01, FD, 01, 00, 02, 05, 00, 05, 02, FF, FE,
  04, 02, 06, 03, 01, 03, 02, 01, 06, 01, 02, 04, 01, 00, 06, 02,
  04, 03, FE, 06, 02, 00, FD, 03, 05, 00, 06, FF, 05, 05, 02, 05,
  02, 03, 03, FE, 03, 01, 04, 01, 01, 00, 05, FF, 03, FE, 02, 00,
  05, 00, FD, 01, FF, FE, 03, FF, 04, 00, 07, 06, FE, 04, 06, FD,
  FD, 02, FB, 03, 05, 05, 08, 01, FD, FF, FC, 01, 02, 01, 01, 01,
  00, 04, 03, 04, 04, 06, 05, 03, FF, FB, 02, FF, F9, FA, 06, F8,
  EA, F9, F7, F8, 02, FC, F8, F0, EE, FB, 05, 05, 03, FC, FF, FF,
  00, 04, 05, 04, 05, FF, 02, 08, 00, 0B, FC, F5, F5, 02, FC, FD,
  03, 0B, 06, FD, F3, F8, 01, F8, E5, F0, 02, 06, 04, 04, 00, 04,
  00, FD, 03, 03, 0D, 03, FD, 00, F9, 07, 04, 08, 05, 0D, 10, 00,
  F8, FE, F6, F7, EF, F7, 05, 02, 03, FF, 01, 02, 02, FD, FB, FC,
  F6, FB, F6, 00, FB, F8, F6, 0C, 0C, 10, 11, 09, FC, FA, FB, F1,
  EA, F9, F7, FD, FF, 04, 02, 04, 04, F4, FC, EC, E5, FE, FB, FA,
  FB, F9, F4, 02, 07, 12, 11, 0F, F8, 0D, 0E, 02, 05, FA, FF, 00,
  02, FF, 07, 00, FD, EE, F5, F7, FC, FD, 03, FE, F6, 00, 00, F5,
  F5, 02, 08, 0E, FD, 03, 03, 06, FF, F0, F7, 00, 00, 01, 02, 04,
  F7, EF, 03, FA, F4, 02, 00, F9, F9, 12, 02, EC, E0, F1, 10, 23,
  17, 04, FC, 0B, FD, E8, F6, 03, FF, FD, FE, FD, 00, FF, 09, F6,
  F1, F3, FA, 05, 02, 08, 08, DF, CF, F7, 0B, 13, 06, 00, 0E, 17,
  F9, E7, F7, 06, 05, 06, FE, FC, F0, 02, 07, 08, FF, FD, F4, F7,
  FA, 0B, 0E, E3, DF, ED, EE, FE, FC, 00, 11, 10, 05, F5, 06, 04,
  03, 05, 07, 0B, FE, 05, 06, F8, FF, 0A, FE, F5, FA, 05, FE, DF,
  EB, EB, E9, 00, 03, 16, 16, 28, 10, F6, 00, 01, 03, FE, 03, 06,
  09, 04, 0D, 01, 0F, 07, FA, FA, 01, FF, F4, F5, F4, F2, F7, 01,
  13, 15, 1C, 1A, 09, 07, 04, 01, 05, FE, FF, 0D, 0A, 06, 0E, 19,
  0C, FE, 04, 02, 02, FE, 02, F9, F7, F6, 08, 1A, 17, 12, 0D, 03,
  03, 0B, FF, FF, 00, FD, FC, 07, FD, 0B, FF, 0E, 10, 0B, 08, FD,
  FF, FE, 06, F2, FA, 03, 0F, 1B, 0A, 05, FE, F3, F8, 01, 02, 03,
  01, 00, FC, FA, F9, 07, 06, 0E, 16, 0C, 01, FF, F9, FC, 0B, FA,
  FF, FE, 05, FF, 02, 01, FF, E9, E5, 02, FC, 05, 05, 02, FE, F4,
  02, FE, 06, FE, 16, 10, 04, F9, ED, 05, 17, 05, F3, F2, FE, F9,
  F2, F6, 00, EA, F4, FC, FE, 02, FF, 03, 01, F7, 0B, FD, 05, 04,
  0F, 1E, 0D, F4, E8, FB, 0B, FD, F8, FD, FB, EE, EE, F7, 00, 01,
  FB, FE, 05, 04, 03, 01, 07, FF, 03, F2, 03, 06, 14, 25, 1B, F0,
  ED, 02, 05, F9, FC, FD, F9, FE, EF, FC, 08, 0D, F9, F7, 05, 04,
  02, 05, 09, 06, FF, 01, F8, 03, FD, 17, 1B, F5, F6, F8, F4, FC,
  F8, F7, 00, 06, F3, 0A, 12, 0A, F7, EF, FE, FE, 01, FF, 0B, 13,
  05, FF, 08, FF, FD, 12, 0F, F7, F0, F4, F4, 00, FA, F7, 01, 0B,
  00, 0A, 17, 0D, FD, EE, 01, 04, 00, 04, 05, 08, FE, 04, 0D, 0D,
  0A, 04, 0B, 08, 03, F7, F1, F2, F3, FA, 07, 04, F5, 01, 0E, F8,
  FD, F1, FE, 06, FE, 01, 01, F7, E9, EE, FA, 01, 12, 0A, 08, 15,
  0B, 01, F6, F4, F7, F6, F3, 01, FD, 04, 06, FA, F9, F3, FE, 02,
  02, FE, FD, F7, F2, FD, 02, FF, 0D, 11, 03, 12, 13, 06, F1, EF,
  EA, E6, EF, F0, FC, 00, 02, FA, FB, 05, FF, FF, 06, 06, 00, 06,
  08, 07, 14, 0C, FA, F1, F9, 00, 01, 01, FF, FB, FA, EA, EF, 08,
  06, 0C, 02, F7, FA, 02, 04, 02, 02, FE, FE, 00, 02, 0C, 08, FE,
  FB, F8, F7, FC, 01, 03, 02, FD, FC, F8, FB, FE, 07, 09, 05, FE,
  03, 06, 02, 05, FE, 02, 06, 02, 04, 00, 05, 07, 03, 05, FD, 06,
  06, 03, 04, 02, 05, 00, 06, FD, 01, FF, 07, 01, 00, FF, 01, 05,
  02, FD, 01, FF, 04, 03, 02, FE, 00, FE, 00, FD, FE, 00, 04, 01,
  FF, 03, 01, 05, 01, 06, 04, 02, 04, FE, FF, FF, FE, FE, 01, FE,
  01, FF, 02, FE, FF, FE, 04, 03, FE, 05, FF, 06, FE, FE, 05, FD,
  04, 02, FE, FE, 03, FF, 01, FF, 01, FE, FF, 06, 01, 02, FE, FE,
  05, FD, 03, FE, 01, 01, F6, F8, F7, F8, FD, 04, FE, 04, FE, 02,
  FA, FE, 02, FD, 00, 04, FE, 06, 07, FF, 00, FC, 03, FF, FD, F9,
  F1, E3, DF, E7, E5, EE, F9, FA, 05, 01, FE, FD, 02, FC, 06, 04,
  04, 02, FE, 02, 03, 04, FE, 02, FA, F7, EF, E7, F0, FA, F5, F6,
  F2, F9, F8, F7, F4, 06, 08, FD, FD, 02, 00, 00, 04, FF, 04, 04,
  05, 03, 0A, 07, EC, F9, 02, F2, E7, F2, ED, ED, ED, 03, 09, 12,
  1E, 11, 12, 03, 05, 02, FF, FF, 01, FF, 00, 06, 08, 04, 08, 0A,
  FE, FE, F7, EB, F1, F7, FD, 01, FA, F1, 03, 09, 08, FC, 09, 12,
  04, 0B, FF, FC, FE, 05, 01, F8, 0E, 0B, 09, FE, F1, FB, FA, F3,
  F6, FD, 07, 04, FE, F8, 01, F9, FC, FF, 09, 04, 03, 08, 02, 00,
  03, 05, 04, 06, 0A, 0C, FE, FA, EF, F9, FF, FD, 02, 00, 05, 02,
  08, FD, 01, 08, 08, 0E, 02, 13, 18, 09, 0D, 01, FE, 05, 0A, 0C,
  11, FA, F4, 01, 06, FE, 00, F9, F5, 01, EC, FA, 02, 07, 0A, 12,
  0C, 0D, 10, 21, 32, 21, 03, F1, FF, 05, 03, 0F, 12, FE, E8, FF,
  FE, F8, 04, 01, 09, 02, F2, F6, F9, 04, 05, EF, 0B, 03, 1B, 27,
  26, 07, FE, FE, 06, 00, 00, 04, 09, FB, F4, FF, E7, EE, EA, ED,
  F3, 0A, 0D, FF, FB, FF, 01, FE, 04, 06, 07, 19, 19, 0D, 04, 02,
  01, FC, FD, 00, 00, F2, ED, EB, DF, EF, EE, E3, EC, 17, 2C, 0D,
  ED, 02, FD, F9, FB, F7, 05, 10, 04, FD, 02, 01, 03, 03, FD, 03,
  02, F4, ED, F3, FF, FE, F2, EF, F9, 17, 1E, 04, F8, F3, ED, E9,
  E2, EA, F6, 15, FB, FA, FB, 01, 06, FF, 00, 06, FF, FE, F0, F8,
  FF, 01, 02, F6, 00, 16, 17, FE, FC, FF, E6, E0, E0, E9, F3, 0A,
  04, FD, 04, 04, 04, 03, 01, FC, 05, 01, F8, 0A, 08, 06, F9, F3,
  08, 11, 0F, F1, F0, EA, E7, DD, D9, DF, F8, 04, 08, FF, FE, 01,
  FF, FF, 07, 00, FF, 0F, 03, F5, 02, 0E, 05, F8, 02, 02, 06, FD,
  01, F4, F4, F4, ED, EA, FA, 07, 0C, F9, FC, FC, FF, FF, 02, 05,
  FC, 07, 15, 02, F7, 07, 06, FA, EF, EB, 06, 0A, 11, 0E, 11, 00,
  EB, F1, FA, FF, F7, F9, FD, FE, FD, FD, 08, 01, ED, FA, 08, 05,
  FE, 01, FB, F2, E2, E8, F5, 0C, 14, 23, 15, 04, ED, EE, F3, EA,
  F7, 00, 03, 00, 00, 04, 06, F4, F4, 03, FC, 02, 06, 01, FE, EB,
  E2, F5, F4, 05, 14, 17, 21, 0E, 01, F2, EF, F2, F6, 04, 03, 01,
  05, 03, FF, F6, 02, 10, 0A, F8, FE, 02, 01, 00, FB, F7, FC, FB,
  0B, 15, 1F, 17, FE, EC, EC, EA, F6, FF, 01, FD, FD, 05, FF, 07,
  FA, FE, 08, 02, F5, 0D, 05, 09, FD, F9, 00, 00, 01, 07, 07, 02,
  04, E9, EF, F4, FC, FD, FE, 05, FF, 04, 01, 03, FF, 05, 05, 07,
  F6, 06, 09, 18, 02, 02, 04, 05, FE, FB, F4, 09, 0B, F5, F6, FB,
  FB, FD, FD, 04, FF, 01, 06, 0B, 01, FB, 04, 06, 0D, 10, 0E, 18,
  1A, 15, 11, 11, 02, F3, F4, 04, 10, 03, F6, FB, 00, 04, 05, 03,
  FD, 00, 02, 09, 01, F6, F9, FB, 06, 0E, FA, 01, 10, 08, 04, 07,
  07, ED, EA, F9, 06, 06, FE, FB, FC, 00, FC, 00, 04, FE, 04, FD,
  F8, F0, F2, E5, F3, FB, EF, E5, FE, EE, E6, E0, DE, D9, FA, 0B,
  02, 02, 00, FE, 02, 05, 00, 00, 00, 04, 06, 03, FE, F8, FC, F1,
  F2, F0, EA, EC, F0, EB, E0, EC, FE, 04, 04, 06, FF, 03, 05, FE,
  FE, 05, FD, 04, 04, FF, 03, 01, 01, FD, 05, 01, 04, FE, FD, 04,
  05, 04, 01, 01, 02, 01, 04, 04, FF, 05, 01, FF, 02, FE, 02, 04,
  00, 01, FF, 04, FF, 02, 06, 07, 07, 00, 07, 02, 01, 03, 04, 08,
  05, 07, 07, 03, FF, 00, 01, 02, 01, 00, 03, 04, FF, 06, 06, 04,
  07, 03, 06, 06, 00, 06, 02, FF, 07, 03, 02, 06, 03, 05, 04, 03,
  FF, 00, 00, 01, 07, 02, 02, 01, 03, 04, 02, 04, 01, 05, 01, 03,
  03, FE, 02, FC, 00, F7, ED, EF, EE, FB, 01, 07, 04, 01, 00, 01,
  04, 04, 02, 00, 04, 06, 05, 05, 07, 01, 00, FE, 05, FF, FE, F8,
  FA, E0, D1, DF, DF, F6, F4, F3, F9, F8, FF, EF, EE, 07, 07, 01,
  04, 03, 05, 08, 02, FF, 05, FF, FE, F3, E4, DA, DA, E8, F5, FC,
  E8, FE, FD, 09, F4, E9, EC, F0, F6, 0E, 09, 04, 02, 02, 00, 05,
  06, FF, FF, F7, F5, EB, DC, CC, D7, FD, 08, FF, F8, F0, ED, 00,
  13, FF, F7, F8, F2, 03, 01, 03, 04, 03, 00, 02, 02, FD, FC, F1,
  EE, E7, E2, DC, E8, FD, 0C, FB, F6, F2, FA, 00, 0C, 00, 03, 08,
  0B, 04, 06, FB, 02, 01, 01, 0A, 08, 06, F4, ED, EF, F3, F1, E1,
  FB, FF, FF, F7, 00, FD, F6, F0, 0B, 06, 10, 09, F7, EF, FF, FD,
  05, 07, 03, 04, 07, FC, F5, EF, 02, FC, F3, E6, F7, F9, 02, 11,
  0A, 0B, 01, 08, 14, 14, 08, 05, 0A, 08, 06, 02, 05, 00, 02, 03,
  05, FA, 04, 00, 03, FD, FA, F5, F0, FD, 06, 14, 1D, 1A, 14, 03,
  10, 11, 07, 0A, 26, 28, 0B, FE, 03, 05, 04, 02, 06, 04, F1, 01,
  04, 05, 11, 03, F4, FF, 04, 0D, 02, 06, 0D, 19, 12, 21, 17, 26,
  32, 42, 11, 02, 07, 02, 06, 03, 0D, 02, F0, F1, 05, 05, FC, FD,
  E4, F0, F0, F2, E7, DF, EF, F1, FB, 1C, 22, 1B, 18, 35, 07, 08,
  05, 02, 07, 02, 03, F7, E6, F8, 07, 02, 03, FA, EF, F4, 03, EF,
  D6, C4, B6, B1, CF, D4, E4, E5, F5, 13, 0D, 06, 00, 01, 01, 02,
  FB, FF, F1, 0A, 04, 0A, 00, 03, F4, 07, 0D, F1, ED, D2, B9, BE,
  CC, D6, D8, D5, E8, FF, 00, 05, 02, 06, 00, 06, 02, 03, F4, F9,
  F9, 02, 0A, F9, F3, FB, FD, 00, F4, F3, EB, D4, DE, E2, DD, E4,
  F5, FF, FC, 08, 02, 07, 01, FE, FE, F7, 02, FD, FF, 0D, 05, F6,
  02, FE, FC, FB, EE, FF, 02, D7, D1, DF, E0, E8, F3, 04, FD, 04,
  07, 07, 02, FF, FF, FD, F3, E7, F7, 03, FC, FF, FA, 04, FE, F6,
  E9, FC, FB, F6, DB, DF, E4, EB, 03, FE, FA, FE, 01, 07, 04, FC,
  02, F5, F3, EB, F0, F2, 03, FF, FC, FD, 00, F7, F2, FC, 07, F6,
  F5, DD, E8, F4, FC, FE, 02, 00, FF, 06, 03, 03, FE, F5, FA, FC,
  FF, FE, FF, 0B, 06, 08, F4, E9, E1, FE, 04, 16, 11, F0, E4, ED,
  FC, 0C, 05, 07, FF, 08, 06, 00, FB, F3, 03, 09, FF, 0C, 09, 00,
  F9, 0A, F4, F6, FD, FC, 03, 02, F6, F5, EE, F4, 05, 0C, 07, 02,
  08, 08, 04, F1, E9, FA, 02, 05, 00, 00, 07, 05, FF, FC, FE, FD,
  FE, FB, FB, FC, 02, FA, F7, FE, 06, 07, 01, 00, 04, 04, 02, F3,
  F3, 00, FF, 05, 03, 08, FB, FD, 07, 01, 0A, 01, F4, F2, F6, F7,
  0B, 0F, 03, 07, 0B, 02, 02, 06, 00, 04, 04, 01, F7, 04, 01, 0A,
  01, 0A, FC, F6, 01, F8, F9, F6, F5, F9, FF, F9, 17, 0B, 04, 07,
  03, 07, 04, 01, 03, 07, 04, 02, 00, 10, F9, F7, 0A, 13, 0C, FE,
  FC, F7, FE, FA, FE, FE, F2, F2, 12, 09, FF, 04, 03, 02, 01, 05,
  06, 06, 00, 03, F3, F7, EC, E9, ED, 09, 01, 02, FA, FD, FE, F4,
  FB, 10, 01, 0C, 1B, 12, 09, 06, 06, FF, 00, 05, FF, FF, 07, 08,
  F5, F1, E3, E6, F1, FD, E9, EF, FF, F0, F1, F3, 04, 0B, 02, 06,
  09, 0D, 0B, 0A, 06, 04, 07, 02, 05, 07, 05, 04, FE, FC, FC, FB,
  F4, F0, F3, 05, FA, F2, EE, FD, 04, 02, FC, 09, 05, 04, 05, FF,
  03, 05, 08, 06, 01, 08, 06, 07, 06, 07, 06, 04, 03, 04, 00, 00,
  06, 07, 06, 05, 06, 02, FE, FE, 00, 07, 04, 03, FF, 00, 04, 02,
  FE, 03, 03, FD, 01, 02, FB, FF, FF, FD, 01, FE, FB, FF, 00, FC,
  00, 03, FC, 00, FE, 03, FC, 01, FC, FE, FF, 03, FE, FB, 03, FB,
  FC, FE, 02, 04, 04, 04, 01, FD, FE, 05, FE, 04, FD, FC, FC, 03,
  01, FC, 03, 00, 02, 00, FB, FB, 02, FB, 02, FB, FC, FD, FC, 04,
  FE, 00, 01, 07, 05, FF, FE, 00, FC, 01, FF, 00, 04, 01, FD, FD,
  FE, FD, FD, FB, 04, 00, FE, 01, FC, FC, 02, 03, 03, FE, F8, FA,
  FC, FF, F4, ED, F4, F4, F4, 00, 01, FA, 03, FE, FC, FF, FC, FB,
  FD, 03, FE, FF, FA, F4, F7, FC, F3, 04, 0F, 19, 16, FE, 0C, 0E,
  0A, F6, F9, F8, FB, FB, 01, 08, 08, FE, FE, FC, FD, FD, 00, FA,
  F5, F5, FA, F1, F2, 11, 12, 21, 0A, FC, 0D, 08, 0C, 12, 10, 05,
  0D, 0A, 07, 03, FE, 05, 00, FC, 03, FD, FF, F6, F5, 07, 01, 04,
  0B, FF, 07, 0A, 04, 0E, 11, 0B, 14, 0F, 0C, 0D, 08, 02, FC, F7,
  F6, 01, FF, FC, 02, FB, FE, F6, F5, 03, 0B, 08, 0C, 06, 0C, 07,
  0B, 1B, 19, 15, 0B, FF, 0C, FE, FA, 09, 05, F7, F3, F8, F8, 01,
  00, FB, 01, 03, F8, 09, 18, 06, 0B, 04, FC, 09, 0A, 17, 07, 0E,
  05, FD, FB, FD, F9, FE, 07, F8, FF, FE, 00, 05, 02, FD, 06, FF,
  F6, F5, 0F, 06, 0F, 0E, 0F, 05, F4, EF, EB, F3, EF, EA, EE, EE,
  F3, 04, FB, 05, 15, 12, 09, FF, 00, FE, 03, F2, 00, FD, 0A, 01,
  0C, 0D, 15, 02, ED, DF, E2, E9, EA, EF, 06, FD, 02, 0E, F7, 05,
  09, 07, 05, FF, 00, FD, 01, FD, 07, 01, 05, 05, 12, 0D, 0A, 13,
  02, 00, 01, 01, FC, FF, FC, FB, F7, F5, ED, 02, 16, 06, 0A, 01,
  02, FD, 00, FF, 0B, F7, 00, 04, 0E, 06, 0C, 1E, 18, 00, F3, F1,
  F0, FC, FE, FE, FE, 04, F4, 09, 10, 0E, 08, 01, FE, 02, 00, 03,
  07, FD, FB, 06, 00, 06, 07, 0D, 0F, F7, F4, FC, F7, F3, FF, 02,
  02, F9, 09, 0A, 09, 0C, FA, FA, 02, FD, FF, F4, 06, F3, 04, 01,
  FD, F6, 0A, 08, 00, 04, FF, FF, FF, F7, F8, E1, ED, F9, FE, 0B,
  05, 03, F8, FC, FC, FE, FD, F2, F7, EA, FB, 0A, 00, F7, FD, 05,
  0C, 08, 01, 05, 05, FE, F6, ED, F0, 04, FB, 15, 1A, 0B, F8, FB,
  FF, FD, 02, F5, EF, F1, F8, 05, 04, FE, 04, 0D, 0E, 0C, 01, F8,
  F6, EE, EB, ED, F7, F7, 05, 11, 11, 05, FF, 01, 03, 01, FD, FB,
  F2, EF, FE, FE, F8, FF, 09, 0A, 19, 0F, 0B, F8, EA, ED, EB, FA,
  07, FA, 05, 0F, 11, F3, FC, FE, FC, 03, FB, FA, F9, FD, FF, ED,
  E8, F1, 04, F9, 0D, 06, FE, FD, EA, E4, EF, 01, 0B, 02, 11, 13,
  01, F0, F7, FA, 03, FC, FE, FA, FB, 00, FF, F0, F1, E3, F0, E1,
  FB, EC, EE, EB, F8, FA, FA, 09, 01, 08, 16, 0F, FC, F1, FB, FE,
  01, FE, FE, F8, FD, FC, EC, F1, FE, FF, F8, ED, EC, ED, E7, FB,
  02, 04, 0C, 0B, 01, 04, 17, 0B, 00, 0B, FC, 00, FC, FB, 01, FC,
  0B, F7, F2, 00, 02, 0A, FA, E8, E8, EC, F7, F7, FD, FB, 00, FC,
  05, 06, 04, 09, 04, 06, 02, 04, FF, FB, 03, 02, 05, FE, F0, F9,
  FE, FB, EB, F2, F4, FF, FF, F8, 02, 08, 05, 01, 01, F6, 02, 08,
  02, 02, 04, FF, 01, 01, 03, 0C, 06, 0D, 05, FA, 02, EE, F8, FC,
  07, 11, 0F, 06, 0C, 07, FE, FA, 0A, F4, 02, 0F, 08, 0B, 02, 03,
  03, 00, FB, 06, 06, 09, 03, 0F, 13, 0C, 0D, 12, 13, 15, 0A, 0C,
  0D, F7, 02, 08, 0B, FE, FC, 11, 05, F9, 01, FF, FF, FF, FC, FF,
  02, 00, 0D, 11, 20, 23, 2D, 2A, 29, 1E, 13, 20, 1E, 13, 0D, 2A,
  19, 0D, 09, 12, 0F, FF, FC, 04, FC, FE, FC, 00, FD, 03, 04, 00,
  FF, 03, 07, 1A, 2A, 27, 0E, 09, 14, 14, 1D, 16, 15, 03, FA, 02,
  03, FB, 02, FB, 02, 03, FE, FD, 00, FD, FC, 03, 03, 01, FB, FF,
  00, FE, FE, F8, F8, F8, 00, 00, FC, FE, FB, FE, 00, FE, 02, FC,
  01, 07, 01, 06, 06, 01, 04, 08, 07, 04, 07, 06, 0A, 06, 01, 03,
  05, 00, 03, 09, 05, 05, 07, 04, 04, 03, 07, 01, 08, 02, 00, 06,
  01, 00, 05, 07, 0F, 08, 08, 09, 08, 07, FF, 0C, 07, 05, 06, 0A,
  05, 0B, 10, 09, 00, 06, 07, 03, 04, 06, 08, 01, 00, 06, 0A, 13,
  09, FF, 09, 16, 1B, 1A, 1E, 1A, 18, 11, 04, 07, 0B, 0A, 13, 09,
  03, 00, 00, 07, 08, 09, 08, FF, 02, 04, 10, 12, 0B, 15, 09, 13,
  1C, 27, 28, 10, 02, F6, E5, ED, F6, FC, F9, F9, 01, 03, 07, 07,
  00, 06, 06, 00, 0E, 08, FE, 10, 10, 0F, 0A, 03, 14, 1D, 16, FD,
  E9, D7, C3, CB, E2, FC, F6, F2, F7, FC, 01, 00, 00, 05, 03, 03,
  12, 00, 02, FB, 02, 0A, 06, 12, 0A, 02, FD, EB, E1, BF, C2, DF,
  F5, FE, F8, F0, F1, F7, 03, 09, 07, 00, 04, FF, 02, FD, F1, FE,
  FE, 13, FC, 07, 03, 09, 09, E2, A7, AE, E5, 02, 15, 03, FD, F7,
  FD, F6, 05, 04, 05, 07, 03, EE, F8, FE, EC, FB, FF, F4, 02, 08,
  15, 11, 05, CE, 8E, D4, 0F, 18, 0D, 04, 01, 07, 04, FF, 06, 05,
  03, 06, 0A, F4, 08, 12, FE, 01, 01, 06, FC, FF, 0E, 0E, F1, A6,
  B5, 05, 0C, 09, 09, 04, 0A, F4, EC, 03, F4, FB, 02, 04, 09, 06,
  09, 03, FE, F7, FF, 00, F4, 07, 0B, FA, CA, B5, F1, 08, 10, 03,
  10, 10, 04, F7, FA, F7, FD, 07, 04, 02, FF, FD, FF, 08, F5, F9,
  06, F2, F7, 04, 06, E8, C2, E8, 02, 0E, 0D, 10, 11, 07, FE, 03,
  14, 02, F5, 04, 01, 08, 05, FC, F4, EE, F7, FA, 00, FF, 02, 02,
  F8, D4, E2, FF, 10, 0F, 19, 1A, 0E, 14, FA, 0B, 06, F9, FA, 00,
  09, 07, 08, EA, EC, E8, FE, 02, 06, FA, 01, FD, E8, E6, F4, 15,
  0C, 08, 0D, 12, 13, 09, F7, 0C, 1F, F3, 00, 03, 06, 07, 00, F5,
  E7, FA, 09, 06, 0C, 04, 04, FE, F5, F1, FC, 0C, 05, 05, FE, 0E,
  00, 0B, FF, 12, 16, F6, F8, 00, 09, 02, 06, FB, ED, 00, 03, F2,
  04, 03, 00, 0D, 07, FA, 02, 0F, 0E, 06, FA, 04, 02, 17, 0F, 12,
  00, F4, FC, 07, 02, 00, 01, 06, F3, 03, FE, F6, 06, F3, FE, 0C,
  FC, 00, 0D, FF, 00, 02, FF, FB, 07, 05, 04, 03, E7, 0F, FA, 01,
  03, 01, FF, 01, F3, 0A, 0A, FA, FF, 00, 0F, 0E, FE, 08, 0C, 03,
  FB, FA, 00, FB, 02, 04, F7, F9, 07, 11, FA, 07, 09, 01, 04, 0E,
  FA, FF, 01, FD, FD, FE, 08, 01, F8, 01, 01, FB, 01, 01, 09, FE,
  FC, 03, 02, 01, FD, 15, 04, 06, 06, 05, FF, 0F, 05, FB, EF, FE,
  FD, FE, 06, 08, FF, 0C, 0E, F4, 05, 01, 00, F7, F2, 0D, 0B, 08,
  FF, 0F, 09, 04, 07, 06, 00, 0D, 04, F7, F2, 00, FE, 01, 06, 0E,
  F3, 00, 12, 0E, FD, F7, F0, F6, F9, 00, 07, 00, FD, FF, 00, 05,
  03, 07, 07, 05, 03, F0, F5, F8, F2, FD, F4, F1, FA, FE, 07, 0A,
  0D, FE, FE, FC, 02, F5, 00, FF, F7, FB, 05, 04, 05, 08, 02, 01,
  04, 03, FE, FC, 07, FE, FA, F1, FE, 03, 01, 12, 05, 0A, 0B, 06,
  00, FD, FD, F8, EE, F8, 09, 08, 03, 07, 04, 00, 07, 0F, 0B, FA,
  05, F9, EE, F0, EC, F2, EC, FD, F5, F7, 00, 03, FC, FF, F5, EE,
  F0, 00, 04, 00, 08, 09, 05, 02, 03, 0D, 18, 0F, 0E, FE, 04, F6,
  F1, E9, E3, E4, E6, E0, E9, F4, E6, 01, F9, F4, EB, 00, 06, 04,
  07, 09, 03, 03, FB, F9, 03, 0C, 14, 15, 0E, 0B, 0E, 02, 06, 02,
  01, F1, FA, F9, EF, FD, 07, 05, F7, 00, 02, 05, 03, 02, 05, 01,
  FC, F1, F3, FC, FE, 01, 06, 0D, 1C, 08, 04, 0B, FF, F1, F1, F2,
  E6, FC, 02, 0A, 04, 03, 02, 03, 05, 03, 03, 01, 06, FD, F8, F8,
  F7, FC, F4, EB, F8, EF, DD, EA, F2, FD, EA, ED, FF, 05, 05, 06,
  03, 07, 08, 03, 06, 05, 09, 09, 03, 09, 09, 00, 03, 05, 01, 03,
  02, 02, 07, 02, 05, 07, 03, 02, 06, 03, 08, 07, 07, 03, 02, 09,
  06, 01, 06, 07, 07, 00, 08, 02, 00, 08, 05, 01, 01, 00, 08, 03,
  00, 08, 02, 08, 03, 02, 09, 06, 05, 00, 08, 05, 05, 05, 03, 08,
  02, 08, 05, 02, FD, 06, FD, FE, FB, 05, 01, FE, F3, FB, 06, 04,
  06, 02, FE, 07, 02, 08, 05, 03, 08, 00, 03, 08, 07, 03, 01, F8,
  FA, F7, F3, F7, F1, F1, EF, F9, F8, F9, 00, FF, 05, 05, FE, FD,
  09, 03, 03, 08, 06, 04, 06, 07, 07, 05, F7, F0, E7, DE, E6, F1,
  E6, D5, E9, E1, EC, 01, 03, 0C, 08, 07, 01, 03, FC, 03, 05, 04,
  07, 09, 05, 07, 04, 05, FA, E6, E2, D6, DD, F6, F8, F0, E4, F0,
  FF, FC, 08, 11, FE, 19, 1D, 19, 0A, 04, FD, 07, 05, 06, 01, 01,
  00, 15, FF, F6, 0D, 0C, F6, 04, 00, F2, FF, 01, FA, FB, FE, F9,
  F4, FF, 09, 0B, 10, 08, 00, 03, 08, 07, 02, 02, 00, 11, 09, FB,
  11, 06, FA, 0D, 03, 0B, 12, FC, 00, 06, 02, 02, 13, 00, FF, F3,
  0F, 05, 07, 07, 05, 01, 07, 0B, 04, F8, 03, 03, 05, 0A, 05, FF,
  01, 09, 03, F3, FF, 0A, FB, FB, 03, F8, F6, FE, 05, 0A, 0D, 02,
  06, 05, 08, 04, 06, 07, 03, 01, 07, 01, F4, 00, 04, 02, FA, 01,
  FD, 01, 03, FE, F5, FF, FF, F1, 0D, 0A, 05, 06, 04, 03, 02, 08,
  0E, 04, 09, 13, 07, 03, F5, 03, 00, 05, FE, 09, 12, 17, 0E, FE,
  09, 08, F9, EF, FE, 05, 06, 0E, 02, 01, 0A, 0B, F8, F9, 00, F5,
  FE, FD, F3, FC, 01, 04, FA, 05, 06, 08, 03, 0D, 0A, FF, F7, F3,
  05, 23, 09, 09, 02, 01, 03, 06, F6, F8, FE, F2, 05, 04, 01, 04,
  FC, F9, 01, 0B, 09, 0E, 0C, 06, 11, 14, 10, 06, FE, 0C, 03, 05,
  08, 02, 03, 02, F5, F7, FE, FE, FD, F4, 03, 02, 00, 01, 08, 0E,
  05, 06, 00, F6, 01, 02, 11, 0D, FB, 04, FC, 06, 08, 06, 04, FE,
  01, FD, FF, 05, FF, 00, 06, 01, 00, 05, 11, 0F, 0E, 0A, 03, F8,
  15, 0C, 05, F6, E9, F3, F7, 02, 08, 04, 03, 07, 15, 12, FD, FF,
  FE, 0C, 00, F7, 01, F8, FA, 07, 0A, 0B, 07, 0B, 18, 09, 02, E7,
  E7, F1, F4, 05, 09, 02, 06, 03, 0D, 10, 0A, 05, 0B, 00, 08, 02,
  FF, F1, F3, 00, F8, 04, 05, 01, 07, 0F, 16, F9, DB, E4, FC, 05,
  02, 04, 02, F9, F3, 08, 10, 11, 11, 0F, 04, 08, 10, 07, FF, 04,
  FB, 08, 02, 04, 01, 15, 01, EF, E3, EB, EE, 04, 05, 02, FF, F0,
  EF, F7, F3, 03, FF, 07, 0C, 04, 03, 09, 05, 04, 01, FF, 09, F9,
  F7, 02, F7, F6, F2, F7, 02, FE, 07, 06, 00, F3, E2, CD, C9, D9,
  D6, E3, F1, FB, F9, 02, FC, F9, FF, FC, F5, F3, 0B, F7, E1, DF,
  E5, F6, 09, 02, 03, 00, 08, F9, E9, CA, B9, C3, AF, C4, CF, E7,
  DF, F2, F8, F6, F0, FB, FB, F6, F1, F0, DB, E0, E7, FB, FF, 05,
  05, 00, 05, 03, EC, D2, DA, D4, D4, D9, CF, DE, DF, F1, FC, F7,
  FC, 02, FD, F8, F1, FB, F2, F3, F3, 03, 05, 02, 08, 05, 05, FF,
  FE, F5, 03, 08, 06, 01, 07, 02, FE, F5, EA, F5, FC, EC, F6, F7,
  FA, 09, F8, F6, FC, FB, FD, 09, 06, 04, 07, 07, 07, 03, 11, 0E,
  16, 12, 18, 07, 00, FB, F2, 00, 00, F0, F4, FE, 01, F6, 00, FE,
  FD, 07, 09, 02, 00, 08, 04, 00, 18, 15, 15, 17, FF, 03, 08, 03,
  F5, F7, F5, FE, FE, FD, F9, F3, FC, F3, 00, F8, FD, 07, 02, 06,
  05, 04, 06, 0A, 15, 24, 1A, 0B, 07, 08, 02, 01, F7, F0, EC, F2,
  FA, F6, EF, E5, F3, F8, 02, 02, F9, 01, 01, 03, 01, 02, 02, 0B,
  0F, 15, FD, F9, 06, 0A, F1, 02, 09, 0D, 03, 01, 0D, F9, F4, F0,
  F0, F7, FE, 07, 01, 04, FE, 08, 01, 02, 09, 07, 07, 03, 06, 04,
  08, 08, 0F, 05, 0B, 07, 11, 07, 05, FD, F9, 05, 0A, 00, 06, 05,
  06, 00, 03, 05, 01, 00, 05, 00, 04, 02, 08, 07, 00, 02, 0A, 05,
  02, 01, 09, 02, 06, 07, 05, 02, 08, 02, 02, 08, 04, 04, 07, 02,
  03, 07, 06, 0A, 06, 04, 09, 04, 06, 02, 06, 09, 07, 02, 0A, 03,
  06, 09, 0A, 08, 02, 09, 0A, 09, 04, 0B, 09, 04, 08, 04, 04, 05,
  06, 08, 07, 03, 03, 0A, 01, 05, 03, 04, 01, 06, 14, 11, 07, 0C,
  0E, 03, 05, 0A, 07, 02, 06, 03, 06, 08, 0B, 0B, 04, 05, 08, 0A,
  0A, 00, FA, 00, FD, F5, F8, F0, F9, FF, 05, 0A, 00, FD, 04, 06,
  07, 0A, 02, 04, 06, 09, 0A, 07, 0B, 04, 04, 07, 03, F9, F8, F9,
  00, 06, 07, FE, FB, FA, 04, F7, 09, F8, E8, FC, FD, 0C, 09, 04,
  0A, 0A, 02, 06, 0C, 0B, 01, FA, FA, F0, EE, FC, 00, 07, 04, FF,
  F9, F1, 00, 07, 08, FC, EF, FA, 00, FA, 05, 03, 05, 0A, 0A, 07,
  07, 0B, 00, F3, ED, E1, EC, F7, F2, 05, FF, 06, FD, FC, 01, 00,
  06, 00, FA, F7, F8, FD, 07, 05, 04, 09, 02, 08, 06, 04, F8, F2,
  F1, EB, F3, F5, FF, 06, FD, 00, 0B, FB, F8, FE, 05, 05, 00, FA,
  F7, F8, 18, 05, 06, 01, 05, 09, 03, FC, F9, F4, F9, EF, FF, 00,
  FE, FC, 09, 00, 0C, 0A, 0B, FA, F5, F8, 0B, FF, FA, FA, 0E, 05,
  07, 00, 04, 02, 07, 05, 00, FC, FC, FC, 03, 02, FA, 03, F9, F7,
  00, FF, 0A, FB, 07, 07, 0D, 00, 05, 13, 0C, 06, 05, 03, 04, 01,
  0E, 0B, FF, FD, F0, FA, F2, FA, FB, 05, FD, F7, 04, 03, 06, 07,
  07, F9, 08, F6, 12, 1F, 0C, 08, 08, 04, 02, 00, 00, 04, FE, F5,
  F4, 0A, 01, 06, 05, 0B, 08, 0E, 0A, FF, 03, FD, 09, 09, 0E, 0D,
  2F, 2D, 10, 01, 06, 08, 02, 00, 01, FD, F6, F0, 06, 01, FF, 01,
  FB, 08, 17, 0C, FE, 07, FF, F8, 01, 0D, 08, 0E, 1F, 11, 05, 05,
  09, 03, 08, F6, 04, 0F, F0, EB, F4, 01, 03, FD, 06, 0D, 12, 07,
  F6, 04, 05, F8, 00, F4, F2, FC, FC, 00, 09, 06, 05, 03, FB, 04,
  0B, 08, EB, E4, FF, F9, 08, 07, 15, 07, 05, FC, 09, FD, F8, FC,
  F6, F0, EF, FD, FF, FC, 01, 04, 03, 06, 06, 0B, 19, 12, F0, D9,
  DF, FB, FE, 11, 06, FF, EC, F5, FC, FF, FF, 01, 02, F0, E7, F5,
  FD, F9, 01, 03, 07, 0B, 08, 07, 1E, 20, 03, F0, D9, DC, E7, EF,
  02, ED, EC, FC, FA, 05, 0B, 0D, 14, ED, E9, 01, 04, FD, 04, 05,
  08, 0B, 0B, 13, 21, 20, 0F, F7, FA, C9, CA, CE, E0, EA, F9, 01,
  04, 09, 09, 05, 15, F4, F3, F4, F9, FF, 01, 0A, 06, 04, 08, 16,
  17, 22, 18, 0F, 09, F9, E4, DE, E3, E5, F4, 04, 09, 09, FB, 04,
  FF, EB, E9, ED, F7, FD, 00, 0A, 09, 06, 09, 14, 14, 1A, 14, 13,
  2B, 26, 18, 0D, FC, 00, 0A, 10, 07, 04, ED, F1, E1, E8, E9, F5,
  F5, FF, FF, 0A, 07, 03, 09, 13, 0A, 17, 0E, 07, 18, 16, 15, 08,
  FC, 0A, 09, 02, FC, F7, 03, F1, E3, D8, EC, F3, F7, 02, 06, 03,
  08, 04, 01, 09, 0C, 0D, 09, FA, FD, 0A, 07, 01, 05, 0A, 0B, F9,
  E8, FE, FB, DE, D0, DC, E1, EF, FE, 00, 04, 06, 0A, 06, 05, 03,
  FD, 00, FF, 08, FB, 02, 0B, 0C, 0F, 11, 06, F0, F2, F7, E9, D8,
  D6, E3, E5, F0, 01, 0A, 0B, 04, 0A, 0B, 0D, 03, F3, F7, 02, 00,
  FB, 0C, 07, 05, 01, 0B, FD, EE, E7, E2, CE, D7, E1, E9, F8, FA,
  04, 03, 08, 06, 0B, 03, 03, 0B, F8, FE, F2, F4, F8, F9, FC, EA,
  DC, C9, D1, DC, D6, E0, EB, EE, F2, FB, 02, 0A, 09, 05, 09, 03,
  08, 07, 06, 0C, FD, F9, E7, EC, E9, DE, CE, C3, CD, E3, ED, 04,
  F4, FC, F9, FE, FC, FD, 00, 07, 07, 06, 09, 09, 08, 09, 03, 09,
  01, F9, F5, F0, E3, DE, E0, E0, F1, 0B, 0E, 09, 00, 01, 00, 07,
  00, 02, 0A, 07, 09, 05, 09, 07, 03, 05, 07, 05, 04, FF, FD, 01,
  FD, FD, F9, 00, FE, 01, FC, 09, 00, 05, 04, 07, 07, 08, 06, 07,
  06, 09, 02, 06, 02, 04, 04, 08, 03, 08, 08, 07, 06, 02, 00, 05,
  04, 01, 0A, 09, 06, 03, 06, 09, 05, 0A, 08, 05, 06, 06, 05, 0B,
  08, 08, 08, 09, 01, 06, 04, 00, 04, 03, 03, 01, 01, 07, 03, 04,
  01, 07, 07, 02, 04, 01, 07, 02, 08, 07, 00, 01, 03, 05, 01, 01,
  06, 06, 04, 06, 01, 02, 04, 05, 03, 07, 06, 04, 01, 02, 09, 04,
  04, 07, 00, 07, 07, 05, 03, 05, 09, 02, 08, 04, 04, 07, 03, 01,
  07, FF, FD, 01, FD, 01, 00, 00, 04, 04, FD, 01, 05, 07, 06, 04,
  04, 01, 01, 04, 03, 05, 05, 08, 04, 07, 00, 04, 02, FF, F7, F8,
  FD, FD, FA, FB, FD, FE, 03, FD, FA, FD, 07, 01, 01, 06, 05, 07,
  05, 03, 04, 07, 02, 01, 01, 02, 00, EF, ED, EF, EE, E9, E9, F7,
  F6, F5, F2, F6, FC, 03, 00, 04, 01, 04, 09, 09, 01, 07, 07, 02,
  04, 02, 02, 06, F8, EC, DF, E1, DB, D2, C4, C1, D7, E9, F4, 02,
  FA, ED, F1, F6, FF, 03, 03, 03, 06, 00, 03, 0F, 07, FD, 05, 05,
  04, FC, F1, F5, F9, 09, 06, 0D, 08, 16, 15, F0, F4, FF, E1, D8,
  F4, 03, 04, 01, 07, 07, 03, 14, FE, F0, FF, 00, FF, FE, 06, 07,
  15, 17, 1C, 20, 12, 14, 0F, 04, F9, FA, EA, E0, ED, FA, 01, 07,
  03, 04, 08, 0A, FE, E7, F8, 01, 0B, 05, 0E, 10, 10, 0F, 18, 15,
  12, 06, 09, 00, 02, 06, F4, E3, E0, F3, 01, 09, 02, 06, 0A, 06,
  06, F1, 05, FE, 07, 0F, 16, 17, 14, 13, 14, 0C, FF, 00, 03, 0B,
  FB, F6, FB, DA, E9, FC, 09, 0E, 02, 09, 06, 00, FC, 00, 0E, 02,
  04, 10, F7, 0A, 0E, 12, FE, F7, FA, F4, 02, FD, 06, F8, F7, F9,
  F0, 00, 07, 09, 03, 09, 0B, 0D, 0F, 01, 09, FD, 13, 00, FF, 0B,
  06, 0D, 11, 07, FE, 0A, 0A, 0D, 14, 12, 0E, FF, F5, F6, 00, 07,
  01, 07, 10, 1D, 20, 0B, 00, FB, FD, F5, F6, F9, D7, E4, 0C, 13,
  0A, 11, 0B, 0A, 00, 04, F7, 05, F0, FE, 00, 09, 00, 05, 0B, 21,
  20, 01, 04, 09, 08, F3, EF, ED, EC, 04, 0B, 04, 10, 06, 02, FE,
  0A, 0C, F6, EF, E7, FB, 03, 03, 03, 02, 07, 0F, 01, ED, FB, FB,
  F4, FA, F6, F6, FC, 01, F8, 07, 02, 05, 02, 0B, 17, 06, F3, EC,
  E7, FA, 04, 06, 04, 08, 03, F5, FA, F9, 06, F4, F5, ED, FE, FD,
  F7, F9, F7, 07, FD, 02, 00, 12, 17, 00, EF, ED, ED, F9, FD, 07,
  08, 02, 03, EC, FE, F9, FE, F6, 04, F1, 01, 02, F3, EE, EB, F6,
  F9, FE, FC, FB, FC, F1, EB, E3, E2, F8, 03, 00, 01, 08, FD, EE,
  EC, EC, F7, 00, FF, FD, 03, 02, FE, FB, F5, 04, F8, 04, 08, 07,
  F7, EE, F2, DD, DD, F6, FF, 03, 07, 04, 00, F4, EE, EE, FA, 01,
  03, FD, 0E, 07, EE, F6, FA, 02, FB, 02, 05, 03, FB, EC, F2, DF,
  DA, 02, 07, 08, 08, 08, 02, F5, F8, EA, ED, F7, F8, F9, 00, F8,
  FB, F7, 07, 02, F9, FE, FF, 04, F2, EA, EF, F6, F1, 04, FD, 04,
  09, 02, 08, FA, EE, EA, DF, E3, E4, E4, EA, ED, F9, FB, FE, 00,
  FA, FD, F0, E6, DB, EF, F7, F7, 08, 09, FE, 06, 08, 05, 03, FE,
  F3, F2, EB, DF, D0, D9, E8, EA, FE, F6, FE, FC, FF, F8, ED, EA,
  FC, FF, FF, 07, 16, 0E, FF, 06, 05, 07, 00, 00, FD, 01, F0, F0,
  ED, F9, 05, FC, 03, F0, FC, FD, FC, FC, F2, EB, 01, FD, 0B, 0E,
  06, 09, 05, 09, 01, 01, 00, 03, 03, 01, FD, FD, F7, F2, 08, 03,
  FF, F3, F6, F6, ED, FC, EC, ED, 05, 03, 19, 14, 12, 07, 09, 05,
  06, 09, 01, 05, 0F, 12, F4, 05, 10, FF, 0A, 06, F5, F7, EB, F1,
  F3, F6, F1, F0, 0C, FC, 02, 04, FE, 02, 00, 08, 08, 06, 07, 06,
  05, 07, 03, 19, 1E, 15, 07, 09, 09, F7, 02, FF, 05, EE, 02, 15,
  1F, 13, 07, 04, FD, 06, 02, 03, 06, 01, 03, 00, 04, 01, 03, 19,
  23, 2B, 30, 26, 27, 32, 41, 1C, 1F, 21, 21, 1C, 1C, 1C, 10, 07,
  04, 03, 05, 02, 08, 08, 04, 07, 07, 01, 0A, 10, 11, 0A, 0D, 05,
  09, 0C, 0E, 0B, 0B, 0F, 0F, 0D, 05, 0B, 08, 04, 04, 02, 04, 01,
  01, 09, 07, 01, 07, 03, 05, 08, 06, 04, 01, 04, 07, 04, 04, 01,
  09, 03, 0A, 07, 08, 01, 07, 06, 02, 08, 08, 08, 07, 05, 05, 0A,
  05, 06, 06, 07, 0A, 03, 06, 04, 0E, 06, 09, 07, 0D, 07, 0B, 0D,
  08, 0B, 0C, 03, 05, 05, 06, 07, 06, 03, 07, 02, 06, 08, 03, 07,
  0D, 0D, 0C, 0B, 0A, 01, F7, F5, 07, 0B, 06, 0C, 10, 13, 0B, 07,
  03, 03, 06, 07, 0A, 03, 09, 06, 03, 09, 06, 07, 0F, 0F, 14, 23,
  10, 10, 07, 09, 18, 1A, 0F, 15, 08, 0A, 08, 0C, 03, 01, 03, 02,
  09, 01, 07, 03, 02, 09, 0B, 17, 01, 0C, 0E, 08, 07, 10, 03, 09,
  0E, 08, FA, FB, FE, 04, 0E, 05, EB, F2, 04, 09, 09, 09, 08, 02,
  FF, F5, F9, FA, FD, F3, 04, F6, 01, 03, 01, 03, FE, 03, 0C, 0C,
  04, F9, F5, FB, F3, EB, 03, 03, 05, 0A, 06, 09, FC, F5, F1, F4,
  F0, EE, FA, 02, F0, F8, 00, 01, 0A, 00, 04, 03, 0E, 0B, 04, EE,
  E3, E6, FD, FE, 06, 04, 07, 02, F5, EE, E7, E7, EC, F9, F9, F9,
  E9, F9, 02, 07, 03, FC, 04, 04, FF, FD, F5, F4, E8, EA, FB, 01,
  0B, 02, 02, 00, EF, E1, E3, DF, F2, 03, FE, F6, F9, FC, 05, 0B,
  0A, 0F, 00, F9, FD, 00, FB, F1, EE, E4, F1, 07, 06, 03, 08, 01,
  F1, EE, ED, F3, FE, 00, 0A, F8, FB, FB, 02, 08, 16, 05, FB, 08,
  0B, FA, ED, EF, EC, DC, FC, 01, 04, 04, 0B, 01, F9, FE, F5, F5,
  F5, 0C, FF, 06, F8, EF, 03, 05, 09, 06, FE, 02, 0B, FA, FF, F6,
  E3, E0, FA, 07, 05, 08, 05, 06, F2, F4, FC, 06, FF, 04, 00, FB,
  F3, F8, F9, EF, EF, F6, F2, 07, 0B, 10, 01, F7, EB, E1, F9, 02,
  08, 01, 06, 00, 02, FC, 0A, FE, FB, 06, 01, FC, F0, F9, FB, E5,
  E3, F4, FA, FD, 08, 1C, 15, 13, FD, ED, F9, 09, 07, 07, 05, 01,
  11, FA, 02, FB, 05, 05, 05, FA, F4, F4, F1, ED, E5, F2, 03, 01,
  F8, 10, 18, 29, 08, F3, FF, 09, 04, 07, 02, 06, 09, 04, F6, FF,
  0E, 17, 04, 03, 0C, 07, F3, F5, EB, 03, 08, FF, 0F, 1E, 1E, 0F,
  05, F3, 00, 05, 05, 03, 06, FA, 10, 0D, F7, 06, 13, 0F, 08, FA,
  01, F8, FE, F5, F1, 03, 0B, 08, 16, 11, 06, 09, 0B, FD, 01, 03,
  04, 07, 00, F3, 02, 19, 02, FF, 0B, 12, 11, 0A, FA, FB, 00, F7,
  F4, 00, FF, FD, 0F, 02, 0A, 06, 07, 02, 09, 07, 01, 06, 05, F3,
  F2, 04, F6, 03, FF, 0F, 1A, 09, 01, F1, F2, FC, 00, FD, F5, 02,
  FD, FD, 17, 02, 09, 05, 05, 07, 04, 08, 01, F1, F5, EC, F4, FC,
  05, 14, 22, 0A, FD, F2, FB, 02, 06, 02, 03, FF, FF, F3, 08, 00,
  01, 01, FE, 03, 03, 06, 03, F4, F9, F7, 00, FC, 02, 0D, 25, 16,
  09, FC, 01, 03, 06, 01, FA, FC, FD, FC, 08, 08, 07, 03, 03, 08,
  09, 09, 03, FF, 01, 05, FB, 07, 00, 05, 10, 14, 19, 0A, 0A, 02,
  FE, 00, F7, F0, FD, 0D, FD, FD, 01, 06, 06, 08, 04, 03, 03, 10,
  05, FC, 04, 0D, FD, F7, 00, 0D, 1F, 18, 0D, 13, 13, 03, 02, F0,
  F6, F5, 00, F2, F4, 01, 05, 08, 02, 03, 07, 0F, F9, 04, 0E, 09,
  F9, FF, FF, 02, 13, 14, 0A, 12, 13, 04, F9, E6, EE, E7, F8, F7,
  FB, 03, 02, 0A, 02, 03, 05, 02, F8, FF, 0B, 0B, 07, F9, F3, F9,
  F6, 06, 06, 0B, 00, 01, E2, E7, EF, F7, 09, F7, 03, 00, 02, 04,
  01, 05, 05, 07, FB, 04, 15, 12, 13, FE, EF, F5, 05, EE, DD, E9,
  F6, F8, F3, 00, 13, 0B, 06, 04, 07, 04, 09, 05, 09, 06, 05, 06,
  0A, 15, 0D, FC, ED, DB, D7, EE, EB, E9, E6, EC, F8, F5, 01, 12,
  1B, 09, 05, 0C, 07, 06, 02, 07, 02, 06, 02, 01, 0B, 1F, 1A, 07,
  FB, ED, F6, FB, 00, FB, F7, 00, 09, F6, FD, 00, 0E, 09, 02, 03,
  09, 09, 03, 07, 0A, 05, 07, 05, 01, 08, 06, 08, 01, 00, 00, 05,
  01, 04, 05, 03, FF, 06, 07, 03, 05, 00, 06, 0A, 05, 05, 09, 01,
  01, 04, 06, 03, FF, 04, 07, FF, 02, 05, FE, FE, 03, 03, 00, 07,
  04, 04, 02, 05, 06, 01, FF, FF, 02, 04, 00, 02, 04, 05, 06, 01,
  00, 07, FF, 00, 05, 06, 04, 05, 00, FE, FE, FE, 06, 02, 05, FF,
  06, 05, FF, 00, FE, 00, 00, 00, 04, 07, 04, 02, 00, 04, FF, 01,
  05, FC, FF, FC, 03, 03, FD, 02, FA, FD, 02, 02, 00, FF, 04, 04,
  02, 00, 04, 01, 00, 02, 05, 01, 01, 07, FE, FE, FA, FE, F6, F7,
  F6, F4, F1, F0, F8, FD, FF, FB, FE, FA, 03, 01, 05, 05, 03, 06,
  07, 07, 02, 07, 03, FE, FD, F6, F4, F1, E8, E5, ED, FC, F5, F1,
  E7, F0, F6, F1, EE, ED, F6, FD, FB, FE, FF, 01, 02, 07, FE, 02,
  07, 07, 00, F2, 0E, 17, FE, FA, F9, 04, 0B, 0C, 12, FE, FD, FC,
  ED, EA, EB, F1, FA, FE, 00, 03, 02, FE, 03, 04, 10, 1F, 0F, 04,
  23, 0F, 00, 02, 0D, 01, FE, 01, 08, 08, FF, 03, 04, 0C, 03, F4,
  F8, FF, 02, 02, 05, 08, 0B, 0E, 0F, 0C, 0E, 09, 08, 11, 0D, FE,
  FD, FB, FA, F3, FF, 08, 01, 0A, 0F, FF, 07, 10, F9, 00, FF, 04,
  04, 08, 08, 07, 0D, 0A, 07, 16, 18, 0F, 12, 08, FD, FA, 09, 08,
  04, 05, 0D, 0C, 0D, 03, 08, 12, F5, EE, FB, 01, 05, 05, 08, 01,
  11, 17, 0F, 0C, 01, 09, 04, F6, 05, 0A, 0A, 0A, FF, 0D, 02, 0E,
  13, 10, 05, FD, F3, EE, FB, FE, 03, 08, 0A, 02, 07, 16, 08, FD,
  FD, 0B, 0B, 04, FD, 0A, F1, 07, 0B, 12, 03, 0D, 0E, 12, 0D, FD,
  F7, F7, FA, FE, 05, 07, 0B, 06, FF, 04, 01, 08, 01, 10, 12, 12,
  F3, DB, DB, F8, 08, 07, FF, 03, 0F, F9, F9, F9, 03, 00, FD, 02,
  06, 07, 05, 0A, FC, 00, FF, 0B, 09, 04, 0C, 01, DB, AF, CB, F4,
  09, 06, 05, F1, FF, EF, FB, F1, FD, 00, 03, 07, 06, 06, 06, FD,
  ED, EF, 09, 0B, 09, 08, 0D, FC, B6, B6, F0, F8, FF, FF, F5, E9,
  EA, EB, FB, F3, 01, 0A, 02, 02, 03, 02, 06, FE, F2, 0A, 14, 13,
  13, 08, 01, E1, B2, D0, FA, FF, F9, 02, FB, F8, E6, EC, F9, 01,
  14, 12, 05, 03, 06, 02, 04, F9, FA, 04, 07, 07, F6, F1, DA, BB,
  CF, F1, 03, FA, EA, FD, FB, F3, FB, 06, 05, 03, 12, 09, 01, FF,
  00, 05, 06, F9, 00, F5, FC, FD, EF, D1, B2, CF, FC, FE, 01, 04,
  FC, 05, F8, FC, F9, 04, 02, 0C, 0A, F8, FD, 04, 05, 01, FE, F5,
  01, 03, EF, DD, DC, D7, DE, F8, FA, 02, 0B, 00, 00, FF, 04, FD,
  07, 04, 06, 0E, 0A, 02, FE, 04, FF, 07, 08, F5, F8, FC, EB, DE,
  E6, F7, F9, FE, F4, 06, FD, FF, 05, 02, 0D, 05, 0C, 06, 06, 06,
  F9, FE, 06, 07, 06, 05, 04, FA, 03, 07, F8, EF, FC, 05, 06, 03,
  F9, FB, 00, FB, FB, FF, F1, FE, 08, 0A, FF, F5, F2, 03, FE, 07,
  06, 02, FF, FC, FC, FD, F9, 05, FC, 01, 02, 0A, 05, FC, FE, F5,
  E9, F5, DE, F7, 07, 05, F6, EF, F1, 01, 02, FF, FF, 03, 00, FD,
  F9, F4, F5, ED, F8, FD, 10, FF, 07, 01, 02, F4, F9, F0, ED, F8,
  FB, F5, EC, EC, FB, 01, 07, 00, 05, 00, 05, 00, F4, 0F, 14, 0D,
  06, 06, 0B, 00, 03, 09, 06, 07, FE, 02, F9, F4, ED, ED, FB, F2,
  F8, 05, 07, 01, 00, 02, FE, F7, 0B, 17, 2A, 1B, F0, 06, FF, 00,
  FC, 03, 07, 05, F9, 02, FA, F5, E8, F3, FC, F7, F8, 05, 01, 05,
  FF, 03, 02, FF, 22, 20, 1B, 0A, 07, 06, FC, 04, FC, F7, FF, 09,
  F8, 07, F4, F5, EF, 02, F9, FA, FF, 00, FE, 05, 05, 04, 04, 0A,
  10, 01, FD, 01, FF, FE, EC, 08, FE, EE, 06, 0C, 06, 0B, 08, 02,
  FF, 0A, 03, 03, 03, 05, 06, 04, 05, 06, 06, 06, FD, EA, EB, 08,
  11, 12, 03, 00, F6, 0D, 1B, 04, 0B, 19, 1C, 17, 0D, 05, 0A, 03,
  07, 00, 06, 01, 07, 05, 06, 04, 00, 03, 01, 04, 04, 06, 0D, 04,
  0B, 0E, 0E, 07, 10, 0F, 0C, 09, 03, 05, 01, 02, 06, 00, 04, 06,
  06, 06, 07, 06, 01, 07, 05, 05, 03, 02, 08, 01, 02, 04, 02, 01,
  02, 03, 06, 06, 04, 03, 02, 03, 05, 01, 04, 05, FF, 01, 07, 01,
  06, 05, FF, F9, FB, 03, 05, 06, 05, 05, 03, 02, 01, FD, 05, 00,
  02, 07, 07, 02, 03, 03, 06, FF, 02, 07, 01, FF, 05, 00, FD, FF,
  02, 0C, 0A, FE, F9, F8, F3, 02, FD, FC, FE, 01, 04, 03, 04, 01,
  08, 01, 06, 00, 01, 05, 00, 04, FF, 07, FD, 03, 08, FF, FB, 03,
  0A, 01, F9, E6, E6, E8, F5, F8, FC, 03, 01, 01, 08, 05, 02, 04,
  FF, 05, 06, 04, 06, 15, 13, 09, 10, FE, 0C, 10, 11, 1B, FE, EF,
  DC, C3, D9, ED, F3, F9, FE, 07, 02, 00, 05, 00, 00, FF, 04, 03,
  0E, 23, 0D, 09, 0D, 09, 05, 0C, 0B, 08, FC, 05, F4, DD, CE, D7,
  D9, E8, F0, FD, 03, FF, 06, 00, 02, 03, 02, 0D, 13, 03, 12, 0B,
  11, 0F, 03, 08, 03, FB, F8, FB, 10, 00, E3, C2, CD, E7, E6, F4,
  F7, 04, FF, 04, 07, 05, 07, 18, 10, FB, 11, FE, 01, 02, F7, F3,
  F6, 09, 01, 07, 0A, 11, E5, D2, D5, DD, E7, EF, F6, FB, 01, 01,
  06, 09, 08, 14, 18, 08, FC, 03, 01, F2, 00, F8, 05, 0D, 14, 16,
  0A, F9, E1, D2, DD, E3, EC, EA, F4, F9, FF, 05, 00, 02, 0C, 15,
  12, 12, FA, 00, F3, F6, FD, 02, 09, 0D, 21, 1D, FF, 03, E7, EF,
  ED, E5, E6, DF, EC, F5, 01, 01, 06, 03, 0C, 09, 05, 15, 04, 03,
  F8, FF, 03, 03, 03, 0C, 21, 0B, F8, ED, E8, F2, FC, 07, FA, E7,
  E7, F5, 00, 03, 00, 07, 0F, 15, 18, 16, FF, 0C, 05, 03, 06, 08,
  05, 10, 12, 08, EB, F4, F5, F5, FD, FB, FF, E7, E0, F6, FE, 02,
  04, 0A, 06, 1B, 1C, 0F, F6, F6, 0D, 0C, F6, F7, FB, 07, 15, 07,
  FB, FD, 0A, FB, FA, F5, 00, FE, FE, 02, 07, 05, 03, 01, 0C, 1A,
  25, 13, 01, EC, 02, 0A, FF, FA, 00, 00, 14, 01, 02, 06, 0B, EF,
  FD, FD, 07, 16, 11, 08, 06, 0A, 02, 04, 04, 0C, 15, 05, F0, E7,
  F6, 04, 00, FA, 06, 05, 0C, F7, F0, 02, 03, FF, F8, FE, 02, 19,
  04, 03, 11, 03, FF, 06, FF, 06, 05, EC, E6, DF, F0, FE, 09, F2,
  FA, 05, 08, 04, 01, 13, 02, 06, 19, 14, 06, 03, 06, FC, 09, 05,
  01, 06, 05, FF, FB, E9, ED, F5, 0D, 0D, 05, F4, F5, FA, 03, FD,
  0F, 05, 06, 0A, 0E, 17, 0A, FE, 13, 01, 05, 07, 06, 05, 00, FF,
  F8, F0, F6, F4, 09, 03, F5, E2, E7, F1, 10, 00, 01, FE, FF, 04,
  FF, 0D, 07, 00, 09, 0B, 07, 03, 08, 03, 05, 00, 01, FC, F9, ED,
  03, F9, E1, DE, DA, EB, 04, FD, F6, FB, F8, F4, F2, F7, FE, F6,
  F3, 05, 0B, 0A, 05, 06, 03, 00, 05, 00, FD, 07, 03, E4, E3, DD,
  E4, FB, 0C, 0A, 02, 02, FE, FD, EE, F0, EF, E5, EE, 03, 06, 05,
  05, FF, 07, 05, F8, 02, FD, 10, FE, F7, FB, F4, F9, 06, 0F, 0B,
  12, 14, FA, EF, EB, F2, F6, F8, 08, 04, 03, 06, 02, 08, 06, 02,
  FB, 00, F4, 05, 05, F1, F0, FB, 07, FF, FD, 06, 09, FD, F9, FA,
  EC, EA, EE, F1, FD, 08, 01, FF, 02, 03, 02, 06, FF, F9, FC, EF,
  FA, EE, F2, F9, 04, 03, F8, FA, F5, F5, 00, FD, ED, E2, EF, F3,
  00, 0C, 07, 07, 01, 03, 01, 00, 06, 02, FE, F8, F1, E8, F2, 01,
  16, 0F, 01, FD, F8, 01, F9, FD, E6, EF, EB, F2, FF, 06, FF, FF,
  01, 04, 02, 07, 06, 0C, 01, 0B, FB, E8, F1, 0B, 0C, 05, 01, F9,
  F2, 04, 0C, 06, FA, F8, F7, F4, FF, 02, 03, 08, 04, 07, 01, 02,
  06, 08, 01, 05, 0B, F7, F4, 02, 08, 0A, 13, FF, FD, 09, 11, 0C,
  07, F5, F9, F5, FC, 04, 02, 05, 07, 04, 07, 04, 08, 02, 03, 0D,
  0C, 15, 15, 0E, 0F, 17, 14, 12, 16, 1E, 1B, 14, 0F, 0A, 04, 05,
  05, 08, 03, 07, 03, FF, 04, 04, 05, 03, 06, 04, 01, 05, 09, 04,
  07, 04, 0E, 0C, 04, 0C, 0E, 09, 06, 05, 02, FF, 03, 02, 05, 00,
  02, 00, 02, 05, 01, 05, 06, FF, 02, FF, 06, 01, 04, FF, FE, FE,
  02, 05, 04, 04, FE, 03, FE, 01, FF, 04, FE, 05, 04, 01, FE, 06,
  FF, 06, 06, 00, 02, 06, FF, 07, 06, 06, FE, FB, 05, 01, 01, FE,
  02, 05, 00, FF, 02, 03, FD, 02, FE, 04, 02, 00, 01, 04, 05, 04,
  00, 08, 06, 04, 04, FD, 0C, F1, EC, FC, F5, F5, 00, FC, FE, 05,
  06, FF, 01, FF, FF, 02, FE, FE, 01, FD, FF, 08, 0C, 02, 01, 07,
  07, 0A, 05, FA, FD, F0, EB, E6, E2, EB, F7, F9, FD, 01, 00, 00,
  05, 01, 02, 04, FF, F9, FB, 03, 06, 00, FC, 04, 07, 0C, 08, 05,
  04, F7, F8, F4, FD, E8, F6, 07, 0B, 03, 01, FE, 02, 01, FF, 01,
  01, F7, FA, FB, FC, FD, 0A, 07, 06, 0A, 05, FE, 0C, 02, 02, FF,
  0B, 09, 00, 0F, 07, 00, 06, 02, 01, 03, 04, 05, 04, FB, FE, 04,
  F9, FB, FF, 01, 0C, 11, 10, 0F, 05, 00, FE, F9, F8, 09, FE, F8,
  00, FD, 00, FD, 00, 01, 03, 01, 01, 0C, 08, 09, 03, 05, 01, 03,
  06, 0F, 09, 0B, 0E, F8, FD, 0F, 04, 18, 07, EF, 01, FD, FE, 01,
  FF, 03, 03, F9, 14, 08, FF, F9, 0B, 07, 0F, 06, 03, ED, 0E, 16,
  0E, 0D, 03, 13, FB, 02, 04, 12, FD, 01, FE, FD, 02, FE, 02, 00,
  02, 15, 05, F8, FC, 0D, 0D, 04, 00, F0, F7, FC, 03, 04, 0D, 02,
  FC, FE, 02, 0E, E9, 02, 03, 03, 00, 06, 04, 00, F9, 0D, 12, 07,
  04, 0C, 02, 01, F8, F3, EF, F5, 01, 0B, 01, 01, FD, 01, F7, 04,
  F5, F9, FE, 03, 00, 03, FF, F5, F2, 03, 0C, FA, F5, F5, EC, FF,
  EE, D4, E8, E5, F3, F3, F5, F6, FB, 03, F1, F7, F7, F9, 04, 04,
  04, 05, 03, F8, ED, EC, F0, EA, F6, EC, D9, DC, D6, CF, D9, DE,
  E6, F1, EC, ED, FB, F7, EF, FB, F2, F9, FE, 03, 06, 03, 04, F9,
  F4, EB, E1, DA, DE, E2, E7, D9, DC, F1, E1, D9, E0, E8, E9, E5,
  F7, F4, F8, F8, F7, 0A, 05, 03, 04, 03, FE, F5, F0, DB, D7, E3,
  DD, E0, EA, E5, F3, F5, F1, DE, DF, E8, E5, E5, ED, F2, F7, EE,
  F6, 0A, 0C, 00, FD, 02, 01, F7, EB, E7, E3, EB, F8, 00, F8, EF,
  F8, FF, F3, F1, ED, E1, DE, E2, F5, 03, E6, EE, 00, 09, 0D, 05,
  00, FF, FB, F2, E3, E6, F7, 01, 0F, 11, 08, 05, 06, 0A, FA, FA,
  05, F1, EB, F1, 00, 00, EA, F5, 03, 19, 12, 0A, FE, 04, FD, F3,
  EA, F5, FE, 0B, 0F, 0B, 0F, 02, 04, F6, F6, F3, FB, EC, F5, EC,
  F9, FD, 04, 03, 0E, 23, 0A, 03, 01, 05, FD, F7, FC, F8, 08, 1C,
  0D, 11, 05, 00, 08, FC, F5, E3, E8, F0, 03, 07, 09, 09, 15, 15,
  0C, 11, 07, 04, 06, 04, 02, FB, F7, FE, 0A, 0F, 11, 11, 10, 18,
  1C, 17, FF, F2, F5, 03, 09, 14, 10, 09, 05, 07, 00, 0A, 05, 01,
  FD, 06, 02, 18, 12, 12, 0F, 0C, 09, 12, 15, 14, 18, 12, 03, 08,
  12, 12, 09, 05, 05, 0B, 03, 0C, 03, 0B, 03, 06, 06, 04, 0E, 1E,
  03, 0F, 01, FD, 02, 13, 0C, 1D, 0B, 01, 06, 10, 18, 12, 09, 13,
  0B, 0D, 12, 1E, 15, 07, 03, 01, 02, 05, 05, 0D, 04, 04, 02, FE,
  06, 07, 08, 0D, 08, FF, 07, 04, 05, 0D, 18, 10, 0A, 12, 14, 0B,
  10, 05, 03, FE, 03, 01, FE, FE, FE, F7, FB, FD, F4, 00, FE, 11,
  14, 03, 01, 01, 03, 01, 06, 13, 14, 15, 17, 05, 07, 08, 01, 03,
  FD, 03, 02, FA, F8, F2, F1, F8, 05, F7, E7, F7, 02, FA, 03, FE,
  FF, 10, 03, FF, FB, FC, 05, 01, 0E, 0D, 08, 00, FE, 02, FE, FD,
