memory_initialization_radix=16;
memory_initialization_vector=
  FFFFFFD1, 0000000C, 00000005, FFFFFFEA, 0000002A, 00000011, 00000001, 00000065,
  0000003C, 0000000C, 00000017, FFFFFFE7, FFFFFFF2, 00000043, 00000028, 00000020,
  00000025, FFFFFFDA, 00000037, 0000004A, 00000051, 0000003D, FFFFFFD6, 00000020,
  0000002C, 00000008, FFFFFFCB, FFFFFFD1, FFFFFFFB, 00000017, 00000003, 00000059;
