memory_initialization_radix=16;
memory_initialization_vector=
  00000029, FFFFFFFB, 00000021, 0000004D, FFFFFFE2, 0000003D, FFFFFFFB, 0000001C,
  00000013, 00000008, 00000031, FFFFFFFF, FFFFFFFF, FFFFFFF9, 00000045, FFFFFFFE,
  00000033, 0000000B, 00000055, FFFFFFEA, 00000000, 0000004A, 00000002, 00000013,
  0000005A, FFFFFFEE, 0000000C, FFFFFFF5, FFFFFFFE, FFFFFFFF, 0000001C, FFFFFFF8;
