memory_initialization_radix=16;
memory_initialization_vector=
  04, FF, FD, 02, FF, 04, 00, 04, 01, 04, 04, 03, FB, 00, FC, 01,
  04, 00, FD, 02, FF, 01, 01, 03, FE, 01, FF, FE, 03, 01, FE, 00,
  FC, 02, FC, FD, 00, 00, 02, 02, FE, FE, 00, 03, FD, 01, 02, 00,
  FD, FE, 00, 03, 04, FD, 04, 01, 04, 02, FF, FD, FF, FF, FD, FB,
  FB, F8, F3, F8, ED, ED, F0, F8, FB, FD, FF, FF, 02, 02, FD, 00,
  FE, 02, 01, FF, 02, 01, FF, 03, FD, 01, F8, F6, EC, EC, E8, DF,
  DC, DF, E6, F9, F8, FF, 02, FF, 01, 0A, 0E, 01, FF, FD, 03, FE,
  03, FE, FE, 00, 03, 00, 00, 00, F1, F2, F6, FD, F1, EF, 0B, 03,
  FC, FD, FD, FD, 08, 0A, 14, 10, 0F, 08, 06, 01, 02, 02, FD, FE,
  FF, 04, 08, FE, FE, F7, 01, 0A, 14, 05, FB, F8, 01, 02, F0, F2,
  03, 05, 02, F9, 04, 0F, 02, FB, 00, 03, 01, F9, 08, 0F, 0A, FD,
  FF, F6, 03, 0A, 12, 0C, 0A, F6, 03, 01, F9, 00, FC, 00, 06, 01,
  02, 0B, 04, 02, 01, FE, 02, 00, 00, 0F, 05, FC, 00, F8, 02, 04,
  01, 06, 00, FF, FE, 05, 02, 08, 03, FF, FD, 02, 00, 02, 01, 02,
  FE, FB, FE, FC, FE, FB, 09, 0E, 08, FF, F6, F6, FF, 09, 06, 02,
  03, F9, F5, FA, F8, FE, F5, F1, 03, 18, 05, FF, FD, FA, FB, FC,
  FD, F7, 16, 0C, 01, 00, FA, EF, F1, FD, F7, 02, 03, 05, F1, FA,
  FE, 0D, FB, 0C, 1D, 16, 01, FE, FE, 00, FC, F9, F8, FA, 12, 00,
  FF, FF, FF, EF, F5, E7, F1, FF, FA, FF, 00, 00, 01, FF, 0B, 14,
  1A, 19, 08, 04, 00, 03, F6, ED, F5, 0B, 15, 07, 11, 16, 03, FA,
  F0, ED, F9, 01, 06, 08, 01, FF, 01, FE, 09, 19, 29, 23, 06, 03,
  FE, 04, F6, EC, F8, 0A, 11, 08, 09, 0D, 0F, 08, 07, 07, F7, F6,
  F5, FF, FD, 04, 0F, 01, F4, 0F, 0A, 09, FB, FC, 01, FF, FE, EB,
  F8, 0F, 01, 0B, 09, 15, 16, 21, 1C, 06, F8, FA, F6, F2, F9, 00,
  0A, 05, 07, FE, FE, F7, F6, 00, 04, 03, 00, F2, 09, 08, 07, 0B,
  14, 0B, 0D, 18, 14, 0B, 05, 07, 04, FD, F6, F3, F3, 00, FE, F0,
  EF, EE, FD, FE, 04, FF, 06, FD, FD, FD, FA, 0B, 18, 17, 13, 19,
  17, 0A, 09, FC, FC, FD, FD, FB, FC, FD, F6, FC, F8, EB, FF, FB,
  FD, 05, 02, FC, EC, DA, E4, F9, 00, 10, 1C, 20, 25, 1B, 0B, FC,
  F8, FD, 0B, F9, FF, F6, 00, FD, FA, E5, EF, FF, FC, FD, 03, FD,
  E9, CA, D3, E4, E1, F0, FF, FF, 14, 13, 05, 01, FE, FE, 03, F6,
  00, 04, FA, 05, 04, F1, F9, FF, FD, 00, 05, FE, F6, EA, DD, CF,
  B6, BD, D3, E7, F2, FC, FA, 01, FC, F6, F2, FB, F9, F6, F5, 00,
  0B, FC, 04, FE, 01, FE, 06, 05, 07, FF, F0, E4, D8, DD, E6, D3,
  D4, E5, FA, F7, FB, FE, F8, 01, FE, FE, 06, 08, 0A, FC, 04, 01,
  02, 03, 05, 0D, 13, 0C, 05, 0D, 05, 0A, FD, 07, F4, 04, F9, 01,
  FD, 0A, FF, FC, F7, 01, 13, 16, 06, 00, 02, 03, 01, 01, 06, 0A,
  14, 12, 0B, 17, 09, 12, 0D, 0E, 02, FA, F8, F8, F3, FF, FC, F8,
  FD, 04, 0A, 17, 05, 04, 03, 04, 02, FE, FF, 08, 16, 02, 07, 0B,
  03, 0A, 06, 04, 00, 02, 01, FD, FA, 02, 09, 06, 01, FC, 11, 17,
  FD, FC, 02, 05, 00, 03, 02, 08, 17, 10, FC, F6, 01, 06, 0E, 0B,
  02, 07, 01, FA, FD, 02, 03, F9, 03, FC, 00, 10, FB, FF, 04, FD,
  FF, 00, FC, 08, 0E, 08, 0B, FE, FA, 09, 1C, 15, 03, 09, 05, FC,
  FF, F6, F5, FD, 0C, 0D, 08, 0A, FA, FB, 04, 02, 03, FE, FE, 01,
  00, 06, 05, 0B, 01, FD, F8, 00, F9, FD, FE, FC, 01, 0A, 0E, 10,
  14, 14, 0C, 07, 02, 02, 00, 02, 03, 01, 04, 01, 03, 02, 01, FA,
  FB, F8, FC, 0A, 12, 0B, 10, 04, 05, 0E, 04, FB, 0B, 07, FF, 02,
  00, FD, 02, 00, 04, 00, FE, 00, 02, 05, 04, 00, 01, 03, 03, FF,
  00, 00, 03, 05, 03, FB, F8, 01, FC, FD, 00, 00, 02, FF, 00, 01,
  0D, 08, 05, 0A, 05, 09, 0D, 07, 0B, 07, 0D, 05, 08, 09, 09, 0B,
  0C, 07, 0A, 0C, 07, 0A, 06, 0B, 05, 05, 07, 0D, 0B, 0B, 07, 0C,
  0C, 07, 05, 08, 07, 09, 08, 06, 0B, 07, 0A, 0C, 0B, 0A, 05, 05,
  07, 08, 0D, 06, 0B, 06, 0C, 09, 0C, 05, 08, 06, 08, 0B, 06, 0C,
  09, 07, 09, 08, 06, 04, 05, 04, FE, 01, 08, 08, 06, 0B, 05, 0D,
  06, 05, 0B, 07, 0B, 06, 0D, 06, 08, 0B, 07, 06, 06, 02, 04, 06,
  FD, EF, E7, F3, F1, F6, FD, 03, F9, F6, FC, 08, 08, 0C, 07, 07,
  06, 09, 0A, 08, 06, 06, 08, 04, FE, FE, F5, EE, EF, E5, E2, F5,
  02, ED, F3, 11, 14, 0E, 02, 03, FA, 01, 01, 08, 0B, 05, 07, 0C,
  03, 05, 08, 04, 01, 10, F6, F5, F7, E8, F3, 05, FC, F0, E6, E9,
  F4, 0A, FE, EE, F5, F4, FD, 04, 07, 06, 0A, 08, 00, 06, 01, FE,
  F0, FC, 02, 0A, 02, EF, EB, F8, F7, 03, FA, FC, FF, 06, 09, FA,
  ED, F3, 03, 06, 0B, 07, 0E, 13, 02, FF, F6, F4, F5, 0D, 17, 0E,
  00, FF, FD, FA, 0D, 11, FF, 0E, 07, 1A, 0C, 12, E5, EA, 04, 06,
  0B, 0B, 0B, 0F, 01, 07, FD, 00, 0A, 18, 0C, 01, F9, F2, 01, 10,
  11, 14, 0E, 08, 07, 08, 07, 07, F2, F3, 05, 04, 0D, 09, 0C, 09,
  F9, FE, 05, 00, 03, 0F, 02, F2, FA, F1, F5, 12, 1C, 10, 0D, 05,
  FF, 01, 06, F6, 03, FE, 09, 09, 0A, 09, 0E, 09, FE, FB, F4, F4,
  FD, 00, 04, F3, E3, D9, F2, 15, 1C, 0C, 06, 02, 05, 02, F9, E6,
  F6, 00, 01, 05, 0A, 07, 0F, 0E, 02, F7, EF, 03, 09, 03, FA, FF,
  E3, ED, 02, 12, 0A, 06, 01, 04, 04, FD, F2, F1, FC, 03, 05, 0A,
  05, 07, 12, 10, 09, F8, F5, 03, 0A, FB, F3, E9, E7, E8, 02, 09,
  05, 05, 02, F5, F5, FA, F4, FB, F9, FF, 05, 0B, 09, 09, 0C, 09,
  01, FA, 03, 0C, 0A, FD, 05, E5, D5, F6, FD, 03, 08, 06, 00, FC,
  F8, FC, E6, FB, FF, 08, 0C, 07, 0C, 0D, 0F, 0A, 06, 01, 0C, 13,
  F8, E0, E6, F2, F5, F8, 15, 03, FC, 01, 09, 11, 00, F6, F9, F9,
  FD, FE, 09, 06, 09, 0B, 05, FF, 07, F9, FA, 08, EF, E0, ED, F9,
  FD, 01, 00, FA, FF, 09, 05, FD, FA, 06, F9, F5, F5, F2, 06, 0B,
  09, 09, FE, F8, F5, EF, F7, F3, E4, F3, F7, F5, 02, 04, FE, FC,
  04, 09, 03, FF, F8, F0, E0, E1, E7, F3, 05, 0C, 0A, 0A, 01, F7,
  F7, F7, F6, F3, F4, FD, FA, 07, 0A, 01, FC, F8, FE, FE, 0A, 05,
  09, FC, F4, EF, 02, 05, 0C, 09, 0A, 0A, 04, FD, F2, F6, E9, FF,
  FF, 03, 05, 12, 05, 05, F3, FD, 01, 0C, FD, FE, FA, E5, E7, E7,
  F3, FF, 0F, 0C, 0B, 0C, 0D, 02, FD, EE, FB, 0A, 00, FF, 03, FE,
  05, F9, EE, F5, EC, EB, DC, EC, EC, DE, E1, EA, F3, 03, 06, 09,
  0D, 06, 08, FC, FA, E9, F7, FE, FB, E9, FE, 05, 07, F6, EE, EC,
  D3, D1, DD, EA, EF, F5, F1, F5, FA, 03, 04, 08, 05, 0B, 05, FA,
  EE, F8, F5, FC, EC, F4, 03, F8, 0B, FD, F1, DA, CD, D5, DC, EB,
  EF, F3, F6, FA, FE, 06, 06, 0C, 09, 0B, 08, 04, FB, 0F, 05, 01,
  F3, FE, FD, 02, 0B, 0A, F9, E0, EA, E2, E1, EB, E7, F0, FB, 01,
  04, 0A, 0B, 08, 0B, 0D, 0C, F6, 04, 09, 0F, 09, EF, 0A, 03, 09,
  15, 15, 03, ED, D6, C9, E0, E7, E7, F0, 02, 00, 04, 0B, 0D, 09,
  05, 0D, 0C, FE, 05, 0C, FE, F9, FA, 08, EF, 08, 13, 0D, 0B, FC,
  CC, BF, D4, DB, F0, FC, FF, FF, 03, 07, 0D, 06, 05, 0A, 08, 09,
  0E, FC, F1, 00, 00, FC, E8, F5, 00, 02, 11, 02, D7, D7, E7, ED,
  F5, F8, 05, 09, 06, 08, 07, 09, 09, 06, 0C, 07, 05, F5, F5, 0A,
  0E, 08, FA, EA, EB, 0E, 08, 0C, 12, 0D, 04, FF, 09, 04, 09, 07,
  0C, 08, 05, 05, 08, 09, 0B, 07, 06, 0D, 05, 01, 00, 07, 0B, 0A,
  09, 0C, 0C, 08, 0D, 05, 01, 0C, 09, 09, 06, 09, 0A, 09, 0B, 08,
  04, 00, 04, 01, 04, 04, 05, 03, 03, 02, 03, 03, 00, 00, 05, 07,
  03, 04, 06, 07, 00, 03, 00, 01, 00, 02, 06, 00, 07, FF, 02, 02,
  06, 02, 05, 01, 07, 04, 03, 05, 03, 03, 03, 00, 06, 02, 01, 02,
  FF, 04, 02, 03, 06, 01, 03, 03, 04, 02, 08, 01, 01, 03, 00, 00,
  04, 00, FB, FB, FD, F6, F7, FA, FF, FF, 03, 04, 00, FF, 04, 00,
  07, 06, 06, 03, 04, 00, 05, 08, 05, 01, 05, FA, F2, F3, F3, F9,
  F6, ED, E8, E9, EB, F2, 05, 04, 04, 05, 07, FE, FA, 07, 00, 01,
  05, 01, 07, 07, 05, 01, F7, F5, F4, 03, FC, 05, 04, EF, EE, F7,
  FE, 06, FB, F6, F9, F4, F5, FE, FE, 06, 06, 02, 03, 06, 02, 02,
  FD, FD, F0, F2, FA, 04, FA, 06, 04, E8, EB, EC, 08, 08, FA, 07,
  FF, 01, FC, F7, 05, 05, 00, FF, 02, 03, 04, F8, F6, 00, EE, FD,
  02, 04, F9, EF, F9, E4, E5, F1, F4, F7, FD, 04, FC, F8, 08, 0C,
  11, 08, 02, FF, 02, 01, 04, FA, FC, 0E, F8, FC, 12, 0E, 06, F9,
  F4, F3, E7, FA, FB, FB, 01, 04, FB, 0F, 16, 0F, 0F, 06, 05, 06,
  00, 03, FF, 00, 03, 0A, 07, 05, 06, 15, 0A, 01, F9, ED, EF, 02,
  FC, FC, F5, FD, 07, 12, 09, 0D, 1F, 21, 11, 04, 02, 03, FF, F7,
  0D, 0E, 09, FA, 08, 0F, 05, 08, EE, E7, ED, 07, 14, 09, 08, 08,
  0D, 14, 0C, 11, 2A, 28, 0F, FF, 06, 01, 00, F3, 0F, 15, FB, F9,
  FF, 11, 15, 10, FD, D8, DA, 03, FE, FF, FF, 0C, 07, 02, 0D, 10,
  21, 22, 0F, 02, 06, 01, FD, F5, 0E, 18, F9, FE, 02, 10, 0B, 17,
  15, E4, D4, F0, F5, E5, EF, F6, E9, F8, 0D, 07, 11, 1C, 13, 07,
  03, 01, 00, 09, 0B, 04, FD, 06, 00, 03, 04, 0D, 2A, 0A, EB, EE,
  EB, E7, E8, DC, E0, E7, FB, 06, 0A, 0B, 06, FE, 03, 05, 03, 04,
  F5, F9, FF, 07, 02, 10, FF, 14, 1C, 09, F6, 07, FA, FD, FC, F0,
  EC, F3, F4, F0, F4, F4, FA, 04, 07, 05, 03, 07, 0B, 0A, 08, 07,
  08, 08, 08, 02, 07, 08, 0B, FC, FA, 08, 0A, 0D, F5, F3, E5, E8,
  EE, F3, 01, 00, 04, 00, 09, 03, FD, FD, FE, 06, 07, 08, 05, FD,
  0C, 0B, 08, F5, FC, 07, 06, FF, EC, E2, E9, E7, E7, EF, FE, 05,
  01, 03, 07, FD, F5, FC, F9, EE, F2, 03, FF, FD, 0D, 0F, FF, FB,
  FF, FD, F8, FC, E7, F5, EA, E7, E5, F6, FE, 00, 00, 00, 06, FD,
  F4, FC, F8, E3, E3, FC, F7, 04, 10, 07, FE, FA, 05, F3, 01, F5,
  F9, F6, F8, E4, ED, FC, FF, 00, 01, 08, 02, FB, F2, FB, F0, EB,
  FC, FF, 07, 06, 15, 0E, 05, FB, 01, F5, 00, 08, 0A, F3, EA, DC,
  ED, FD, 04, 04, 07, 01, 00, FC, F8, EF, EB, E8, 06, 04, 04, FB,
  FF, 0A, 06, 04, F8, 02, 06, 05, 12, FC, EA, E8, F2, FD, FF, 06,
  04, 01, 06, 00, EC, EC, F2, 02, 06, 02, FC, 08, 09, 00, 00, 11,
  FC, 04, 0A, FB, 04, 01, F5, EB, F8, FC, 01, 00, 02, 04, 06, FA,
  ED, F3, F9, 10, 0A, 06, F8, 08, 01, FC, FD, 05, FA, 04, FE, F9,
  01, 06, 04, F8, 04, FF, 02, 05, 07, 06, 05, 01, F8, F6, FB, 06,
  01, FD, FA, 01, FB, 04, FE, 06, FF, FE, 03, 01, FE, 02, 03, 00,
  01, 02, 06, 06, 05, 06, 03, 03, 07, F2, F4, F3, 05, FC, 07, 01,
  07, 11, 0D, FE, 10, 0A, 09, 01, FF, 04, 06, 03, 02, 04, 04, 04,
  04, 08, 01, 03, FE, EB, E5, EB, EA, FA, 05, 0C, 0C, 02, 03, 01,
  07, FB, 07, 0C, FE, FB, FA, 03, 01, 02, 06, 05, 05, 03, 02, 02,
  F9, EF, DE, DC, E0, E1, E5, EB, F3, ED, E3, FC, FA, FE, 0A, FF,
  F6, F8, F9, 04, 08, 00, 00, 02, 08, 00, 01, 06, FF, FD, EC, EA,
  EC, EB, E7, F5, F4, ED, DB, E4, F4, F5, F1, F1, F6, FB, 05, 08,
  06, 07, 02, 00, 02, 01, 03, 06, 05, 08, 06, 02, 00, 02, FE, 00,
  05, 01, FC, FE, 02, FF, FC, 01, FF, 03, 00, 05, 03, 00, 00, 03,
  FF, 03, FE, 00, FE, 02, 01, FD, FF, 05, FF, FE, 00, FE, FF, FE,
  03, 04, FD, FE, 01, FD, 02, 05, FD, 02, 00, 05, 03, 01, FD, 00,
  02, 01, 05, 02, FD, 00, 04, 04, 06, 00, 02, 04, FF, FE, 02, 01,
  04, 01, 03, 05, FE, FF, 05, 02, FE, FE, 02, 01, 03, 03, 05, 00,
  FD, F8, 00, 01, FC, F7, F8, F7, F8, F7, FF, FD, FE, FE, FE, 01,
  04, FF, FE, 00, 04, 05, FD, 04, 01, 03, FA, FA, FA, F9, 06, 14,
  1A, 14, 0B, F6, EF, FF, EA, EE, FF, F5, FB, 03, 00, 05, FF, 01,
  FD, FE, FF, 01, 00, FE, 05, 0C, 03, 12, 17, 19, 07, 0B, FE, 06,
  06, 10, 06, 02, F9, EE, F8, EC, FD, F8, 04, 05, 00, FE, FF, 01,
  07, 05, 0F, 17, 17, 13, 12, 01, 00, 02, 04, FF, 03, 02, 06, 02,
  00, F6, F1, F0, F5, 00, FE, FF, 00, 04, 02, 06, 0C, 11, 1B, 13,
  18, 12, 05, 0A, 05, 01, 01, F7, FC, F9, 02, F9, F7, 0E, FE, F3,
  F7, FC, 03, 05, 04, FF, 06, 0E, 15, 09, 09, 0F, 09, 0E, 06, 1A,
  0F, 0A, 07, F9, FB, 06, 0A, 06, 01, 06, 09, F9, EE, FC, 01, 05,
  05, FF, 09, 11, 12, 01, FC, 00, 11, 0E, 14, 12, 1E, 1E, 22, 10,
  FF, FD, 07, 03, FD, 02, 14, FC, EA, F3, FC, 03, FF, 03, 05, 14,
  1B, 07, FC, 04, 01, 01, 01, 07, 15, 2C, 2A, 17, 0A, 02, 0B, FF,
  03, 01, 0D, 09, F6, F6, FD, FD, 01, 04, 05, 12, 16, 05, F7, E6,
  EA, F4, FB, 07, 12, 25, 1B, 0B, FB, FF, 0F, 06, 02, 04, 10, 12,
  01, F7, 01, 00, FD, 05, 04, 07, FA, E8, E5, E7, E7, F9, FE, 12,
  0D, 05, EA, E8, EC, FF, 11, 09, 01, F9, F8, FE, FD, F8, 02, 01,
  05, 03, 03, FE, FC, E7, EF, FB, FE, 03, 07, FF, 02, E6, E4, E3,
  F5, 09, 09, F7, F5, FC, FF, FF, 02, F7, FE, 00, 00, 00, 01, FE,
  FA, FD, 07, 03, FF, 04, 04, F8, F0, EB, F0, DB, F2, 08, 05, F2,
  F2, F9, FC, F7, 02, FE, FF, 03, 02, 00, FF, 02, FD, 0C, FB, 0D,
  FE, F7, 02, F9, 01, ED, F6, ED, EA, FE, FD, F7, F5, 00, F9, 09,
  09, 01, 06, 01, 04, 01, 01, 02, FF, 12, 03, 0D, E9, F5, 03, EF,
  F8, F0, F2, F3, F3, FC, FC, FE, 04, 0A, 0C, 0A, 0F, 04, 05, 05,
  00, 05, 00, 05, FD, 02, 00, 01, F5, EC, FE, EE, F2, EA, EE, EC,
  EB, F1, FA, 04, 06, F8, 0F, 0A, 09, 00, 03, FF, FF, 00, 01, 09,
  FE, FF, 00, 04, F7, F5, 01, 01, F7, E9, E5, E5, E7, FC, F5, 07,
  00, 00, 12, 13, 07, 08, 04, 03, 04, FE, 03, 08, F9, 01, FA, F8,
  F2, 00, 03, FA, FD, F0, E5, FA, FE, FF, 0B, 00, 07, 02, 1E, 0A,
  0C, 08, 05, FE, FD, 00, 02, 0B, 08, 12, 09, F7, F5, F7, F4, FF,
  FF, 03, 08, 08, 04, 0C, FD, 05, 0C, 0D, 14, 02, 0A, 0C, 06, FF,
  03, 02, 02, 0D, 10, 14, 01, 01, 06, 00, 00, 0C, 06, 08, 11, 0D,
  08, F8, F8, FE, FB, 02, FA, FE, F8, 01, 00, FD, 05, FF, 05, 0B,
  09, EC, F7, FB, 01, 04, 03, 09, 11, 11, 06, 0A, 05, 00, 02, F8,
  E2, EC, 0E, 02, F5, 04, FE, 05, 00, 05, 06, 03, F6, F6, 06, 03,
  04, 0D, FB, FB, 0B, 0E, 01, 04, FE, 0C, 06, 02, E7, F8, 12, FE,
  FA, 04, 00, FF, 01, 02, 04, 09, 10, 08, 19, 0E, F9, 0A, 14, 19,
  03, FD, FC, 06, 00, 10, 02, F1, E8, EF, 02, 02, F7, FF, 01, 02,
  03, 00, FD, 07, 11, 1E, 12, 12, FF, 00, F1, EF, FF, 04, 0D, 0C,
  05, 0F, 0B, FA, F0, F5, F6, FC, FE, 01, 01, FF, 01, 05, 00, 03,
  07, 02, 0C, 14, 19, 08, F9, 08, 0E, 0D, 04, F8, 0D, 0C, 08, 12,
  F9, FB, 00, 03, 05, FE, 05, FD, FF, 01, 02, 02, FB, EA, ED, FE,
  03, FC, F8, FC, FD, 0C, 07, 0A, 06, F5, 03, 0C, FF, F8, FD, 01,
  03, FE, FF, FE, FE, FE, 01, 00, FF, FD, 01, 02, 02, 06, 01, 01,
  08, 09, 09, 00, 04, 08, 01, FE, 00, 05, 01, 04, FF, 00, FD, 02,
  09, 03, 08, 0B, 09, 05, 09, 09, 05, 05, 06, 0A, 08, 05, 05, 03,
  09, 05, 06, 08, 08, 07, 07, 0A, 07, 02, 06, 0A, 06, 03, 04, 09,
  06, 06, 03, 03, 06, 03, 0A, 07, 03, 05, 0B, 0B, 03, 0A, 09, 07,
  02, 03, 04, 03, 06, 09, 04, 05, 03, 08, 03, 04, 03, 06, 09, 04,
  03, 04, 06, 0C, 08, 0A, 08, 07, 07, 03, 07, 0A, 05, 04, 08, 04,
  0A, 07, 03, 0A, 07, 07, 0A, 09, 04, 0A, 03, 08, 06, FF, FF, 01,
  0F, FC, FD, 08, 08, 0A, 15, 12, 0A, F9, 00, 05, 06, 09, 0A, 04,
  03, 09, 09, 04, 07, 08, 09, 06, 00, EE, EF, 03, FA, EF, F7, FD,
  08, F7, FE, 18, 1B, 14, 0C, 07, 04, 03, 0A, 07, 03, 02, 03, 05,
  04, 13, 0E, 18, FE, 0F, 00, EB, EC, FB, 01, FE, FB, FD, FC, FE,
  F9, 04, 02, 15, 0B, FF, 01, 07, 06, 05, 07, 08, 01, 04, 14, 14,
  0A, 14, 0F, 03, F4, 02, FE, FE, FA, 04, 03, 07, 03, F4, FD, 0A,
  FE, FD, 09, 05, 05, 07, 0B, 02, FA, E8, FE, 0D, FD, 0B, 02, F4,
  F7, FE, F9, F7, FC, 0F, 05, 14, 0B, 03, 07, FC, F2, 01, 06, 05,
  02, 07, 05, 0B, 03, FB, 00, 15, 09, 0E, 00, 06, 05, FD, F6, FE,
  09, 14, 15, 17, 03, FA, 01, F5, EE, F8, 03, 03, 03, 0A, 06, 11,
  17, F5, 0C, 13, 05, 12, 0C, 0F, 13, FC, E5, 08, 19, 1E, 0E, 0E,
  06, 03, 0A, 02, F6, FE, 04, 0A, 09, 08, 0D, 0D, 11, FD, FF, F8,
  05, 0E, FC, 01, EC, D9, DB, 05, 19, 0E, 06, 0B, 10, 07, 0E, FA,
  FB, 00, 05, 06, 05, 09, 0F, 13, 03, FB, 01, 0B, FE, 00, F0, DF,
  CD, DB, FF, 0B, 07, 00, 06, 02, 06, 03, 03, 08, FC, 04, 08, 09,
  06, 09, 10, 03, FF, EF, ED, F0, DA, D5, D4, CB, E8, 01, 0D, 12,
  06, F8, 09, EC, EF, FD, FC, FA, F6, 02, 08, 04, 04, 0C, 0F, 02,
  F6, EE, E4, CF, CB, D1, DF, EC, FE, 00, 03, 12, 07, 02, 0B, EC,
  F7, FB, EB, E9, F2, 05, 02, 0A, 0A, 05, 08, 0B, FB, F5, E4, DC,
  DB, EB, EE, 0B, 0F, 02, 07, 12, 07, 0A, 07, 01, FD, 01, EA, F5,
  FE, 04, FE, 07, 04, 04, 09, 06, F5, F4, ED, E4, F1, FB, 04, 17,
  07, 06, 0A, 0C, FA, 07, 0D, 06, FE, 0C, 05, FD, FC, F1, 05, 09,
  06, 05, FE, FF, 02, FB, F9, F3, FD, FE, 00, 04, 12, 0B, 05, 06,
  07, 0F, 17, 0A, FD, 01, F4, EC, EB, F5, 03, 02, 06, 05, FD, FB,
  FB, 01, ED, EC, F9, EF, FB, 0F, 0E, 0F, 0F, 0B, 01, 0A, 06, 02,
  01, FF, F2, EA, FD, F4, FF, 03, 09, 03, 0B, 01, EF, F7, DF, E5,
  E1, E6, ED, 08, 01, 0D, 05, 06, 06, FF, FD, FA, FD, F9, F2, E7,
  E9, FE, 06, 04, 06, 03, 0D, 08, 08, 02, ED, EF, D8, D9, D4, DF,
  DF, F5, FB, 09, FD, 07, FF, 0B, EC, E6, DB, DC, EC, 04, 03, 0A,
  06, 03, 08, 0D, 0F, F4, 03, F3, EF, DF, E9, E0, E2, EE, 04, 03,
  FE, 07, 08, 0C, FA, EA, E4, EB, F6, 00, 04, 02, 03, 0A, 05, 0D,
  1D, 12, 1E, 16, 0F, FA, 04, EF, FD, FA, FF, FE, FC, 04, F9, FA,
  01, FB, EC, F4, 00, 09, 09, 09, 08, 04, FC, 05, 11, 1A, 18, 11,
  07, 07, 08, FD, F8, FA, F7, 01, 05, 01, F2, 0D, ED, E4, F1, F9,
  FF, 02, 07, 06, 03, 03, 04, 0B, 0E, 10, 07, 09, F8, FC, 03, 08,
  FC, 04, FE, F5, F4, F4, FE, F2, EE, E9, FB, FE, 01, 0B, 0B, 09,
  03, 07, 06, 0C, 17, 15, 07, FE, FD, 06, 01, 03, 02, 01, FA, FF,
  FD, EE, E0, E7, F3, F0, FA, 02, 04, 09, 09, 0A, 08, 08, 0A, 0C,
  06, 0B, 05, 0E, 15, 0D, F7, FD, 0D, FF, F9, FA, F9, EF, FA, FD,
  F8, F6, FD, 04, 08, 02, 08, 09, 05, 08, 0B, 09, 02, F6, F8, 05,
  10, 07, 06, 01, F8, FD, 05, 0F, 08, 0C, 11, 0F, 06, 04, 00, 05,
  03, 08, 07, 06, 09, 03, 09, 05, 0A, 0A, 0B, 09, 0B, 0C, 09, 0D,
  07, 0E, 0A, 0A, 09, 0E, 13, 0C, 05, 04, 01, 06, 03, 09, 07, 08,
  01, 02, 06, 02, 05, 04, 05, 07, 07, 04, 00, 01, 01, 05, 01, 07,
  06, 00, 01, 04, 05, 04, 06, 04, 03, 05, 05, 04, 04, 02, 05, 03,
  07, 07, 04, 04, 06, 08, 04, FF, 01, 04, 03, 03, 02, 08, 01, 06,
  04, 01, 04, 02, 03, 02, 02, 00, 06, 07, 05, 07, 07, 07, 01, 08,
  05, 07, 04, 04, 07, FE, 06, 00, FF, FF, 00, 02, 06, 03, 05, 02,
  01, 03, 03, 02, 08, 03, 01, 02, 03, 05, 02, 00, 01, 09, 06, 06,
  05, 05, FD, EF, F2, F4, F6, 02, FD, FB, 02, 01, 03, 01, 07, 00,
  01, 00, 02, 03, 01, 06, 05, 09, 07, 10, 09, F7, F7, F7, FA, FD,
  F7, FD, EA, EB, F3, ED, F6, FE, 0C, 0F, 04, 04, 02, 04, 05, 03,
  06, FA, F8, 09, 15, 04, 04, 02, 06, 0B, 05, 01, F9, FA, E9, EB,
  F3, F4, FD, 09, 0D, 07, 01, 07, 07, 07, 06, 05, FD, ED, F7, 0E,
  08, 0D, 03, 02, 12, 1D, 16, 10, 0A, 0B, F6, F1, FC, F8, F1, 01,
  FB, 00, FE, 04, 03, 02, 06, 08, F9, F9, 06, 00, 0C, 03, 08, 0F,
  0F, 1A, 09, 08, 05, F7, 03, F5, 05, F9, F4, F3, FA, FC, F6, 06,
  01, 01, 02, 07, 06, 00, 06, FE, 13, 02, 0A, 08, 09, 11, 0A, 00,
  01, EB, FB, 00, 03, FE, F9, FE, FB, 00, 04, 08, 08, 05, 05, 0A,
  07, 14, FB, FF, 0E, 00, 00, FB, 02, FB, F0, F4, F8, 0B, 05, 00,
  F8, F8, 01, 04, FB, FE, 09, 01, 01, 03, 08, 04, 05, 16, 0D, 01,
  05, 01, 03, FF, F1, E3, E2, F3, 0B, 0A, 0B, F9, F5, 03, 09, 00,
  01, 00, FE, FF, 07, 08, 04, FF, 04, 15, 0A, 0C, 04, FC, 03, 07,
  F5, EA, F0, FF, 05, 09, 00, 08, 07, 03, F8, EF, FA, 00, 01, 01,
  02, 01, 01, FF, 01, 0D, 04, 08, 10, 00, F5, F6, E9, EC, F3, FB,
  FC, FA, FC, 11, FD, F9, F3, ED, FF, FF, 00, 01, 02, 00, 05, 03,
  ED, FC, F3, FF, 00, 01, FA, FA, F2, F9, EF, F5, 01, 00, 0B, 01,
  02, FA, FB, 02, F5, 06, 03, 03, 05, 02, 02, FF, F1, EC, F9, FA,
  F1, F0, EE, F5, F1, FC, EC, FE, 01, 01, 0A, FD, FE, FF, EE, FB,
  F4, 06, 05, 02, 06, 03, 04, 05, F9, F8, 08, 04, F6, F8, EB, F3,
  F8, F8, F8, 12, 10, 05, 04, EE, FA, F6, F3, EE, FA, FC, 03, 06,
  08, 07, 02, 00, FD, FE, 06, 01, F6, D7, E7, 07, 16, FD, 03, 07,
  0F, 0C, FE, F2, 01, E1, E5, EA, F5, 03, 08, 0A, 06, 02, 05, 02,
  04, FE, FB, EC, DC, D0, EE, 11, 1C, 0D, 01, 07, 03, 00, FC, EB,
  00, EA, EE, FD, 09, 0B, 05, 03, 07, 07, 03, 02, FF, F8, F0, DE,
  CE, D2, 0C, 1B, 19, FB, F0, FD, F7, FC, FB, F5, FD, F7, 06, 0D,
  0E, 07, 0A, 04, 06, 02, FF, FC, FA, F9, EB, EA, E3, E3, 1A, 22,
  1F, FB, EE, 03, 00, FB, 03, 05, 02, FD, 00, 08, 09, 02, 01, 03,
  03, 03, 03, FF, 02, FB, E8, F1, 00, F9, 16, 17, 15, FF, FD, 0E,
  0E, 07, 0C, 01, 06, 02, F5, F5, 04, 05, 03, 00, 06, 07, 01, FF,
  FB, FA, E8, E1, F0, 0B, 04, 08, 07, FD, 02, 0A, 05, 07, 00, 01,
  F4, F7, F2, 01, 02, 02, 02, 08, 04, 04, 02, 07, FC, F5, E8, F3,
  F5, 02, FD, FC, 01, 01, 09, 03, FF, F9, FB, ED, 00, F5, FE, 05,
  09, 05, 06, 04, 05, 03, 01, 00, 00, FC, ED, F5, EC, F9, EE, 03,
  0F, 0A, 0C, 09, 06, 04, 0C, 0A, 0E, 06, 0D, 15, 02, 01, 06, 00,
  03, 05, 02, 00, FF, 05, ED, DB, DE, E5, EB, 00, 0A, 0A, 07, 13,
  12, FF, 18, 1B, 15, 14, 15, 12, 0B, 08, 04, 02, 05, 06, 07, 06,
  02, FC, 06, 02, F8, F8, 0A, 0C, EE, F8, 03, 04, 03, 0D, 13, 13,
  17, 0C, 02, FF, 07, 06, 04, 06, 01, 03, 03, 05, 00, F9, FE, 05,
  0C, 0B, 06, 0C, 07, 06, 12, 01, 09, 10, 20, 18, 09, 03, 00, 04,
  01, 03, 03, 08, 02, 08, 02, 01, 03, 04, 07, 01, 04, 07, 03, 05,
  03, 02, 05, 05, 04, 07, 0A, 08, 07, 08, 06, 05, 06, 04, 08, 06,
  01, FE, 01, 01, 04, 02, FF, 02, FD, 00, 01, FE, FF, 05, 04, FF,
  FE, 03, 02, 01, 04, FF, 00, FF, FF, 02, FE, 05, 00, 02, FE, 03,
  FD, FE, 01, 03, 04, 00, 00, FF, 03, 02, FF, FF, 02, FE, 02, FF,
  03, FF, 04, FF, 03, 05, 00, 04, 04, 03, FE, 03, 03, 01, FF, 02,
  00, 04, FC, 00, 03, FC, FA, F3, F6, FE, 01, 00, 02, 02, FD, FF,
  01, 03, 01, 02, 03, 05, 03, FE, 01, 00, 00, FD, FF, FC, FE, F5,
  EB, EC, E5, E9, FB, F8, F7, F5, F8, F7, FE, FF, 00, FD, 04, 01,
  00, 03, FE, 01, FF, FE, FD, FB, F8, FC, 07, 0F, 0B, 09, 07, F9,
  F0, F4, 08, 08, F8, FD, 02, 04, 01, FF, 03, 02, 00, 03, FD, 01,
  02, FD, FD, F7, F2, F0, FD, 0E, 19, 26, 12, 0C, 01, FD, 07, 05,
  04, FD, 00, FC, 02, FF, FF, 04, 02, 03, FF, 00, 02, FC, F9, E7,
  F4, FA, 15, 18, 11, 1F, 1D, 26, 12, 12, 16, 00, 06, 10, EF, EB,
  F2, 00, FF, FE, FF, FE, 00, 04, FB, F4, F0, E3, FD, 08, 12, 0B,
  14, 0C, 17, 22, 19, 10, 15, FE, 03, 01, EF, DB, DD, EF, FF, FD,
  FE, FD, 00, 03, F6, F7, F6, F1, 0D, 01, 02, 03, 05, 0A, 16, 16,
  24, 0D, 06, 05, 07, 04, 03, E9, D8, F1, FB, 05, 00, 02, 03, 02,
  F7, ED, 00, 03, 08, 00, 00, F8, F1, FC, 02, 07, 02, 04, 06, 0D,
  13, 02, FC, F9, ED, F9, FE, FC, FD, 03, 01, FE, F5, FC, 09, 05,
  04, F9, F7, F3, E8, E2, FB, E8, F7, FD, 0D, 06, 11, 14, 08, 0B,
  FD, F4, FC, 01, 03, 05, 04, FD, 00, 03, 0C, 02, 08, F1, F9, FA,
  EC, FE, FA, F3, F7, 0B, 0B, 0A, 0F, 0C, 07, 02, 03, FC, FC, FF,
  FE, FE, 01, FF, 0A, 07, 01, F8, FF, F9, 00, 05, FB, F5, 03, FE,
  09, 04, 07, 0E, 06, 07, 00, 00, F2, FC, 01, 00, 01, 01, FF, 08,
  0E, 04, F8, 02, 01, 03, 06, 09, 01, FF, 05, FE, 07, 01, 00, 00,
  02, 04, 00, F3, F7, FA, FE, FD, 03, 04, FC, 00, 0E, F3, F9, 01,
  03, F9, FF, FB, FB, FE, 01, 04, FE, 00, FB, F4, 03, 08, 06, FB,
  F6, 01, FC, 05, 04, FE, 02, F6, 08, 00, F8, 07, 00, F4, 02, FE,
  FF, 02, F7, 02, FF, 06, FF, F4, 03, 07, 16, 0A, 01, 00, FB, 01,
  05, FE, 06, FE, 04, 00, EE, FF, 09, FC, 08, 07, F9, FA, EE, F4,
  FA, F8, ED, E9, FC, FE, 0B, 01, F4, F8, FA, 03, 04, FE, FF, FE,
  04, 00, F2, ED, FC, 06, FC, 02, 02, 03, FB, FF, FF, FE, EC, F1,
  FF, F5, F5, FC, 01, FB, FA, FF, FD, FD, FF, F9, F8, FA, FF, F4,
  04, 00, 05, F9, F3, F0, EF, F6, F8, FD, FA, FE, FE, F0, FA, F8,
  00, FD, FC, FF, 03, 00, FF, F2, EF, F6, FD, FD, 0C, 05, FB, E9,
  F9, E2, F0, EE, FB, FF, 0C, 10, FE, F4, F8, FB, 01, FF, 00, FE,
  FD, 02, FF, F7, 00, F7, F1, F7, FE, F3, F8, E7, E9, F5, F2, F9,
  FD, F8, 02, 15, 04, FB, F2, EF, FE, FC, FD, FE, FE, 03, FB, FF,
  05, F5, F0, F7, F2, EE, 03, EB, F7, F5, F3, F8, FC, EE, FB, 02,
  03, F2, E6, EB, FD, FD, FE, 00, 03, 00, 00, FF, 03, FE, FA, 02,
  F5, FD, 04, FF, 04, FB, 0B, F7, FE, F1, F1, EE, EC, E0, F5, 00,
  06, FE, FE, 01, FF, 05, FD, 07, 03, 10, 08, 04, 06, F9, 05, 12,
  0A, 0D, 00, FD, FD, F4, ED, F1, F1, F6, 0E, 03, 08, 00, 03, FF,
  02, FF, 03, 02, 0A, 1F, 18, 18, 11, F8, 06, FB, 04, 07, EB, 03,
  07, FD, 01, 0E, 1A, 15, 0B, 08, 01, 01, FF, FE, 04, FE, 04, FF,
  04, 0F, 12, 19, 23, 1D, 18, 16, 1B, 0F, 00, 0F, 06, 06, 0B, 24,
  1D, 13, 0A, 09, FF, FD, 04, 05, 05, FD, FD, FE, FE, FB, 01, 12,
  19, 16, 17, 1A, 21, 2B, 2C, 12, 1E, 25, 24, 1C, 19, 13, 0B, 03,
  03, 03, FE, 02, 02, 03, 01, FE, 03, 01, 04, 03, 02, 06, 08, 01,
  01, 02, 01, 02, 07, 00, 05, FF, 03, 01, 01, 05, FD, 00, FD, 03,
  06, 02, 08, 01, 08, 03, 04, 08, 07, 06, 02, 06, 07, 01, 08, 07,
  05, 09, 03, 07, 02, 01, 09, 06, 01, 05, 05, 02, 06, 06, 09, 09,
  06, 06, 04, 06, 03, 04, 05, 06, 01, 00, 05, 01, 05, 00, 01, 07,
  06, 02, FE, 02, 04, 07, 03, 09, 05, 04, 03, 09, 07, 06, 09, 01,
  05, 03, 00, FE, F7, FB, F8, FC, FC, FD, FF, FD, 01, FE, FF, 04,
  07, 01, 05, 09, 03, 06, 08, 03, 09, 03, 03, 05, 01, F9, F7, F3,
  E8, E3, E3, EC, F1, E2, F3, F4, F8, FA, 0A, 03, 00, 02, 00, 04,
  03, 09, 02, 03, 03, 02, 04, 03, F9, F7, F1, EE, F7, F9, E6, F9,
  F7, F5, 00, 01, 03, F8, 09, 06, 07, 01, 01, 09, 05, 08, 04, 0A,
  04, 03, 05, F8, F2, F4, FC, 09, 09, 0A, FA, 04, 07, 0A, FD, 00,
  05, FC, FD, 09, 05, 09, 03, 08, 08, 06, 02, FE, 02, 09, 04, F5,
  FD, 02, FD, F6, 02, F9, FA, 04, 12, 0C, FF, 00, 07, 08, 07, 10,
  04, FE, 06, 02, 0A, 05, 08, 02, 05, 0C, F0, E2, F9, 01, F4, F6,
  FA, FE, FB, 06, 03, 07, F6, 00, FF, FE, 03, 07, 09, FF, 0C, 04,
  02, 04, 07, FB, 05, 00, EF, FA, 0A, FE, FD, FE, F6, FB, FE, 02,
  FD, FA, F6, F9, F5, 0B, 03, FF, 11, 0C, 0E, 05, 02, 02, 02, FC,
  FC, EC, F0, 00, 05, 11, 00, 01, FE, 03, F3, F8, 02, FE, FE, FE,
  FE, 01, FA, 10, 0E, 04, 02, 01, 0A, 05, 00, F6, F2, E6, F6, 0B,
  0E, 09, FF, F8, 04, E8, E9, FF, FB, FC, 06, FC, F2, F5, 0A, 08,
  00, F9, FE, 05, 02, 04, FB, EE, E1, FA, 05, 0C, 13, 0C, 0B, 04,
  01, DE, E9, FA, FC, 01, 01, F6, FD, FF, 01, F7, 03, 00, 0C, 06,
  05, 03, 03, ED, E5, FB, 0A, 04, 08, 0B, 11, 0B, 0C, FD, F8, 08,
  06, 09, 06, 0E, 0E, 13, 15, 14, 0D, FB, 02, 03, 05, 03, 02, F4,
  E9, F4, 00, 06, FD, 10, 14, 13, 13, 0C, 0E, 0A, 0C, 17, 16, 16,
  14, 18, 1D, 02, F4, 00, 07, 03, 05, 08, 02, 02, 04, 04, 02, 05,
  F0, FB, 02, 07, 13, 16, 0C, 09, 16, 15, 12, 0F, 07, FF, FE, EF,
  F7, 0C, 06, 05, 08, 07, 08, 0A, 0B, 05, FC, FC, F6, F9, FC, 09,
  0F, 11, 0B, 0C, 1A, 05, 00, 04, F0, F3, FC, ED, EE, FE, 09, 09,
  04, 05, 04, 08, 05, F2, 00, 07, 03, 05, 01, 02, 10, 15, 0D, 0D,
  09, FA, F9, EF, F4, E4, ED, F2, FD, FF, 03, 0A, 08, 04, 0B, 0C,
  FD, EF, F3, 04, 11, 03, 0A, 02, 11, 1A, FF, F4, FF, F0, DF, DB,
  E6, E0, EB, F8, F8, FE, 04, 05, 06, 02, 04, 06, F1, F1, F5, 00,
  06, 0C, 0A, FF, FA, FF, F4, F0, F7, EE, EB, E4, ED, E9, E1, FA,
  FA, 01, 0A, 06, 04, 03, 08, FF, EE, F1, 00, 06, 02, FA, E7, DE,
  E8, F5, F4, FA, 08, 01, 03, 01, EF, FA, EF, FD, F8, F8, 05, 09,
  07, 07, 05, FB, F1, 01, 03, 08, 01, EF, E5, EC, FB, 00, FD, 0D,
  0C, 07, 06, 02, ED, FD, 03, FF, F6, F8, 07, 09, 09, 02, 08, FE,
  ED, 05, 0A, 04, FA, 00, 00, FE, 09, 03, F8, 07, 00, FC, 00, F4,
  F0, FD, FD, FB, F7, FA, 00, 09, 05, 03, 03, FD, F7, 03, 03, F8,
  FD, F5, 01, 00, 05, 05, FE, FB, F6, F8, 0E, 03, FF, FC, 06, F5,
  F8, FA, 09, 07, 05, 08, 09, 04, EE, F1, F2, F4, 03, FA, 07, 02,
  04, 01, 00, FC, 04, 14, 15, 0B, 07, 0E, 0E, 03, 03, 08, 02, 05,
  05, 08, 06, 05, F6, E7, EF, F7, 05, FB, FB, 03, FC, 05, 01, F5,
  08, 06, 0D, 0F, 0B, 10, 0F, 0A, 02, 08, 07, 08, 05, 09, 05, 06,
  FA, F4, 00, 04, FE, 03, F8, F8, FE, 10, 10, FD, 0C, 0E, 0A, FE,
  0D, 09, 00, 01, 05, 05, 02, 08, 05, 06, 05, 02, 05, 08, 14, 11,
  0C, 06, 05, 04, 0A, 04, 0A, FF, 01, 11, 07, 00, 0D, 06, 05, 03,
  08, 09, 05, 07, 04, 02, 05, 03, 07, 07, 06, 09, 01, 04, 08, 05,
  00, FF, 00, 11, 08, 02, 03, 02, 02, 06, 04, 02, 04, 06, 05, 02,
  02, 07, 07, 04, 07, 06, 00, 05, 00, 05, 00, 06, 01, 02, 02, 02,
  06, 06, 03, 08, 07, 02, 08, 06, 05, 01, 00, 04, 03, 03, 04, 03,
  06, 05, 01, 06, 06, 06, 05, FD, 02, 00, 05, 07, 07, 06, 05, 06,
  07, 00, 07, 01, 03, 02, 00, 01, 06, 07, 07, 06, 08, 07, 02, 07,
  03, 07, 04, FF, FE, FD, 0A, 06, 07, 06, 08, 00, 07, 00, 06, 00,
  07, 05, 06, 02, 07, 05, 06, 09, 03, 04, 04, 03, 04, 06, FC, FC,
  FE, F4, E6, EA, F4, 02, FA, FE, FD, FE, 04, FF, 07, 08, 04, 04,
  04, 08, 0F, 09, 01, 04, 04, FA, F8, F2, F7, 06, 06, 08, 00, FC,
  F8, F1, 03, 0B, F9, FB, 02, 0A, 06, 03, 02, 00, 02, 04, 04, 04,
  03, 00, F2, E0, DD, DC, DA, 05, 13, 0F, 04, 08, 10, FF, FA, F0,
  E9, F8, F8, F5, 01, 01, 07, 04, 06, 07, 04, 0B, 09, F6, E8, DB,
  D9, CD, DA, 03, 03, 01, ED, EA, F7, F2, F6, E6, F0, FB, F1, F9,
  F3, F8, 01, 01, 04, 06, 04, 0C, 0A, FA, 00, 09, E9, DB, CF, E7,
  ED, E3, EE, DF, F4, F1, F1, DD, EE, F3, F1, F1, F2, F3, FB, 01,
  07, 03, 09, 14, 17, 14, 0D, 17, FC, E6, ED, EB, F0, F2, F0, F2,
  E8, F0, EC, F1, F6, F1, F7, 06, FA, FC, FE, 03, 03, 06, 0D, 10,
  15, 11, 13, 0D, 00, F6, ED, FC, F7, 08, 11, 04, FC, F8, FD, F8,
  FD, 06, 0A, 0E, 0E, 1D, 0E, 0E, 02, 02, 13, 09, 0F, 05, 0C, 09,
  01, 04, 07, 07, 00, 20, 24, 10, 01, 00, 11, 14, 10, 18, 0F, 12,
  24, 1E, 12, 0C, 05, 09, 1C, 15, 0D, FD, FC, 07, FE, 05, 05, 06,
  00, 27, 22, 12, 04, 04, 14, 1C, 16, 07, 0E, 1E, 13, 11, 0A, 03,
  06, 0A, 10, 1C, 11, FE, F4, 0D, 0D, 09, F6, F4, 07, 0D, 1A, 0A,
  07, 03, 0A, 0E, 0B, F1, FD, FA, FB, 17, 0F, 0B, 07, 04, 11, 1E,
  0E, 08, 00, 02, 07, F8, F2, EC, F4, FF, 09, F7, FA, F8, F8, FB,
  04, 02, EE, F3, 06, 0E, 09, 02, 02, 06, 0B, 1D, FA, 01, FD, F0,
  01, FB, EA, E4, 0B, 03, 00, F5, F0, ED, F7, 09, 07, FF, FA, 05,
  FB, 08, 02, 02, 06, 02, 07, 18, FF, F9, 0B, F9, F3, F4, F5, 01,
  08, 0A, 06, F1, EA, F4, FE, 0E, 06, 0D, 02, 08, FB, FC, 08, 02,
  08, 05, 0A, 0D, 0E, F6, F6, FF, F8, EF, E2, F1, 01, 0E, 02, F4,
  F6, FD, 00, 0C, FE, 08, FC, FC, F7, FA, 00, 00, 02, 00, 05, 04,
  14, 0C, 00, F4, E7, E9, E0, FB, FB, 12, 12, 00, FA, FD, FF, EF,
  F7, FA, FB, FA, F3, FE, 04, 05, 03, 04, 03, F5, FF, 09, FA, FD,
  F9, F3, DA, FB, FE, 15, 11, 00, F6, FA, FA, F8, F0, F6, EE, EC,
  F7, FF, 06, 09, 01, 07, 09, F5, FB, F3, F3, EA, ED, EF, E3, F1,
  04, 12, 06, FE, FD, F7, ED, FF, EB, DB, D6, EE, FB, 02, 07, 01,
  02, 04, 04, F8, F3, ED, ED, E8, EE, EB, EF, 03, 05, 03, 03, 06,
  F8, FB, F9, F4, E7, E9, F7, EF, FE, FC, 04, 04, 02, 01, 01, FB,
  F5, F5, F9, FD, FA, FD, FB, FA, 01, FF, 05, 09, FF, F7, FA, F8,
  F9, F4, FC, FA, FB, 06, 04, 07, 04, 05, 04, FE, F6, FF, FF, 0E,
  03, 05, FD, FA, 09, 01, 01, 0F, 09, 15, 13, 04, 03, FB, F9, F8,
  FD, 02, 07, 03, 01, 03, 03, 01, 01, 0B, 0A, 0C, 00, FE, F9, 03,
  12, 01, 04, 10, 0B, 29, 0D, 03, FF, FB, FB, F4, FE, 02, 04, 02,
  02, 07, 05, 06, 0A, 14, 07, F6, F7, EC, FF, 05, FB, F8, F5, FE,
  FF, 16, F8, FF, 01, F6, 04, FA, 01, 04, 01, 05, 08, 05, 02, 06,
  03, FD, FC, FB, FD, F3, F2, EA, F9, 0D, 0B, 02, 0C, 05, FC, 19,
  0B, 00, 10, FD, 08, 08, 06, 02, 06, 06, 05, 01, FD, F7, FB, 05,
  0D, 16, 02, 08, 01, 06, FD, 06, 05, 04, F9, 0D, 09, 07, 0A, 09,
  00, 07, 00, 00, 07, 01, 07, 08, 03, 06, 05, 07, 02, 00, 0A, 08,
  09, 0E, 07, FE, 00, 08, FC, 03, 05, 01, 07, 05, 05, 03, 04, 06,
  01, 06, 01, 04, 04, 04, 04, 03, 07, 08, 06, 00, 03, 01, 00, 08,
  01, 00, 05, 02, 06, 04, 07, 03, 06, 02, 05, 04, 02, 06, 01, 06,
  03, 02, 01, 04, 0B, 08, 02, 05, 0D, 0D, 0A, 07, 08, 0C, 08, 0A,
  0B, 04, 03, 01, 04, 05, 04, 03, 08, 05, 07, 04, 07, 08, 01, 09,
  0B, 07, 0A, 0D, 10, FF, 03, 10, 20, 23, 22, 18, 16, 15, 0F, 0A,
  04, 01, 07, 02, 07, 04, 01, 03, 04, 03, 02, 01, FE, 02, F9, FA,
  E6, 07, 07, 03, 08, 16, 1D, 1D, 0F, 18, 11, 12, 0C, 01, 06, 05,
  08, 01, 05, 05, 07, FD, F4, EE, DF, E1, E6, ED, EB, EA, EF, F5,
  F7, FD, 05, 02, 03, 07, FD, 0E, FD, FE, 03, 07, 01, 02, 00, 05,
  01, ED, E7, E7, D8, EC, F8, FB, F2, F6, FF, FB, F7, 0D, 0E, 0C,
  08, 0B, 08, 18, 02, 09, 08, 09, 06, 07, 08, FE, 02, FA, EB, E7,
  E8, EA, F4, FB, FF, FC, 04, F6, FF, 03, 00, 03, 01, 01, 0C, 02,
  0B, 12, 09, 08, 03, 02, 01, 02, FB, F3, EC, E6, FD, 03, FB, 0E,
  FC, F9, 02, 07, 0B, 04, 0C, 05, 03, F5, FD, 0C, 04, 0D, 06, 01,
  06, 04, 03, 02, F5, F1, EA, D9, EF, FA, F6, 01, 05, 00, FD, F7,
  01, FC, F5, EF, F8, FB, F0, F3, F2, FE, FB, 03, 08, 00, 03, FB,
  F2, E9, E0, E5, F7, F6, FE, 02, 02, 07, F8, F5, ED, F1, D9, D2,
  DA, E0, ED, F1, 06, 0F, 05, 00, 07, 08, 08, 02, F8, EE, EC, 01,
  F9, 04, 04, 08, 0B, 05, FF, F7, FA, FB, FE, E7, EE, EF, ED, ED,
  05, 0C, 08, 03, 03, 01, 02, 03, FC, F6, F7, 0D, F8, F8, 00, 08,
  08, 04, F0, EF, FA, 09, 07, 03, EE, EF, E8, EB, F6, F7, 04, 06,
  05, 06, 07, 0A, 02, F9, FE, 04, 00, 02, 0C, 14, 0E, 02, F3, E9,
  E9, F7, 02, 04, 03, F5, EB, F4, E9, F5, 02, 06, 02, 08, 02, 0A,
  08, FA, 03, 04, 06, 07, 0F, 0B, 08, F9, F3, EC, E6, F7, F8, FA,
  FA, 03, 02, 04, EB, F4, FB, 04, 03, 07, 02, 03, FD, 03, FA, 12,
  0E, 11, 0E, 0D, 0A, F6, E6, F6, F0, FD, 00, F8, 0C, 13, 11, FE,
  F9, F5, FC, 02, 03, 01, FF, 05, F9, 07, FB, 07, 02, 0B, 02, 10,
  0F, E8, E1, EA, F6, 17, 11, F8, 0E, 18, 04, 05, F6, F1, F1, 00,
  02, 04, 07, FF, 05, 06, F4, F9, 00, FE, 06, 12, 0C, F3, F8, EE,
  F5, 05, 0C, 11, 0D, 08, 02, F7, F1, F7, FA, FD, 03, 08, 00, 03,
  01, 06, 05, FC, 06, FD, 08, 07, FE, F1, F1, EE, F4, 01, 0D, 13,
  06, 0B, 08, F7, EF, F4, 00, 08, 03, 06, 01, F7, 0D, 07, 0E, 0A,
  08, 00, FC, F9, F2, EA, F0, 03, 0A, 01, 04, 0E, FD, 09, 05, EE,
  E9, F8, FF, 00, 04, 04, 0B, F9, 15, 03, 0C, 0B, 08, 07, 03, 06,
  06, FC, FB, 09, 08, FB, F8, FC, 03, 0A, FA, F3, F7, FC, FF, 08,
  07, 05, 05, FE, 0B, 01, F8, FD, 09, 0D, 02, 03, 12, 05, 03, 03,
  F6, FA, FE, 06, 02, 0E, FF, F7, F5, FB, 06, 02, 06, 06, FE, 01,
  00, 0A, FB, F6, 04, 02, 04, 10, 20, 1B, 15, 0E, 04, 04, FF, 01,
  03, 05, FD, F5, F6, FD, 05, 00, 02, 07, 04, 06, FD, 00, F6, FB,
  07, 08, 00, 07, 17, 10, 05, 13, 0F, FE, F9, 02, F4, EB, FE, FB,
  FB, 01, 08, 02, 03, 04, 07, 00, 04, 10, 08, FC, 08, 03, 07, 0B,
  07, 06, 08, 06, FC, FA, FA, F8, FA, FD, 06, 04, 00, 00, 06, 01,
  02, 05, 02, 04, 06, 0E, 0D, 08, 05, 03, F7, F2, 09, 0A, 0C, 0E,
  06, FE, 09, FE, 04, FA, 0A, 05, 05, 02, 03, 05, 02, 04, 03, 04,
  01, 00, FF, FC, F9, 02, E1, E4, E8, F1, F2, F8, F1, F4, FC, 04,
  01, 05, 0E, 0A, 08, 01, 01, 03, 05, 08, 08, 02, 08, 04, FE, 04,
  01, 00, 01, FB, 02, 09, 09, 09, 01, 03, FF, 0A, 04, 07, 0B, 06,
  01, 08, 02, 01, 02, 07, 05, 05, 04, 06, 03, 03, 05, 01, 01, 05,
  03, 06, 00, 00, 03, 07, 06, 07, 03, 07, 06, 00, 02, 04, 01, 07,
  07, 04, 05, 03, 04, 03, 07, 04, 04, 04, FF, 00, 02, 05, 05, 07,
  07, 03, 05, 07, 03, FF, 03, 06, 00, 06, 01, 06, 00, 02, 03, 02,
  01, 05, 03, 02, 07, 07, 03, 01, 00, 05, 00, 01, 01, 00, 02, 07,
  01, 00, FF, 06, 04, FF, 05, 03, 06, 02, 02, 06, 05, 03, 03, 07,
  03, 04, 06, 0E, 0F, F7, FB, F3, FE, 00, 04, 00, FF, 02, 02, 07,
  03, 06, FF, 04, 06, 01, 02, 04, 07, FF, 07, 04, F7, 02, FC, 07,
  FC, E7, DC, E9, F0, EE, F7, FF, FA, FF, 07, 05, 05, 06, FF, 02,
  05, 04, 04, 01, 02, 0A, 08, 0A, 09, 01, FA, F6, FA, FB, F3, F4,
  FD, F1, F8, FA, FD, F5, FD, 00, 04, 06, 00, 05, 00, 04, 01, 04,
  08, 10, 17, 13, 1B, 0A, 00, 00, FF, 0A, 0A, FF, 10, 00, FD, FC,
  E8, F7, F6, FB, F9, 03, 05, 04, FF, 01, 01, 06, 0D, 12, 06, FA,
  07, 08, 09, FA, F9, FF, FB, 09, 0B, 01, F3, FE, F3, 02, F6, F8,
  FE, 03, 00, 05, FF, 03, 05, 10, 0C, FF, FB, F7, EF, 00, 07, FB,
  FD, FB, F5, EE, 02, 04, 04, 04, 09, 0F, FC, F1, F6, FC, FF, FF,
  01, 03, 09, 04, 01, FF, 02, 00, FE, FD, 03, FF, 06, FF, 03, 05,
  03, 00, F8, FA, F8, FE, 07, 06, F2, FB, 05, 06, 06, 07, 09, 0B,
  04, 12, 09, 01, 01, 02, 01, 04, 19, 15, 09, 00, FA, 09, FB, F4,
  00, F6, 05, 09, F5, FE, 04, 00, 05, 04, 0C, 0E, 14, 2C, 12, 03,
  11, 0B, 08, 0D, 06, 07, F1, FB, F7, 04, 07, 00, 02, F9, F6, F3,
  FA, 06, 06, 02, 00, 02, 09, 0A, 1B, 25, 1A, 08, 14, 14, 13, 19,
  F6, D8, CF, E7, F7, FA, FD, FE, 02, FE, F5, F9, FC, 05, 02, 02,
  00, 02, 04, FC, 11, 0D, 07, 09, 1A, 11, 02, E7, C9, B4, D4, F3,
  03, 02, 02, F6, F3, F6, F5, ED, FA, 0B, 02, FF, 02, 00, 05, FD,
  F6, 00, 02, 05, 05, FE, DD, B6, B9, F1, 0A, FF, FE, 02, 02, F1,
  E8, F7, F0, ED, 08, 0D, 08, 08, 04, 06, 07, F6, E4, EC, F4, EC,
  D3, BA, B2, CD, FE, 09, FC, FA, F9, 09, 06, F5, EB, FD, FA, F9,
  02, 0C, 08, 04, 05, 05, 03, F4, D8, D2, D7, CA, A8, B9, D5, 00,
  06, 0E, 08, 01, F5, 06, 07, 02, FE, 0C, 07, FC, 06, 03, 07, 06,
  07, 04, 00, F8, D4, BE, CA, CE, DC, F4, 03, 06, 06, 0A, 02, 00,
  09, 06, 08, 0E, F8, 10, 0D, FF, 01, 05, 07, 01, 03, FF, 04, F7,
  E4, D8, E1, F7, FE, 0F, 04, 06, 03, 08, 00, 02, F7, 05, 08, 0E,
  03, 07, FE, 03, 05, 1E, 06, 06, 07, 01, 02, F9, F5, FE, 01, 1A,
  0A, FC, F6, F7, FB, 03, 00, 08, 07, 09, 08, 0F, 03, 05, 02, 04,
  0B, 0D, 08, 05, 07, 02, 04, F3, 0B, 09, 0F, 0C, 0E, FE, FA, 02,
  FF, 08, 08, 06, 09, 03, F9, 06, 04, FC, F8, FD, F6, 06, 00, FF,
  01, 06, 07, 03, 08, 0D, 0E, 0F, 15, 0F, 07, 07, FF, 04, 01, 06,
  FF, F6, F0, F3, F7, F0, F0, F8, 08, 07, 07, 01, 06, 03, 08, 08,
  05, 03, FE, F9, FC, 05, 08, F7, 04, 05, FF, 00, 09, 01, 02, FD,
  F0, EA, F4, 01, 05, 08, 07, 00, 07, 00, 0B, 01, 03, 0C, 08, FF,
  FA, 04, 03, FC, FA, 05, 02, 04, 03, 0B, 02, 0D, 01, FF, 0A, 0A,
  06, 07, 02, 06, 00, 07, 02, F9, 11, 13, 14, 0D, F1, FD, 00, 03,
  F1, 00, 05, 02, 04, 04, 0C, 02, FF, 00, 03, 03, 03, 03, 07, 05,
  07, 02, 03, FF, 15, 1B, 0C, 05, FE, 02, 03, 02, F8, 00, 08, 00,
  FA, 09, FC, FA, FA, 03, 00, 04, 06, 04, 07, 04, 06, 05, 05, 01,
  0E, 02, 06, 1A, 20, 0D, 01, 07, 1A, F9, F5, 04, 04, FF, FD, 05,
  F5, FD, 02, 00, FF, 02, 04, 02, 03, 03, FF, 06, FE, E6, F2, 07,
  10, 00, FC, F4, F6, 06, 04, 03, F4, F5, 0E, 10, FD, FF, FC, 02,
  05, 07, 04, 05, 02, 07, 05, 04, 03, 05, 03, 05, 02, 0A, 08, 04,
  09, 0B, 07, 05, 05, 07, 03, 01, FC, FE, FF, 05, 03, 02, 04, 07,
  02, 06, 07, 09, 06, 01, 06, 02, 04, 09, 08, 04, 08, 01, 08, 07,
  05, 04, 01, 06, 01, 07, 03, 08, 02, 05, 02, 05, 06, 02, 06, 09,
  01, 06, 08, 02, 07, 03, 04, 03, 02, 07, 05, 00, 04, 01, 04, 08,
  06, 05, 00, 09, 05, 06, 04, 06, 04, 03, 06, 06, 07, 02, 08, 01,
  FF, 00, F9, FB, 01, FE, FE, FC, F9, 06, 07, 06, 07, 02, 00, 01,
  04, 07, 01, 05, 05, 01, 01, 00, 04, 02, 02, FD, F9, FA, F4, F1,
  EC, E3, E7, E3, EC, F0, FE, 0D, 07, 01, FF, 0B, 09, 06, 02, 06,
  09, 08, 08, 06, 02, 02, 05, FB, F6, EC, DB, E8, E0, E0, D9, EC,
  E9, F1, F3, FB, 04, 04, 03, 0B, 06, 04, 01, 07, 03, 04, 03, 04,
  05, 15, 0B, 06, 0A, FB, EE, F8, 05, 09, FF, FB, EF, FD, F2, EC,
  EE, F9, FD, 01, 08, 01, 02, 04, 03, 01, 03, 03, 0A, 16, 12, 08,
  09, 0C, 05, 0D, 0E, 03, FD, 00, 05, 0B, F8, 02, 0B, 09, 0E, 0C,
  06, F4, 02, 03, 06, 08, 0A, 0E, 05, 05, 0F, 0B, 0A, 0F, 0B, 07,
  02, 04, FA, F9, 03, 07, 0A, 04, 07, FD, 11, 0D, 03, F2, FE, 03,
  07, 01, 07, 07, 02, 08, 03, 0D, 17, 18, 04, 06, 07, FA, FB, FE,
  F5, F7, 10, 04, 01, 00, 02, 01, 05, 07, 03, 01, 02, 06, 04, 00,
  04, 07, 09, 07, 05, FD, FC, 09, 0D, F9, F5, F7, F9, FF, 06, 03,
  05, 05, 00, 06, FF, FC, 0E, 0C, 05, 02, 09, F9, 00, 05, 07, FE,
  FB, 00, F5, 08, 09, FB, F5, FF, 01, F9, FD, 01, 01, 02, 0E, F7,
  09, FF, FF, 09, 09, 04, 06, 05, 0F, 0E, 08, 04, 09, 11, 09, 11,
  13, FF, FD, F2, 07, 02, 0A, 03, 03, 00, 07, F1, 01, FE, FA, 06,
  05, 01, 0D, 14, 16, 19, FC, F9, 06, FF, F4, 0C, 06, 00, F8, FD,
  0A, 02, 05, FD, 01, 0C, 08, FF, F7, 00, 04, 02, 04, 04, 06, 0D,
  19, 0D, FD, 08, FC, 02, 09, 09, 00, F7, F3, 0A, 04, FF, 01, 06,
  11, 19, 11, 09, F5, 00, FF, 06, 04, 02, 04, 0D, 1B, 0F, 01, 09,
  00, F8, 03, 04, FC, F6, 01, 11, 02, 07, 05, 19, 0D, 08, 0B, 0C,
  F3, FC, 00, 03, 08, 07, 03, 0C, 0E, F8, 01, 00, F9, F4, 07, FF,
  F1, F9, 0E, 14, 05, 0A, 04, 0A, 08, 0A, 1E, 1A, F8, EE, 05, 01,
  03, 08, 06, 09, 04, FB, 0B, F7, F2, F6, 03, F7, F7, 08, 0E, 10,
  11, 0C, 0A, 0C, 0D, 0E, 07, 09, F3, E8, FC, 01, 07, 02, FF, 03,
  FF, FC, FB, EA, E9, F1, F7, FF, 03, 10, 10, 0C, 06, FF, FC, 01,
  07, 0E, FF, 0D, 0C, 07, 05, 08, 04, 04, 01, 00, F6, F3, EA, EB,
  EE, F1, FA, 03, 08, 01, 05, FD, F1, E6, F0, FB, 06, FA, F6, F1,
  00, 04, 0F, 01, 08, 06, 03, 01, E8, E0, DB, E6, F2, F9, FF, 01,
  FD, F2, F7, EE, E9, ED, E3, EB, ED, E7, DC, E5, F1, FE, 02, 04,
  09, 03, 03, F9, E4, E1, DA, 00, 05, 02, 02, 03, 04, F3, F2, F7,
  F2, E0, D1, EB, F6, F0, F1, F3, F7, F7, 01, 02, 06, 06, 00, FC,
  EA, EE, F1, F7, 04, 08, 07, 06, 09, FA, F8, 00, F7, E7, D9, E8,
  F2, F5, F0, F4, 01, FC, 04, 07, 08, 08, 06, FB, FD, FB, F3, FC,
  04, FF, 06, 05, 10, 00, 0F, 05, FD, D5, D5, E6, E2, E7, EE, FA,
  07, 02, 04, 05, 03, 02, 05, F4, 01, 03, 01, 00, F6, FC, FE, 08,
  12, 0C, 15, 08, 03, D1, D1, E4, E7, EF, 01, 00, 06, 03, 06, 06,
  02, 07, 06, FA, 0D, 17, 0B, FA, F2, ED, F6, 07, 06, 12, 11, 21,
  03, E6, D5, E7, F8, F8, FD, F9, FF, 07, 02, 03, 03, 05, 04, 07,
  0B, 03, 03, 06, 00, F9, FB, 02, FF, FF, 0B, 1C, 0C, FA, F6, F8,
  00, FE, 00, FC, 05, 04, 06, 04, 06, 07, 06, 03, 00, 00, 0A, 0F,
  0E, 0E, 06, F7, FF, 00, 0F, 06, 0C, 04, 01, 02, 03, 05, 04, 05,
  02, 09, 06, 06, 08, 05, 09, 05, 04, 03, 03, 07, 00, 0A, 0A, 04,
  09, 09, 08, 04, 08, 06, 07, 07, 04, 07, 06, 05, 09, 09, 09, 06,
  05, 00, 03, FF, 04, 00, 00, 01, 03, 03, FF, 00, FF, 04, 05, 00,
  03, FE, 01, 00, 01, FD, 01, 02, 03, FD, FD, 01, 04, FD, FE, 04,
  FE, 02, 00, FF, 00, 01, 02, 03, FF, 01, FD, 03, 01, 06, FD, FE,
  03, FF, 03, 00, FF, 01, FD, FD, FD, FF, FD, 03, 05, 02, 01, 01,
  03, 0A, 03, 00, 07, 09, 09, 06, 09, 08, 04, FC, 01, FD, FD, 02,
  02, FD, FE, FE, 03, 05, 03, FE, FF, 00, 01, 00, 02, 09, 0D, 13,
  1B, 24, 26, 0E, 1B, 10, 0B, 0B, 09, F2, F1, FA, FD, 04, 04, 04,
  04, FF, 03, FD, 02, 00, 05, 07, 06, 14, 10, 0C, 0E, 15, 1A, 16,
  16, 17, 11, 08, 0C, FC, FC, E1, E8, F6, 00, FE, 02, 04, 04, 00,
  FC, FA, FB, FB, 03, 02, FE, F2, FA, 07, 05, 09, 12, 04, 11, 09,
  06, 07, 0D, FB, F0, FA, FA, 02, 01, 04, 03, FF, FC, F7, F5, FE,
  01, 0C, 11, FB, FD, FC, FC, F7, 05, 11, 09, 03, 00, 0E, 05, F5,
  F5, F7, FC, 00, 01, FF, 06, 05, F9, F0, EF, F8, 05, 0C, 08, 01,
  FC, 06, 07, 00, 0A, 0D, 0E, 0E, 06, 0E, 0C, F4, E9, F8, FD, FF,
  04, FE, 04, 03, FA, F1, F6, FE, 09, 00, 03, F9, 07, F6, 05, 11,
  18, 19, 10, 09, 09, 0B, 13, FD, DA, EB, FF, 01, FF, 03, 00, FD,
  F8, FF, F5, FC, 01, EF, F6, E8, F6, E4, DE, F7, 1B, 1E, 12, 0E,
  0F, 05, 15, 05, DA, F2, 00, FD, 02, FE, 01, FB, F8, 01, E8, EB,
  F4, E9, ED, E3, DD, E4, DD, EC, 11, 13, 0D, 0B, 19, 0D, 0F, F4,
  E4, F9, FB, FD, FE, 06, FD, FC, EC, EB, E2, E1, DF, F2, F0, F0,
  F0, F5, E4, EE, F5, 0B, 09, 0C, 18, 05, 0D, F2, EC, FB, FB, 01,
  05, 00, FD, FB, DC, D7, E5, F4, F2, FF, 08, FF, 0B, FB, E3, ED,
  FE, 03, FB, FC, 0E, 03, 08, F2, F5, FC, FD, 03, 02, FF, FC, 01,
  EA, FC, FF, 0B, 09, 05, FF, 01, FB, EB, EB, ED, F9, F7, F9, F6,
  02, FA, 08, F6, F8, FD, 05, 01, FE, 02, 01, 04, FA, 10, 08, 19,
  08, 09, F8, F7, F5, F3, F2, F4, F9, FF, FF, 07, FE, 0B, 07, F5,
  F8, F8, 01, 02, FE, FD, 01, FE, 04, 0B, FA, FF, F4, 02, F5, F6,
  E7, EB, F1, F7, FC, 03, 00, 07, FE, 09, F8, F3, FD, 04, 06, FE,
  FD, 04, 00, 0B, 09, 06, ED, F4, 01, FD, FC, F6, EE, EC, ED, FD,
  FE, 07, FE, 07, FC, FD, F8, EC, F9, 06, 07, 03, FD, FF, 06, 0A,
  06, 09, EB, EE, FA, F6, FD, 03, F8, F7, F3, FE, FB, FC, FD, FE,
  F4, FC, 03, EF, EC, 14, 02, 05, FD, 00, 03, 06, 00, FF, F4, FD,
  05, FA, FD, F5, F7, F4, FB, 01, 03, FA, 06, FE, FF, FA, 07, F7,
  FC, 11, 03, 00, 05, FD, FF, 06, 09, FA, FF, 09, 02, FC, FD, 01,
  09, 07, FE, 01, FF, 08, FC, 01, 03, FB, 02, FF, 04, 0C, 01, FE,
  05, FE, FB, 12, 0D, F8, 0A, 0F, FE, 09, 10, 0D, 08, 07, 09, 02,
  02, FC, F2, 03, 02, 07, FF, 04, 09, 06, 02, FF, 00, FD, 06, 0E,
  07, F8, FE, FF, FF, FD, 10, 11, 08, 09, FF, FE, 05, 04, F8, 03,
  FA, 06, 11, 1A, 10, 09, 08, FD, 04, 04, 04, 03, F9, 04, 04, 06,
  00, 0C, 0D, 07, 05, 00, 03, 02, 02, 07, F4, F3, FA, 03, 0D, 1A,
  0A, 04, 04, 01, 01, FD, 04, 01, F3, F5, FD, 13, FF, 0A, 08, 0D,
  0C, FE, F7, FB, F8, 05, 03, FC, F7, 00, 0F, 0C, 04, 05, 03, 01,
  02, 01, FC, 02, 0B, 08, 00, FD, FC, F4, F1, FD, 0C, 04, FD, 03,
  F6, FE, FA, E7, E9, FC, F8, FF, 05, FD, FE, FE, FF, 02, FF, 00,
  09, 02, FF, 0B, 10, 0C, 09, 13, 15, 06, 07, 0B, 07, FF, FB, F5,
  FA, FE, FF, 00, FE, 01, 03, FF, 03, 03, 03, FF, F9, F1, F3, 03,
  09, 02, 05, 06, 08, 07, 18, 1D, 1C, 10, 06, 02, 03, 04, 02, FF,
  04, FF, 01, 03, 01, FD, FF, 02, FF, FF, 02, 00, 01, 04, 01, 04,
  04, 08, 05, FF, 06, 03, 00, 04, 01, 03, 04, 00, 02, FF, FF, 03,
  01, 02, 07, 02, 08, 06, 01, 05, 01, 01, 08, 08, 07, 04, 08, 03,
  06, 05, 03, 03, 08, 07, 07, 04, 07, 02, 08, 02, 07, 04, 03, 07,
  03, 08, 01, 03, 01, 08, 02, 05, 0D, 0B, 05, 06, 0B, 09, 09, 04,
  05, 0A, 06, 06, 04, 01, 08, 01, 02, 05, 02, 01, 06, 03, 08, 08,
  02, 01, 04, 15, 17, 0E, 15, 17, 19, 13, 13, 0F, 14, 0E, 0E, 0C,
  02, 07, 06, 00, 00, 01, 05, 01, 08, 07, 07, 02, 00, FE, 00, 0A,
  07, 18, 1B, 14, 0D, 13, 1E, 0E, 09, 1C, 16, 0C, 06, FF, 04, 07,
  08, 08, 01, 01, 03, 02, 05, FD, FD, FA, F4, F4, 04, FE, FD, 06,
  09, 07, 03, 07, 0C, 14, 07, F8, FE, FE, 04, 03, 01, 01, 02, 04,
  FE, 01, FD, FD, F4, E6, EF, 13, 06, FB, F6, F6, FD, 07, 05, 12,
  0A, FC, F7, F4, FC, 02, 06, 05, 04, 05, 00, 01, 02, FD, F8, F9,
  F1, E3, F0, FD, FE, 01, 09, 0B, 0F, 13, 05, 06, 06, F7, F8, 00,
  F7, 07, 05, 02, 04, 05, 07, FF, FC, FE, F0, EC, EA, EF, FD, F7,
  0C, 07, 01, 17, 0A, 0D, 0A, F4, FF, 06, 07, FE, FB, FE, 00, 07,
  03, 07, 04, FE, FB, FA, 01, EC, F3, F6, FC, 0B, 13, 11, FC, F9,
  FB, FD, FB, F7, ED, 01, FE, F9, FE, 05, 06, 07, 03, 02, 00, FA,
  F4, F1, 07, F9, F7, 08, 09, FF, 01, 07, F3, E0, EA, F3, EA, F4,
  F3, F5, F7, FC, FF, FD, 01, F6, 04, 06, 01, FA, F3, EF, FF, 00,
  05, 08, 03, F3, FC, FB, F7, DE, E1, F9, 03, F6, 06, FF, F7, 01,
  F7, F2, F7, 01, 06, 05, FF, F0, EC, F9, 02, 11, 0E, 07, F8, F9,
  0D, 07, 09, F7, F2, 02, 04, 05, 16, 04, F6, 0B, 07, 02, 06, 00,
  06, 07, 03, F2, EF, 04, 11, 06, 05, 12, FE, 14, 0D, 10, 05, FF,
  02, 0F, 03, 07, 0E, 07, 12, 20, 0A, FA, FA, FD, 06, 03, 01, F9,
  F9, F1, F5, 02, 02, 08, 07, 0A, 04, 06, FE, 07, 05, FC, FA, FC,
  09, 09, 0B, FF, FF, F5, F9, FD, 02, 06, 02, FA, FF, FD, F5, FE,
  F6, F1, 09, 07, F4, 08, 0C, 04, FF, FB, F7, EC, F1, 02, 0B, EC,
  F3, 04, FD, 05, 03, 01, 02, FF, F7, 04, 09, 00, F9, F5, 04, FB,
  03, 14, 09, 01, FE, F4, F4, F4, F4, 09, 00, F7, FA, FF, FD, 02,
  02, 03, 02, 02, F8, F9, 08, F7, 01, 08, 00, 0C, 13, 07, 02, F5,
  FD, F6, FE, F7, E9, EC, 04, 08, FE, F9, FF, FC, 06, 08, 04, FF,
  F5, F6, FE, FA, 03, 08, 11, 13, 13, F9, F1, F8, 04, 00, F8, F6,
  F7, FB, FF, 0A, FB, ED, FC, 02, 05, 04, 00, FC, F2, F7, FF, FB,
  04, 14, 1C, 0F, 07, ED, EB, 03, 04, 01, F8, F8, FC, FB, F6, F4,
  F1, FC, 03, 04, 03, 04, 04, F9, EF, FD, F5, 01, 12, 11, 16, FC,
  FB, EF, F5, 0B, 08, 00, 04, FD, FC, FB, F6, F7, F1, FD, 04, 06,
  06, 05, 05, F5, F1, 00, F0, F6, FE, 01, 08, 05, 04, F9, F6, 09,
  FB, 08, 07, 05, FD, 05, FD, F1, F7, FF, FF, 04, 06, 04, 00, FA,
  F5, FC, FF, F6, ED, 05, 06, 03, 08, 0C, 00, F6, EE, 05, 00, FD,
  F1, EF, FA, F0, F7, 00, 06, 06, 08, 09, 01, 01, 04, FD, FD, F7,
  E6, F7, 01, 04, 0B, 12, 05, 0A, F5, FF, 03, F2, ED, F0, F6, F9,
  01, 03, 07, 05, 06, 05, 05, FF, FC, 08, FD, FA, 02, FD, FE, FE,
  08, 14, 11, 09, 04, 01, 08, FD, F1, F6, FA, 02, FF, 03, 02, 03,
  00, 05, 04, 07, FF, F7, FB, FE, 0F, 0F, 07, 0E, 0B, 15, 10, 10,
  17, 0A, 1C, FD, FB, 04, 03, 01, 07, 06, 00, 05, 01, 04, 04, 00,
  01, F8, FC, FB, F6, 0B, 18, 14, 08, 09, 1E, 1D, 1F, 33, 29, 0D,
  0C, 06, 03, 05, 02, 05, 05, 03, 02, 03, 05, 05, 04, 02, 06, 0D,
  0D, 10, 05, 0F, 1A, 0F, 20, 09, 0A, 1D, 1F, 06, 07, 04, 05, 04,
  01, 02, 02, 07, 04, 01, 08, 06, 07, 04, 01, 03, 06, 05, 02, 07,
  05, FE, 08, 0D, 04, 04, 02, 06, 08, 04, 00, 07, 01, 01, 04, 00,
  04, FE, 00, 05, 02, 04, 04, FF, FF, FF, 01, 05, 02, 06, 04, FE,
  04, 05, 01, FF, 02, 04, 05, 04, 02, 05, 01, 04, 00, 03, 04, 06,
  04, FF, 03, FE, 04, 00, 03, 02, 05, 01, 00, 03, 04, 05, FF, FF,
  04, 06, 06, 05, FF, 06, 03, 06, 03, 03, 06, FF, 02, 02, 02, 02,
  00, FD, FE, 05, 01, 07, 07, 15, 13, 0B, 0A, 06, 0A, 04, 04, 06,
  00, 01, 04, 02, 00, 00, 06, 01, 02, 09, 04, 06, 05, FF, F8, F0,
  F6, F9, 02, 16, 17, 12, 11, 03, 0C, 06, F7, FA, FE, 03, 04, FE,
  00, FF, FF, 06, 09, 0B, 08, 09, 00, 00, 00, 05, FD, FB, FD, 10,
  FD, F6, 04, 04, 0C, 14, 06, FD, 03, 06, 06, 04, 00, 04, 00, 09,
  09, 0D, 0A, FF, FE, 03, F6, 0A, FD, 05, 01, 0C, 04, 02, 00, 07,
  FF, 03, 06, 0D, 09, 01, 00, 06, FF, 04, 04, 00, 04, FE, 02, 0A,
  10, FF, FF, 03, 02, 0C, 01, FD, 04, 03, FD, FA, F5, F7, FF, 04,
  0C, 05, 03, FE, 03, 00, FD, 03, 02, 01, 00, FE, 00, FC, 00, FB,
  0B, 08, 0D, 04, 09, 06, FC, 00, 01, FE, FD, 00, 0F, 08, 01, 03,
  00, 06, 00, FE, FD, 06, 04, F7, FA, 03, 01, FF, FD, 02, FC, 0B,
  01, 00, FE, FA, FE, 06, FF, F9, 0B, 0C, 05, 07, 05, 02, F7, 01,
  09, 03, 0A, 09, 07, F9, 03, 04, 02, FE, FF, 01, FC, FB, F2, F8,
  00, 04, 0C, FA, 10, 10, 02, 01, 02, 01, F9, 0F, 06, F9, FE, 07,
  01, FC, 04, 0A, 00, 01, 0B, FF, FB, FE, 06, 00, 01, 03, FC, 04,
  17, 12, 04, 04, FF, 01, FA, 08, 04, FA, F9, FB, 06, F9, 01, F8,
  F8, 03, 07, FF, FE, 07, 0F, 06, 0F, FE, F6, F7, 03, 07, 00, 04,
  FE, FD, 00, F5, F8, 00, F6, 00, 03, FE, 09, FD, FC, 0D, 0F, 0C,
  02, 01, 08, F7, 0A, 03, F4, F0, F3, 04, 01, 06, FF, 00, 01, FB,
  F8, FF, FD, 05, 07, 03, 00, 02, 09, 15, 10, 0A, 05, 00, FD, FB,
  F7, 00, F3, E3, F0, 01, 02, 02, 05, 05, 00, FA, EA, E1, F8, 0B,
  00, FB, 01, 04, 18, 09, 06, 04, FA, F8, F6, EF, F1, FF, 02, FA,
  FA, F7, FF, 01, FF, 01, 03, FA, DE, CF, E8, DE, EE, 00, 0C, 13,
  1A, 12, 05, FF, 00, FD, FD, FE, F4, 05, 07, 06, F7, FB, 05, 02,
  FF, 06, 07, FC, DD, D9, D1, BA, AF, D2, F4, 01, 0C, 0D, FD, F6,
  FB, FD, 09, 05, 03, FC, FF, FD, 00, F7, FD, 04, 02, FF, 03, 05,
  ED, E9, E1, CE, A9, 90, 81, 89, AF, D5, EC, F5, F9, 01, FC, F9,
  00, 00, F9, F7, F5, F6, 03, 04, 00, FF, 06, 0E, 01, F1, 07, F9,
  E7, D0, C3, BB, BB, D8, EF, FA, FA, F9, F6, FE, 03, 08, FC, F3,
  F0, F6, 04, 03, 02, 00, 05, 12, 07, 06, 11, 0B, 0F, 16, 0F, 02,
  F5, EE, EE, F3, F4, F5, FD, FB, 05, 0F, 02, 07, 00, FF, FF, 02,
  00, 04, 02, 08, 07, 0E, 11, 06, 15, 1E, 1B, 1A, 06, 00, 00, F8,
  F2, FF, 02, FC, 01, 03, 0C, 07, 01, 00, 02, 03, FE, 00, FC, 01,
  0D, 0C, 09, 06, 0D, 09, 0B, 07, 0B, 06, FF, FC, F4, F4, FB, FA,
  FC, FC, FB, 00, F8, FD, FE, 01, FE, FE, FD, 02, 09, 03, FE, F9,
  FD, 05, 0B, 07, 0D, 07, 09, 00, F3, F2, F6, F8, FC, FF, FE, FF,
  F8, FD, 01, 02, 06, 06, 02, 19, 17, 1D, 03, FA, 00, 01, 07, 0C,
  05, 0A, 03, F9, FC, F5, 04, F5, 04, FE, F4, FD, FF, FD, 05, 02,
  01, 03, 01, 0B, 13, 20, 0B, 0D, 08, 04, 0A, 04, 03, 08, F9, 00,
  03, 06, FB, E9, F6, F8, FB, 02, FF, FD, 05, 03, 06, FF, 02, 01,
  04, 11, 0C, 0F, 06, 01, 03, FB, FC, 04, FB, FD, 08, 07, 06, 01,
  02, FC, FD, 01, 04, 05, 03, 05, 00, FE, FF, 04, 05, 0E, 06, FA,
  F6, 05, 09, 07, 03, 03, 0A, FE, 0B, 11, 0F, 03, 05, 07, 04, 03,
  06, 06, FE, FF, 00, 00, 04, 00, 01, 06, 02, FF, FF, 02, 02, 02,
  02, FA, FB, 08, 02, FC, FB, FB, FE, 03, 04, 06, 04, 02, 01, FF,
  04, 02, 01, 04, 08, 04, 04, 09, 01, 03, 05, 08, 02, 08, 04, 07,
  07, 01, 07, 08, 07, 09, 02, 05, 08, 01, 04, 09, 07, 08, 05, 04,
  09, 02, 01, 01, FE, 00, FF, 03, 02, FD, 04, 01, FE, 00, 03, 04,
  FE, FF, 00, 02, 02, 06, 04, 08, 05, 06, 03, 05, 04, 04, FE, FA,
  F6, F9, FA, F9, F4, F8, F0, F5, F4, F8, F4, F6, F2, F6, F3, 01,
  05, 06, 03, 02, 02, 08, 04, 05, 04, 03, FA, F9, ED, ED, FB, FF,
  FB, E6, EA, F4, FB, FA, F2, EB, F3, EC, F1, F4, FF, 04, 05, 09,
  02, 09, 08, 03, 07, FE, F5, F9, FA, F8, FA, F7, 07, F8, EE, 03,
  01, FD, 04, F7, F6, F2, EF, F3, 08, FE, 00, 03, 09, 06, 02, 06,
  03, FF, 00, 07, 0F, 06, 04, 00, 00, F2, 05, 07, 01, 05, 03, F6,
  FA, FF, 03, 09, 0B, 00, 05, 04, 07, 05, 03, 0E, 0A, 12, 14, 0D,
  0E, 07, F3, F1, F0, F8, 00, F4, F3, 04, F2, F4, 04, 03, 0F, 0E,
  0C, 0B, 0E, 04, 01, 05, 05, 0A, 08, 11, 0F, FA, F5, EB, ED, FF,
  F0, FC, FA, F2, F2, 04, FB, FC, 04, FA, 0A, 04, 0E, 0A, 0C, 08,
  01, 06, 01, 0D, 03, 11, 01, FC, F0, F6, F8, FD, F6, FA, ED, FB,
  F5, FD, 00, FC, 02, FB, F7, F8, 03, 0B, 07, 02, 04, 08, 06, 08,
  01, FC, F6, F8, F4, F6, F8, F0, F4, FC, ED, F6, F9, FD, 06, 03,
  0A, 07, F6, F5, F6, 04, 0B, 07, 08, 04, FF, 0A, F9, F3, F0, F8,
  F4, F4, F9, F7, FC, FA, EC, 06, FD, 0B, 08, 02, 01, FF, FD, F5,
  F7, 03, 01, 09, 06, 08, 01, FE, E7, EC, FC, F8, FF, 01, 03, FA,
  00, F8, FE, 01, 0C, 0C, FB, 03, F0, F1, FD, EF, EC, FC, 06, 03,
  03, 03, 00, FD, E7, F0, 01, FD, 0D, 0E, 17, 0B, 21, 14, 0A, FE,
  FD, FA, F9, FD, F0, F8, FF, EA, F8, 01, 00, 05, 05, 03, 01, FC,
  F2, F9, 13, 16, 0C, 0C, 14, 10, 15, 02, F6, 02, FE, 07, 02, F5,
  01, F9, 02, F6, 06, 04, FF, 05, 07, 00, 05, 06, F7, 15, 1D, 1A,
  04, 0F, 02, 00, 0B, FA, FC, 02, 0A, 0B, FB, FD, 09, FF, 03, 02,
  11, 0F, 07, 04, 03, 01, 04, 05, FD, 12, 07, 08, 03, 03, 08, 08,
  10, 00, 06, 0B, 0B, 0C, 02, 0A, 0E, 06, 0D, 1B, 0E, 0C, 14, 03,
  02, 07, 05, 04, FE, 0C, FF, 00, 04, FF, FD, 09, 0D, 05, 04, 17,
  12, 13, 15, 11, 1C, 0F, F9, 14, 08, 07, 11, 09, 03, 09, 06, 0C,
  03, FE, F7, 06, 05, F7, F6, FF, 01, 05, 12, 16, 14, 0E, 1D, 01,
  0C, 0C, F3, 07, F4, 02, 02, 08, 00, 02, 02, 15, 0F, FE, 02, FB,
  07, 06, F5, 00, FD, 08, 0E, 0F, 0B, FC, FF, F8, FE, 06, EA, EF,
  F5, FD, 05, 01, 09, 04, 0A, 1A, 15, 12, 03, 07, 00, F8, F4, FB,
  E7, FA, 00, FA, F4, EC, F5, EC, ED, 05, EB, F0, 03, 02, 06, 09,
  08, 03, 07, 1D, 19, 09, F2, FE, F9, F9, F1, F2, F8, ED, EF, EB,
  FB, F5, 08, FC, FA, 05, F4, F2, 02, 00, 08, 01, 01, 05, 03, 17,
  0F, 07, F6, F9, 03, FA, FB, FB, FB, F0, E9, F5, FD, F7, FD, 04,
  00, 09, 00, 00, 06, 01, 06, 06, 07, 06, 06, 0E, FB, FC, 04, 03,
  F9, FB, FB, FF, F1, F4, EC, F7, FA, F2, EF, 00, 07, 0A, FE, 03,
  06, 02, 08, 04, 09, 05, 06, 06, FC, FB, FE, 0A, 04, FE, 02, FE,
  F2, FB, FB, EF, F6, F0, EF, F9, FD, 03, FA, FD, FE, 04, 05, 09,
  03, 03, 02, 03, FE, FE, FD, F2, F8, FE, F2, F7, ED, 01, 05, F3,
  F7, F1, FB, FA, 09, 11, 0C, FC, 02, 06, 08, 03, 01, 08, 06, 04,
  02, 02, F7, F0, FA, F2, F8, FC, E3, F5, F0, F0, E9, E2, ED, DD,
  EE, F3, FB, FB, 00, 05, 05, 01, 05, 07, 06, 06, 04, 01, FC, F8,
  EF, F3, F0, F5, F4, EF, E3, DE, EA, F0, F0, EF, F6, 00, 03, 03,
  04, 02, 04, 01, 03, 02, 05, 07, 02, 03, 02, FA, FC, 01, 01, 03,
  FD, 02, FA, 03, FE, 03, FF, 00, 03, 08, 02, 02, 07, 05, 02, 04,
  FE, 00, 01, FE, FE, FE, 00, 05, 04, 00, 05, 05, FF, FE, 01, FD,
  03, FD, 00, FE, 00, FE, 04, 02, 05, FE, 05, 06, 01, 01, 00, 04,
  FF, 02, 02, 03, 01, 00, 05, 01, 04, 05, 02, 01, FE, 00, FE, FD,
  FF, 05, 02, FD, FF, 01, FD, FF, FE, 05, 03, 04, FE, 01, 03, 05,
  03, 05, 06, FD, 04, 02, FD, 01, FD, 00, FF, 01, 00, 05, 04, 00,
  FF, 02, 00, 01, FD, 02, 04, 05, 00, 00, 00, 01, FE, 01, 03, 03,
  03, FE, 01, 05, 00, 05, 05, FF, FD, 03, FE, 02, FD, FE, 00, FE,
  05, 04, 01, 05, 05, 02, 05, 05, 00, 02, 04, 02, 03, 02, 04, FC,
  FE, FD, FD, 03, 00, 03, 00, FF, FE, 01, 03, 01, 05, 00, FF, 03,
  00, 00, 03, FF, 02, 03, FF, 04, 01, 00, FF, FC, 04, 04, FD, FD,
  02, 00, 01, 01, FE, 04, 03, FF, 01, 04, 00, FF, 02, FF, 03, FF,
  05, FE, FF, FE, 02, FE, FD, FE, FD, 02, FC, FD, FF, FD, 04, FE,
  02, 04, 03, FF, 00, 04, 02, 03, 01, FF, 00, 03, FF, 02, 01, FC,
  FD, 02, FE, FF, 02, FF, FB, FE, FE, 02, 01, 03, 05, 01, 05, 04,
  04, 02, 05, 01, FE, 03, 02, 03, FE, FE, FF, 01, 03, 03, 03, 01,
  FF, 03, FF, 00, FF, FD, 00, FF, FF, 01, FE, 00, 03, FE, 00, FF,
  00, 03, 01, 02, 01, FE, 00, 03, FD, FD, FE, 04, 00, 03, FE, FF,
  FF, 00, FE, FF, 00, 02, 05, FD, FF, 00, 05, 04, 00, FD, FE, 03,
  03, 02, FE, 03, 03, 02, 03, FE, 00, 03, FE, 01, 00, 03, 02, 04,
  FD, 00, FD, 05, 02, 00, FE, FE, 04, FF, FD, FD, FB, FE, FF, FD,
  FB, 01, FB, 03, 01, FC, 02, FD, 03, 03, 00, 04, 03, 01, FE, 03,
  FF, 04, 02, 02, 02, FE, 02, 03, FE, FF, 00, 02, FF, 03, 00, 00,
  01, 03, FB, FF, FF, FD, 00, FC, 02, FE, 02, 01, 01, 00, FE, 00,
  02, 04, FE, 01, 02, FD, 01, 00, FE, 00, 02, FB, FF, FB, 03, 00,
  FC, 00, FE, 03, 05, 00, 03, FE, 03, 01, 05, 00, 03, 00, FE, FC,
  FE, 01, 04, FF, FC, 01, 01, FF, 01, FD, 02, FC, FF, FD, 02, 04,
  02, FF, 03, FE, 05, FF, FD, 05, 02, 02, FF, 00, FF, 01, 00, 00,
  FB, 01, 01, 01, 02, FD, FD, FD, 01, 01, 00, 03, FD, 01, 02, FE,
  01, 02, 02, 04, 00, FE, FC, 00, FD, 00, FD, 01, 01, FF, 01, 02,
  FF, 04, FD, 02, 04, 03, FF, 04, 00, 01, FD, 06, 00, 05, 02, FE,
  FF, FF, FE, 02, 00, 00, 02, 03, 00, 00, FF, FB, FC, 04, FD, 00,
  FE, FF, FD, 01, 01, 02, FE, 05, 01, 02, 04, 02, 00, 02, 02, FF,
  FF, 01, FE, FE, 03, FD, FC, FD, FF, 02, FE, FD, 03, FE, 04, 03,
  FE, FF, 06, FF, 02, 01, 03, 03, 03, FE, 04, FE, FF, 04, FD, 02,
  02, 02, 01, 00, FF, 00, 01, FE, FE, FF, FF, FD, 02, FE, FF, 01,
  02, 05, 02, 03, 02, 04, 03, 02, 01, 01, FC, 01, FD, FC, 01, 00,
  00, FE, FE, 01, 01, 04, FD, 02, 05, FD, 01, FF, 01, 04, FD, 02,
  FF, FE, 01, 06, 02, 02, FD, FC, FC, 03, 02, FC, 03, FF, 04, FD,
  02, 03, 01, 01, 02, 01, 02, 02, FE, 03, FD, 02, 03, 03, 01, 04,
  FD, FC, 04, 00, 00, FE, FF, FB, 03, 01, 01, 03, 04, 00, 01, 00,
  05, 00, 03, 01, 00, 05, 04, 01, FD, 02, 02, FF, 02, FE, 04, 00,
  FD, FF, FF, 02, 02, FF, 03, 02, 04, 04, 03, 02, FE, FF, 00, 04,
  FF, FF, FF, 02, 04, 03, 05, FE, 05, FD, 04, FD, FE, FC, FE, FC,
  03, FD, FD, FC, FF, 00, 02, 03, 01, FF, FE, 02, 05, 01, 03, 00,
  FF, 04, FF, 01, 05, FE, 03, 04, 04, 00, FF, FE, 00, 00, 03, FF,
  00, FF, 01, FF, 00, 03, FE, 03, FE, 03, 05, FE, 01, 00, 05, 04,
  FF, FE, FE, 05, 01, FE, 02, FC, 05, 03, 01, 01, 01, 04, 01, 00,
  02, 00, 05, 04, FE, 02, 05, FF, 01, 01, 04, 03, 01, 04, 04, 00,
  04, 05, FF, 04, FD, 01, 01, 03, 00, FE, 05, FE, 00, 03, 02, 04,
  07, 05, 05, 01, 01, 02, 00, 07, 09, 02, 01, 06, 08, 07, 04, 00,
  06, 05, 01, 09, 07, 01, 02, 07, 00, 06, 02, 03, 03, 06, 01, 04,
  01, 01, 02, 06, 0A, 08, 07, 06, 09, FF, FF, 08, 07, 05, 03, 05,
  02, 03, 03, 03, 01, 07, 02, 01, 05, 02, 02, 02, 02, 02, 05, 03,
  0A, 0B, 0C, 0C, 0A, 08, 10, 12, 0F, 05, 02, 06, 06, 08, 07, 01,
  02, 07, 00, 08, 03, 07, 06, 01, 04, 04, 06, FF, F3, 05, FE, FB,
  EC, E6, EA, EC, F1, E8, E7, FB, E8, F7, F9, 04, 06, 02, 03, 06,
  02, 07, 04, 06, FD, 00, 02, FB, 01, 10, 10, F6, 00, FE, 01, FD,
  05, 04, FC, FD, F8, EA, ED, ED, F1, FC, 05, 07, 06, 03, 09, 04,
  06, 04, 08, FD, 00, FA, FA, FD, FE, F7, 02, 02, F9, F7, FD, 04,
  09, 0A, 02, F3, EC, F6, 03, 08, 07, 06, FE, 07, 03, FD, 01, FF,
  EB, F1, FE, 0C, FE, F4, FC, 00, 07, 01, 0B, 04, FA, 0A, 0B, F3,
  F1, FF, 04, 08, 04, 01, 01, FE, FE, EF, F0, F4, F8, F5, FE, 0A,
  F5, FA, 02, 00, 05, 00, FF, 01, 05, 09, 0A, F0, EE, F3, 03, 07,
  08, 04, 04, FC, FE, EA, F3, F4, F8, FE, 0A, 09, F1, F0, 01, 03,
  08, 07, F4, 06, 05, FD, 04, F5, E9, F8, 00, 08, 05, 02, 01, FE,
  F1, EB, F2, FC, FE, FE, 05, 06, FE, EF, EB, FF, 12, FF, 02, F9,
  FE, F2, FD, F3, E9, F5, 03, 06, 05, 08, 05, FD, EE, F5, 00, 00,
  F6, 00, 03, 0C, 03, F0, E8, 00, 05, 01, F9, F9, F6, FA, E4, EA,
  EE, FD, 05, 01, 03, 05, 01, 00, EF, F4, EB, DE, EF, F2, ED, F6,
  EB, EB, F0, F3, F6, E7, F1, FA, FC, EE, E6, E7, E8, 07, FE, 00,
  05, 03, 06, FE, F2, E9, C8, C6, E7, DC, D2, F2, DE, DB, E8, E6,
  ED, EF, EB, E3, F3, F6, EA, E5, FB, 11, 08, 04, 08, FF, 04, 03,
  F1, DD, DA, DD, F1, E8, E8, F2, EC, FA, F0, EC, F8, EE, E9, EA,
  F2, F0, ED, F5, 03, 14, 16, 08, 09, 07, 02, FF, F4, E3, F1, 07,
  FF, FE, F7, FD, F9, F1, FB, F7, FA, F1, F0, F9, E2, EA, F9, FE,
  0D, 11, 16, 02, 02, 01, 07, 0A, F5, F2, FD, FD, 06, 0C, 06, 13,
  05, 0F, 0A, 04, FC, F7, F9, F5, EB, F2, F4, FD, 12, 1B, 16, 0D,
  02, 07, 08, 0A, 00, 02, 06, 06, FF, 14, 11, 14, 04, 18, 0C, 08,
  04, FF, F9, F6, F5, 0F, 0E, 11, 12, 24, 1E, 11, 02, 00, 01, 06,
  01, 03, 13, 02, 03, 09, 04, 0D, 0E, 0A, 07, FB, F9, F8, 01, F5,
  01, 10, 18, 09, FF, 25, 0B, 0A, 07, 08, FC, 0D, 16, 07, 09, 0A,
  11, 07, 03, FC, 09, 0A, 05, F1, 03, FF, 04, 02, 03, 11, 0E, 13,
  11, 2A, 0A, 09, 03, 00, FF, 06, 0B, 02, 01, 0C, 09, 08, 0C, 0C,
  09, 0C, F0, FC, 0B, 10, 0E, FF, 0C, 04, 09, 1C, 06, 24, 10, 02,
  04, 05, 00, 07, 10, F7, FF, 12, 1B, 0D, 14, 18, 10, F7, FC, FD,
  06, 08, 1B, 12, 0D, 05, 0A, 12, 13, 0D, 0A, 08, 04, 02, 02, 05,
  11, 0B, F8, 09, 0C, 0B, 06, 03, FE, F3, F7, F9, FB, 01, 0C, 11,
  16, 09, 03, 14, 13, 04, 04, 05, 03, 03, 01, 03, 01, 21, FE, F6,
  02, 06, 01, FF, FF, F5, F5, EE, EE, F3, 08, 12, 11, 10, 00, 00,
  FE, FC, 03, 05, 04, 02, 03, F5, E8, 09, FE, F4, FC, F9, FE, 0B,
  0E, FA, ED, F3, F4, EA, 01, FE, FC, F2, FD, F2, F7, FD, 03, 04,
  07, 03, 02, F8, F9, FF, F4, F6, F9, EB, ED, F4, F9, DF, E3, DF,
  DA, D7, E1, DD, DC, D7, E4, EA, 03, 01, 04, 03, 07, 05, 06, 01,
  04, 01, 05, 01, F1, E4, 02, 02, 00, FD, F3, ED, EF, F6, E6, E1,
  EB, F5, 04, 01, 07, 08, 04, 03, 08, 01, 01, 01, 01, FE, FF, 04,
  07, 04, 06, 07, 01, FF, FE, 01, 04, 01, 03, 07, 07, 03, FE, 06,
  06, 07, 00, 08, 08, 08, 06, 03, 03, 05, 01, 06, 01, 08, 06, 06,
  09, 05, 04, 00, 06, 06, 08, 06, 03, 07, 04, 03, 07, 06, 08, 03,
  07, 05, 08, 02, 03, 07, 05, 02, 04, 00, 07, 01, 06, 04, 04, 07,
  02, 06, 00, FF, 01, 06, 03, 06, 01, 00, 00, 04, 04, 00, 07, 04,
  05, 07, 00, FB, 01, 02, 04, FD, FE, F8, 05, FF, 03, 05, FF, 03,
  FC, FE, FC, 04, 03, 02, 01, 03, 07, 05, 03, 02, 07, 00, FB, FB,
  F8, FF, F9, F2, EC, F0, F3, FB, 06, 04, FD, F9, F2, F2, F2, FE,
  04, 01, 03, 07, 03, 08, 07, 06, 07, 02, F8, FC, F5, EC, F5, EB,
  EB, EF, F9, 07, 08, 14, 14, 0C, 0B, FF, F4, ED, FA, 00, 02, 00,
  04, 01, 07, 02, 04, 01, F9, FD, FB, FA, FE, F5, FF, F9, EC, FB,
  03, FE, 03, 0B, 03, 07, FA, FF, 05, 00, FA, 02, 03, 05, 02, 02,
  FB, 05, 0A, 08, 05, 0B, 09, FD, F4, DC, EC, F3, F8, 0D, 10, 02,
  01, FB, 04, 10, FE, F2, 00, 03, 06, 04, 04, 01, FB, 10, 11, 06,
  05, 13, F7, EA, EF, EC, E6, E2, EE, FB, FE, 02, F7, FD, 05, 14,
  06, 01, 0A, 01, 04, 08, FF, 04, FC, 10, 0E, 0B, 01, 06, 09, 05,
  F6, E9, E4, DD, F7, 03, FA, 00, FD, FC, 10, 0E, 07, 07, 08, 01,
  08, 02, 04, 03, F7, 00, F7, 05, F9, 06, FF, 05, FB, EF, DE, EF,
  FC, 0D, FF, 05, 00, 06, 13, 1C, 1F, 26, 08, 01, 01, 03, 06, 00,
  F0, 05, ED, F4, FD, FA, 04, 04, 04, F5, D6, E6, 0C, 06, 01, 00,
  0F, 0B, 07, 00, 1A, 2B, 0F, 04, 01, 03, 03, 09, 01, FE, F1, 02,
  02, F9, 06, 0A, 06, F0, CA, FE, 12, 0F, 04, FF, 00, 0C, F6, F9,
  1D, 2E, 16, 06, 03, 07, 02, 05, F8, F6, ED, F5, 04, F2, FC, FE,
  FC, DF, D0, EC, 09, 07, 05, F5, E9, FC, F9, F4, 02, 19, 13, 00,
  00, 06, 01, 04, EC, F1, F6, F8, 01, F5, 09, 09, 02, E3, DA, E9,
  F0, E7, E9, F8, F3, F3, FC, BC, DF, FE, 08, 02, 00, 03, FF, 01,
  EC, FE, 09, 03, 06, 05, 16, 23, 1A, FB, EB, F5, ED, F2, F5, ED,
  FB, FB, F0, DC, F2, 06, 06, 04, 02, FF, FE, 01, 0A, 15, 02, 0B,
  10, 1B, 1E, 1E, 1B, 00, FF, 02, 00, 06, F3, F3, F4, F5, F8, FB,
  02, 05, 06, 07, 03, 02, 03, 0B, 14, 12, 0A, 10, 19, 14, 0F, 0B,
  0F, 04, 01, F9, FE, 07, 03, FD, F5, FC, FB, 08, 09, 00, 0B, 02,
  00, 01, 04, 10, FE, FE, 00, 12, 06, 07, 03, 06, 14, 07, 01, 0A,
  02, 0B, 05, 05, 0A, 12, 00, FC, FC, FE, 0D, 04, 06, 05, 05, 0C,
  0B, 07, 0C, 0A, FF, 11, 0B, F8, F9, FA, 01, 0B, 0E, 0B, 16, FD,
  03, 08, F8, F9, EE, 01, 04, 01, 00, 02, 03, 18, FB, 02, 08, FF,
  02, 0F, 02, FA, FD, 02, 08, 06, 0D, FF, 03, 02, 04, F7, E4, FB,
  03, 00, 06, 08, 06, 08, 02, 1C, 06, FF, FD, 06, 00, FE, FD, F7,
  F2, FD, 05, 03, FB, FC, 03, FF, 00, F9, F6, 00, 0D, 0B, 0B, 01,
  07, 01, 02, 0E, 11, FC, F6, F3, F9, FC, EE, F5, FB, F4, F2, EF,
  EF, F7, 00, FF, 06, 06, FE, FE, 03, 06, 05, 07, 07, 04, 05, 06,
  0A, 03, FB, EC, EB, EA, DF, EC, F2, EC, EE, FC, F9, F7, FB, 0A,
  14, 14, FF, 06, 0E, 0D, 02, 00, 00, 07, 02, 0A, 03, FF, 00, F2,
  E5, E9, F1, 05, FE, F9, F2, FD, F3, F7, FC, 03, 01, 13, 05, 0F,
  0F, 04, 03, 00, 02, 06, 07, 03, 02, 01, F7, F4, FC, 06, 07, 04,
  FF, 05, 07, FE, FD, F7, FD, FC, F1, FF, F8, FD, 03, 09, 06, 00,
  05, 06, 04, 03, 04, 06, F3, EA, EC, FA, 04, 02, 01, 16, 0C, 0C,
  0A, 08, FE, FF, F7, F6, F0, F3, 0C, 03, 03, 02, 07, 06, 02, 00,
  02, F5, E9, ED, EA, E6, E9, F8, F3, F8, EC, EF, F7, EA, F0, E9,
  E3, F1, F7, 00, 08, 06, 02, 02, 07, 07, 06, 05, 00, FA, F6, EC,
  E5, EC, E8, E7, E9, E2, CB, DD, E5, E8, E4, F2, F7, FB, FF, 01,
  05, 06, 02, 06, 01, 04, 01, 02, 05, 04, 05, F6, F6, 03, FA, FC,
  05, 03, F3, F9, 03, FD, FD, FB, FD, 01, 04, 03, 07, 04, 07, 02,
  0A, 06, 07, 0A, 0C, 05, 0B, 06, 0B, 0C, 05, 06, 09, 05, 07, 0A,
  0C, 05, 0C, 0B, 0A, 0C, 08, 08, 06, 06, 0C, 06, 05, 0A, 0A, 08,
  08, 07, 08, 0B, 0D, 06, 06, 0C, 0B, 06, 0C, 0C, 08, 0A, 08, 08,
  0C, 0A, 08, 0B, 0A, 0B, 0C, 09, 08, 08, 0A, 0B, 04, 05, 0A, 0B,
  05, 09, 05, 08, 05, 05, FF, 03, FB, 01, 07, 07, 04, 07, 07, 0B,
  06, 08, 05, 08, 07, 05, 0A, 06, 0A, 07, 05, 0B, 03, 06, 04, 01,
  FA, DE, D9, EA, E2, DE, EE, FB, F3, E6, 01, 09, 05, 06, 06, 06,
  06, 0B, 0A, 07, 0C, 06, 06, 04, 05, F8, EE, DF, E0, E9, 0C, 0D,
  01, F9, FB, 1C, 08, ED, F2, F6, EB, F5, 01, 08, 08, 0A, 0A, 09,
  0A, 0B, 01, FF, E9, EA, D8, CE, C7, E2, 0F, 10, F1, EB, F4, F6,
  04, 0D, 09, 01, FA, EF, F7, 02, 08, 06, 08, 0D, 07, 02, FA, F8,
  E7, F0, D8, DA, D9, EA, 0E, F4, F7, F5, 09, F4, F8, FF, FC, 03,
  FE, F2, FD, 02, 0C, 0C, 06, 06, 02, 00, F8, FB, ED, EE, D6, D8,
  DF, 03, 14, FB, FA, F6, F0, F4, FA, 00, 01, 0B, DE, E5, 00, 09,
  07, 07, 09, 06, 05, 00, FB, FD, F3, ED, E7, CC, CA, F1, 02, 03,
  02, 04, F5, FA, FF, FC, FE, 00, EF, F5, 0B, 06, 07, 08, 07, 09,
  09, 03, FB, FE, FB, F9, F1, D6, E2, E8, F0, 0E, 17, 0D, FE, EB,
  E7, 06, 09, FE, 07, 02, 0B, 0B, 05, 06, 0C, 09, 01, 07, FB, FE,
  F7, EE, EA, E5, DE, E8, FD, 20, 1F, 17, 0B, FB, FA, 17, 03, 0B,
  10, 13, 04, 07, 05, 0C, 05, 07, 0C, 07, FE, FE, ED, DD, E5, E1,
  E9, 06, 0C, 23, 0F, 0E, 13, FD, 09, 14, 04, 10, 1F, 02, 00, 04,
  07, 05, 0B, 09, 07, FE, FE, FB, EA, E6, E6, EC, FF, 06, 1C, 0E,
  12, 02, F0, FC, FB, 04, 02, 07, 10, 0B, 03, 06, 06, 07, 0B, 02,
  06, FD, F9, FF, 00, 02, FA, FC, F7, 09, 13, 02, 08, 00, E3, EF,
  EE, F5, F9, FB, FD, 05, 08, 0C, 0A, 09, 06, 06, 04, 01, 05, 03,
  05, 13, 00, 07, 00, FC, 02, FE, 0C, F7, D7, DC, ED, F9, 01, FE,
  06, 06, 04, 08, 09, 05, 0E, 07, 01, 01, 00, 0D, 16, 13, FE, 03,
  FD, 03, 03, FA, 0C, DE, D8, DA, D9, F1, F8, 03, FF, 00, 08, 09,
  07, 09, 0C, 08, 09, 13, 03, FB, F2, 08, F3, 00, 05, 0A, 03, 0B,
  0F, D9, E2, E9, F3, FC, FB, 06, 0F, 0B, 08, 0A, 08, 0B, 0B, 07,
  02, 0B, 07, ED, EB, FA, FF, 06, 09, 08, 04, 02, FD, E5, EE, F9,
  FB, F5, FE, 02, 0C, 16, 08, 0A, 0C, 0A, 0B, 08, 02, F7, E7, E9,
  FC, 06, 03, 03, 06, 05, F3, EF, DD, EB, FC, FC, FD, FD, F9, 06,
  0E, 16, 0D, 09, 08, 0C, 05, 0A, FC, EC, F9, FE, F9, 01, 02, 01,
  08, 02, F3, E7, EA, EA, F8, F7, FB, FA, F7, 05, 16, 1A, 0C, 07,
  04, 0B, 08, 03, 12, FF, 09, 02, 00, FD, 05, 09, 09, FD, F7, D9,
  EE, EA, EC, F5, FC, F4, F5, 0C, 15, 13, 0A, 0A, 09, 06, 08, 04,
  00, 1F, 02, 02, 00, F8, FF, EA, F9, F5, FD, F2, F6, E3, E5, E6,
  F8, F4, F8, 09, 17, 0B, 05, 05, 08, 0B, 03, 05, 07, 20, 0B, 04,
  F9, 01, F0, E9, ED, 03, 0F, 03, 08, E2, ED, F2, F5, F2, F6, 04,
  07, 07, 08, 0B, 06, 06, 0A, 06, F7, 0C, 10, 03, 0A, 02, 01, FB,
  05, 0B, 12, 16, 14, FA, F5, F2, FE, FD, F9, 04, 09, 0C, 0B, 05,
  09, 0C, 0A, 02, F0, E7, F0, F9, F2, 05, F6, FB, F7, FE, 09, 12,
  04, 03, 05, 04, 05, 01, FE, 09, 0C, 0A, 06, 07, 0A, 0B, 0B, 08,
  F5, F2, F9, F5, FA, FE, F4, F3, F4, F9, E5, E7, FF, 09, 08, 0B,
  0A, 01, 02, 05, 07, 08, 07, 08, 06, 0B, 0C, 0C, 0A, 0C, 05, 07,
  05, 03, 02, 02, EE, F1, EF, F8, 05, 0D, 07, 0A, 06, 07, 08, 04,
  0C, 0B, 05, 07, 09, 05, 0A, 05, 05, 08, 0C, 08, 08, 05, 03, 08,
  08, 04, 08, 05, 07, 08, 05, 0A, 0A, 06, 05, 0A, 09, 06, 0C, 0C,
  00, 02, 02, 01, 06, FF, 06, 05, 05, 02, 03, 01, 02, 04, 01, FF,
  02, 03, 03, FF, 05, FE, 05, FE, 01, 06, 05, 06, 03, 06, 04, FF,
  01, 04, 00, FF, 04, 02, 01, 05, 00, 07, 03, FF, FE, 03, 05, 03,
  04, 07, 08, 02, FF, 00, 00, 05, 02, 01, 06, 03, 02, 05, 03, 06,
  02, FF, FF, 05, 0A, 04, 06, 0B, 0B, 06, 0D, 09, 0A, 07, 0B, 03,
  03, 04, 05, FE, 02, 05, 02, 04, 06, 05, 00, 07, FC, F6, F7, FF,
  FA, FA, FA, F5, F7, F8, 03, FF, 0A, 11, 12, 09, 02, 01, 01, 04,
  00, 02, 04, 03, 04, 04, FD, FA, 04, 08, 0A, 09, 0C, 01, 06, 08,
  01, FE, 04, 05, 02, F9, 09, 0D, 13, 05, 06, 04, 00, 00, 02, 08,
  07, FF, 04, 07, FA, FB, F8, FD, 08, 0A, 04, 01, 00, 07, F3, FE,
  02, 06, 04, 03, 1C, 11, 03, 00, 02, 04, 03, 00, 05, 0A, 01, 09,
  02, FA, FE, 09, 0D, 01, 03, 00, F1, F9, F4, FA, 00, 07, 0E, 12,
  0C, 09, 02, 05, 05, 06, 00, F6, 08, 04, 02, 06, 03, 05, 14, 0F,
  05, FE, FE, FF, F7, FB, F9, FF, F5, 01, 03, FD, FD, 00, FF, 04,
  04, FE, FF, 09, 08, 02, 06, FB, FD, FB, 05, 02, 03, 01, 06, 03,
  F8, FB, 02, 05, 00, 07, F9, E7, FF, 07, 07, 05, 06, 01, 03, 05,
  FE, F3, 0B, 08, 06, 01, F9, 03, F8, F9, F9, F1, FB, FF, FB, 04,
  14, 0E, 06, 06, 12, 06, FF, F9, 04, 00, FA, 0C, 08, F2, 0E, 05,
  02, 05, 00, FC, 01, F5, E5, E1, EA, FB, 01, 07, 0D, FA, 0E, 15,
  FD, FE, F7, 01, 01, 03, FE, 00, 02, FA, 08, 06, FF, 09, FB, F6,
  0A, 0A, 04, F4, ED, FB, F8, FC, FD, FA, FD, 06, FF, FE, 09, FF,
  02, 00, FC, FC, F1, FE, 08, 02, F9, FD, F5, 03, 1B, 25, 12, 01,
  FA, FF, F4, F0, 0C, 0B, 07, 08, 08, EE, FB, 01, 06, 00, 02, F8,
  EF, FA, 0D, 05, FE, 07, FE, 0E, 1C, 1A, 0C, 12, 0C, 00, FF, 04,
  01, 01, F4, F2, EF, EE, F1, 00, 04, 02, 01, FA, EA, F7, F3, F4,
  04, 01, FA, 03, 12, 16, 15, 0D, 0F, 0A, 00, F7, F3, ED, F2, F0,
  EE, F6, F8, 02, 00, 03, 02, 02, EF, DD, E8, F1, EC, FB, F9, 07,
  17, 19, 18, 05, 0F, 05, F9, FA, F4, F8, 00, F8, ED, EB, F6, 00,
  04, 01, 08, F6, E9, E1, EE, EF, EC, F6, FB, 04, 10, 16, 0F, 02,
  04, FC, 03, FE, F9, 00, 05, FE, F5, E5, EE, FB, 05, 03, 08, 06,
  F3, ED, EB, F8, F6, F2, F4, F3, FD, 07, FD, F9, 06, F7, F5, FB,
  FB, 15, 05, FA, DF, E3, FA, 01, 06, 06, 05, 01, F9, 06, 01, FD,
  00, FE, F8, F3, F1, FF, F8, 03, FC, FB, FF, 02, 06, 0A, 09, EA,
  DA, F2, FC, 00, 00, 05, 03, 07, 04, 09, FF, F5, 04, 01, FB, E6,
  F2, F0, F8, FC, F9, 06, 08, 09, FF, 07, 05, F2, DD, F6, 04, 06,
  00, 02, 04, 11, 0D, 08, 06, 04, 06, 06, FB, F6, F6, F7, 02, 06,
  00, 0D, 11, 03, 04, 07, 01, E7, E4, F8, FD, FE, 03, 05, 01, 09,
  0C, 02, 08, 09, 01, 00, F6, 03, F9, FD, FF, 06, 02, 06, 08, FF,
  07, 04, F5, EA, EE, FB, 03, 02, 01, 06, FF, 0A, 0E, 08, FF, 05,
  F7, EA, F0, 00, FE, F8, FE, 04, FF, 0D, 0A, 01, FD, EA, EB, EC,
  F6, FC, 05, 06, 00, 01, 04, 11, 06, 09, 0B, 0F, 0B, 08, 06, 07,
  05, 0B, 09, 12, 0A, 16, 0F, 01, 00, F4, F2, F5, FD, FC, 04, FF,
  FE, 04, 04, 0C, 02, FC, 11, 0A, 12, 14, 11, 12, 0E, 04, 01, F9,
  05, F3, F9, 01, 04, FA, F8, FF, FF, FF, 00, 00, 02, 03, 00, 02,
  F5, F5, 02, 00, 05, 14, 14, 04, 07, 0A, FD, F8, FE, 09, 0F, 12,
  0F, 07, 04, 01, 03, 03, FE, FF, 02, 05, FF, 05, FD, 01, 03, FE,
  04, 07, 02, 03, 02, 00, FD, 01, 07, 0C, 07, FE, FE, 00, 02, 03,
  00, 00, 06, 04, 01, 04, 01, 06, 06, 01, 01, 06, 02, 03, 04, 07,
  02, 00, 03, 01, 04, 02, FE, 05, FE, FF, 02, 00, 03, 05, 02, 05,
  02, 01, 02, 04, 03, 02, 04, 05, 01, 09, 02, 02, 01, 02, 03, 06,
  05, 09, 02, 02, 01, 06, 05, 06, 09, 04, 03, 08, 05, 07, 08, 02,
  02, 04, 04, 06, 05, 06, 03, 09, 0C, 0C, 03, 03, 09, 04, 04, 04,
  05, 06, 04, 01, 04, 09, 01, 02, 05, 04, 04, 05, 01, 04, 06, 04,
  09, 03, 04, 07, 0E, 04, 03, 02, 04, 03, FF, 00, 04, 06, 06, 07,
  04, 06, 03, 03, 07, 06, 04, 0B, 04, 05, 00, 03, FE, FE, FE, FE,
  F9, 07, 09, 0B, 00, 03, F9, FA, 01, F8, FB, FC, FC, 09, 03, 01,
  07, 03, 07, 08, 07, 02, FF, F7, F9, F7, EE, EA, DA, EE, FB, 11,
  FB, 00, F9, EE, E1, DB, E7, FA, FD, 02, 0A, 05, 04, 05, 07, 02,
  00, 02, FC, F3, F5, F0, EF, ED, F2, 00, 08, FE, F9, F4, EB, ED,
  E9, EB, EF, DC, E9, 06, 0D, 06, 05, 04, 03, 02, 04, 01, 00, FA,
  F7, ED, FC, 05, FC, F4, EB, EF, F3, FF, 0E, 00, FE, 16, FC, F1,
  F0, FF, 09, 05, 01, 06, 05, 04, 05, 00, FE, F7, F4, F5, 00, F6,
  F7, F3, F4, 07, 09, 15, 18, 0A, 08, 0C, 0F, 0F, FB, 03, 05, 06,
  03, 05, 06, 09, 00, 04, F9, 03, F9, EC, EF, F8, 0C, 08, 0F, 0E,
  1B, 14, 0E, 14, 13, 12, 0F, 0F, FF, 02, 04, 03, 02, 04, 01, 06,
  FF, FE, FB, 07, FF, F3, 07, FE, 0C, 09, 0B, 0C, 0C, 0A, 05, 15,
  19, 0A, 0A, 0B, 0D, 11, 01, 03, 01, 05, 03, 00, FB, FA, FA, 02,
  FD, 03, 07, 07, 08, 06, 15, 16, 07, FC, FD, 04, 10, 04, 03, 19,
  18, 11, 09, 05, 02, 09, 0C, 03, F7, E8, FF, 0B, 05, FC, 0C, 0A,
  F5, 03, 09, F9, F3, E9, F2, 05, 0C, 04, 0F, 21, 24, 12, 0C, 05,
  04, 04, 03, 06, F0, F4, 12, 0A, F8, 0D, 13, 04, F8, FF, FA, FD,
  EB, F1, F2, 09, 04, F3, 0A, 1B, 0E, 08, 04, 08, 03, 08, 07, FD,
  F2, F9, 03, FB, 02, 04, 03, FD, 02, F9, 03, 03, F6, EC, ED, 02,
  F4, 01, 0A, 12, 0E, 08, 07, 06, 03, 08, 02, F9, F8, 02, 01, F7,
  EF, FE, 00, FF, F7, 05, 05, 04, ED, F2, F7, FC, F8, 0C, 06, FE,
  0F, FF, 03, 08, 05, 06, 06, FB, 03, 15, 0B, 01, FB, 01, 01, FB,
  00, F9, FB, F7, F6, F8, FA, FE, F9, F1, ED, 0C, 25, 03, FE, 03,
  06, 06, 01, F8, 03, 17, 15, FB, 06, 0A, 0E, 01, F4, ED, F5, F2,
  FC, FC, FC, F1, EF, D8, E7, 0F, 14, 0A, 01, 05, 02, 09, 03, FC,
  F7, 02, 0E, 0E, 0D, 14, 11, ED, E1, F5, 07, FD, 05, 04, FD, 09,
  F3, E5, FD, 11, 10, FA, 05, 07, 04, 07, 07, F4, F5, 03, 09, 13,
  19, 16, 01, E6, E4, FD, 05, FB, FB, 01, FE, 05, F5, F2, 04, 0A,
  05, FE, 04, 02, 04, 02, 03, E8, F9, 02, 08, 01, 18, 03, ED, E9,
  04, 01, FB, FE, F7, FD, FD, F9, F5, 01, 0A, 09, F7, FB, 00, 08,
  07, 04, 03, EA, F5, 0A, 0D, 07, 10, F9, F4, F6, F9, F5, F5, 00,
  F6, 08, F7, EC, EB, FB, 00, F0, F4, 03, 01, 06, 02, 04, 06, F4,
  F5, E9, 08, 0C, 01, 08, FE, FC, F8, F4, F4, F9, F3, FE, FE, EE,
  EE, F2, FB, F1, F3, 02, 07, 01, 03, 06, 02, 02, F7, F1, 0C, 17,
  0C, 12, 0B, F9, 00, F9, FA, FA, F0, F5, FD, EE, DF, E6, F8, FB,
  FB, 08, 01, 02, 03, 06, 04, 06, F5, ED, F8, 0B, 08, 0B, 11, 0A,
  FE, F9, F4, F9, FA, FE, F4, E3, DB, EB, FC, 03, 05, 06, 00, 05,
  08, 09, 02, 08, 06, 01, F6, F8, 02, F9, 0C, 06, 15, 07, FB, FE,
  F7, 06, FC, FA, 03, FB, FA, 08, 0A, 04, 01, 01, 06, 02, 03, 05,
  04, FD, FD, 04, F4, F4, FB, 03, 00, 02, F9, F8, 05, 09, 08, 11,
  12, 07, 04, 04, 06, 03, 01, 01, 02, 07, 04, 06, 08, FC, 01, 08,
  0E, 07, 04, 13, 13, 19, 1D, 0E, 08, 0D, 12, 11, 07, FF, 04, 08,
  09, 05, 09, 07, 09, 08, 07, 09, 05, 08, 06, 0C, 0B, 04, 0C, 0C,
  07, 07, 08, 07, 02, 07, 08, 06, 03, 02, 04, 07, 04, 06, 08, 01,
  09, 0C, 0C, 09, 06, 09, 08, 06, 09, 07, 0A, 0B, 06, 07, 0B, 08,
  0D, 09, 0C, 06, 09, 0B, 0A, 0C, 0B, 09, 08, 08, 0B, 0C, 0D, 08,
  0C, 0E, 0B, 0D, 0A, 0D, 08, 0E, 12, 0C, 0D, 06, 08, 0C, 09, 09,
  06, 08, 0C, 0D, 0C, 0A, 0C, 09, 0C, 0A, 08, 08, 0A, 0B, 0A, 06,
  07, 0B, 06, 09, 0A, 06, FD, 00, F9, FB, FE, 01, 05, 09, 07, 08,
  06, 09, 0C, 0B, 0D, 06, 06, 0A, 0D, FF, 01, FD, F7, F7, FB, F5,
  F4, 0A, FF, F2, F5, F4, EC, ED, F5, F4, 00, 08, 08, 03, 06, 0D,
  06, 08, 06, 05, 08, FC, FF, F8, FD, 04, 02, FB, F0, FB, FB, FE,
  FE, F8, EE, E9, 01, FC, 06, EB, EE, FE, 04, 08, 0E, 0A, 0D, 07,
  04, F6, FC, 05, 01, F7, FF, F1, F2, FD, 08, 0A, 0D, 0B, 04, 08,
  02, 03, 04, 02, FB, 02, 0B, 0B, 06, 0A, 0D, 06, FD, 06, 05, 01,
  F6, EF, FE, 02, F9, 07, 00, FF, 02, 08, FE, FC, FC, 06, 10, 01,
  03, F7, 00, 04, 07, 09, 0B, 0A, 05, 07, 04, 00, EE, FC, 02, 00,
  F9, FE, F9, 04, FC, 07, 06, 08, FD, F8, 00, 01, 05, F8, FA, 0B,
  06, 0D, 10, 15, 07, FD, 0B, FF, 01, 05, FE, F3, FE, F7, 0A, 10,
  19, 14, 08, 04, FC, F5, F9, 00, F7, F6, FE, 0D, 0B, 07, 0D, 15,
  0A, 04, F6, FA, 00, 07, 03, F0, F9, 05, 09, 00, 01, 0C, 0C, 0D,
  0E, FB, FB, 04, F3, FA, 05, 0D, 0D, 0C, 0C, 09, 0B, 09, F2, 07,
  01, 03, F7, 00, 06, FD, FE, FB, F7, 12, 0D, 01, 0E, 0F, 14, 11,
  03, F9, 02, 0A, 06, 06, 0A, 09, FE, EE, F8, 0B, 02, FF, FF, 04,
  FB, FA, E6, E4, E6, 01, 03, 00, 04, 16, 0A, FF, 03, F7, 02, 06,
  0D, 0B, 0D, 0D, 09, F4, 0A, 09, FF, 02, FD, FD, F8, F7, E3, D7,
  D6, FC, 08, 04, 03, 07, 06, 06, 03, F5, 00, 07, 09, 0C, 07, 13,
  0A, F8, 11, 11, 05, 03, 0A, FF, 03, EB, EC, CE, D1, FD, 0B, FC,
  F5, 03, 04, 0D, 06, 0A, 03, 0B, 06, 0B, 0C, 01, F9, 09, 02, 1B,
  07, 06, FB, 0D, 11, 05, E8, CB, DC, FC, 05, 02, 04, 0C, 0E, 01,
  0E, 0C, 0C, 0B, 0D, 09, 0D, F7, FA, 0A, F8, 12, 01, 03, 05, 0D,
  11, 00, D8, D1, E7, F6, 03, FC, 02, 0D, 0E, 09, 15, 0B, 06, 07,
  09, 0B, 09, FD, 00, 0A, FF, 01, 09, 02, FC, 09, FB, DF, CC, F0,
  F7, FA, FF, F4, 0D, 0B, 0E, FD, 00, 05, 0B, 0B, 0B, 0B, 0B, FD,
  FD, 06, 0A, 09, 06, 03, 12, 02, F7, DF, DA, F9, 03, 0D, FF, 03,
  FC, 09, 13, FB, 07, 0B, 09, 0D, 0B, 0D, 08, FB, 01, F3, FF, 0A,
  0F, 17, 12, 02, E3, D7, EC, 05, 16, 17, 06, F6, F9, 02, 09, 0A,
  04, 0A, 0A, 0E, 06, 0A, 0E, 09, 10, 05, FF, 02, 0F, 11, 12, 02,
  F5, E5, 02, 0D, 0D, 0B, F6, FD, 01, FF, 08, 03, FD, FF, 0A, 09,
  07, 0E, 11, 0E, 20, 02, F7, FC, 08, 0D, 1C, 0E, 05, FE, FF, 09,
  F6, 00, FA, EF, F3, FA, F9, E9, F8, 05, 08, 0B, 08, 0A, 0D, 1B,
  10, FB, F9, FA, 03, 01, 12, 11, 08, FD, 02, 07, FD, EC, EF, EB,
  F6, F0, 06, EA, F4, 09, 0A, 09, 0E, 0B, 0D, 14, F2, 04, 0A, 01,
  03, 0F, 04, 0F, 08, 0E, 05, 06, FC, 05, F9, FC, EF, EF, F9, ED,
  F9, 0A, 07, 0E, 09, 0A, 09, 08, F1, 04, 17, 08, FC, 00, 19, 16,
  14, 0F, 0F, 0F, 0D, 13, E5, D7, E2, ED, F5, FA, 00, 09, 06, 09,
  0A, 0E, 0D, 09, 03, 0D, 06, 08, 0B, 05, F7, FE, 0A, 03, FD, 00,
  E0, D8, D9, E1, F7, F6, 00, 04, 0B, 0B, 0C, 0A, 07, 08, 0B, 06,
  0B, 07, 02, F9, EF, EE, DA, E0, CD, D0, D1, CE, DC, DA, E2, F8,
  FE, 02, 02, 04, 0C, 06, 0A, 07, 0D, 09, 07, 07, 0A, 0A, 09, 06,
  04, FB, F8, FA, FE, F8, F6, F2, FE, FE, 02, 06, 08, 06, 09, 09,
  09, 07, 07, 0D, 0B, 06, 0B, 0B, 0B, 09, 0D, 0D, 09, 0C, 0D, 0B,
  0A, 0B, 09, 0B, 06, 0C, 09, 09, 07, 08, 09, 06, 09, 09, 0C, 0D,
  0A, 05, 03, 09, 03, 03, 08, 04, 06, 04, 09, 07, 06, 06, 09, 04,
  07, 04, 08, 04, 0A, 03, 03, 08, 09, 0B, 07, 06, 05, 0A, 0A, 04,
  04, 06, 07, 09, 06, 05, 04, 0A, 04, 0B, 09, 0C, 02, 08, 08, 06,
  05, 09, 05, 0B, 03, 0A, 03, 03, 06, 09, 03, 08, 09, 04, 03, 07,
  07, 04, 03, 02, 08, FE, 06, 0C, 0A, 0B, 0E, 11, 0A, 0D, 09, 0A,
  04, 04, 0A, 05, 0A, 05, 04, 07, 0A, 08, 03, 02, 07, 04, FD, FB,
  F6, E2, E1, F6, FA, 05, 18, 13, F9, FB, 0B, 0D, 06, 03, 01, 09,
  06, 08, 0D, 0B, 04, 05, 02, 06, 04, FA, EE, E6, EF, FE, 07, 07,
  08, FE, FC, 05, F9, 00, 03, FA, F4, 05, 09, 07, 08, 03, 0A, 06,
  05, 03, 01, 02, F8, EE, E2, D3, EC, FA, F2, EF, F0, F1, EA, FD,
  F9, FD, 01, EE, FF, 03, 07, 02, 08, 0A, 08, 06, 0A, 00, 01, FD,
  EE, E2, C3, C8, EA, FF, 09, 01, FE, 0E, 1A, 07, 0E, 0A, F8, FD,
  F8, FB, 02, 05, 07, 04, 01, 08, 03, 00, F8, F6, EA, D0, BD, DA,
  03, 0E, 18, 17, 11, 0F, 18, 19, 13, 15, 0B, FD, ED, F0, 03, 0A,
  06, 07, 07, 07, 03, 01, 01, ED, DE, D0, DA, EB, FE, 05, 0A, 09,
  02, 00, 05, 0C, F6, 08, 04, F7, F6, FC, 04, 04, 03, 07, 07, 02,
  02, 04, F6, D9, D8, F0, 06, FA, F8, 07, 07, 09, 05, FE, F6, F9,
  F5, 02, FD, 06, 15, 07, FA, FA, 05, 06, 09, 05, 08, FA, EB, E0,
  F5, FF, 0C, FC, F5, FD, 0A, F1, FC, F8, FD, FD, E9, 07, 03, 09,
  01, FC, FF, 03, 06, 02, 05, FF, 07, FF, E8, EC, 01, 0C, 03, F9,
  E9, FA, 07, F4, FF, F2, 13, 07, 05, 11, 0B, 07, 0A, FF, 09, 05,
  0A, 06, 05, 07, 0A, FD, F1, FE, 01, 06, F6, FD, E3, ED, FB, 00,
  05, 0B, 0D, 07, 0A, 13, 07, 0D, 03, F7, 08, 04, 08, 04, 04, 07,
  06, F6, FF, F7, FD, 02, FD, FB, EC, F9, 0E, 10, FF, 01, FE, 00,
  F7, 11, 01, EE, F7, FF, FF, 04, 09, 0A, 08, 05, 07, 01, 02, EF,
  F4, F7, F8, 03, F5, 11, 1C, 04, F7, EE, F9, 01, EB, FD, E1, E3,
  F7, 04, 05, 08, 08, 0A, 07, 07, 02, FE, 03, 03, 01, F5, FA, F7,
  FF, 14, 08, F6, FA, F9, 04, F1, E9, ED, F0, ED, F4, 00, 03, 08,
  09, 0A, 0A, 05, 01, FB, 04, F7, FE, 06, 06, 06, 01, 04, FE, F3,
  04, F5, F5, EB, D6, E9, F1, FA, FB, 01, 04, 06, 04, 06, 03, 05,
  FA, ED, E7, 08, 02, 03, 0C, 01, 0B, 07, 04, 02, 07, FA, ED, E2,
  E9, F8, F9, F3, F8, FE, 06, 06, 06, 0A, 07, FB, EB, EC, EB, FB,
  FF, 0E, 02, 07, 02, 08, 08, FE, FD, 08, EB, E2, F1, FC, F1, F1,
  FB, 05, 08, 0B, 08, 06, 04, F2, EA, F2, FF, F8, F2, FA, 06, FD,
  07, 0A, 07, F6, FD, 0C, EC, E0, E8, FA, F1, F8, FC, 06, 06, 04,
  02, 0A, 04, F4, E8, 04, 0A, 02, F6, F5, 07, FD, FE, FF, 00, 03,
  01, 06, E6, E1, ED, F5, FB, FD, 06, 06, 06, 04, 04, 02, 07, FD,
  E7, EE, FC, F7, EF, FA, 09, FA, F7, 03, FF, FC, F9, FE, E7, E3,
  F5, F6, FB, FD, 04, 06, 04, 04, 0A, 03, 08, 00, F8, 06, FC, 01,
  01, FB, FD, FB, FD, 08, 08, FE, FB, F7, FF, F0, F1, F9, FA, 05,
  04, 08, 05, 0A, 08, 05, 07, FD, F4, 03, 00, 01, 00, F9, FC, FD,
  07, 0B, 05, 0D, 12, FB, F0, F5, FF, FE, 03, 00, 04, 03, 0B, 08,
  03, 03, 0A, 07, F4, F7, FA, F6, F8, 00, F1, F4, F8, FE, 05, 18,
  09, F7, F9, 09, FC, FE, 00, 09, 09, 08, 03, 04, 03, 05, 05, 01,
  FD, FE, 02, FC, 0B, 07, ED, 04, 00, 0B, 08, FF, 23, 27, 18, 0D,
  0C, 08, 07, 04, 0A, 02, 05, 0A, 09, 07, 09, 09, 0A, 08, 0E, 17,
  10, 16, 14, 1A, 1C, 14, 1B, 0E, 22, 21, 1B, 0E, 08, 0A, 05, 06,
  08, 05, 06, 03, 03, 03, 04, 07, 03, 0A, 09, 06, 06, 08, 0A, 11,
  12, 06, 0B, 09, 08, 0B, 06, 05, 06, 04, 06, 02, 0A, 07, 08, 09,
  FE, 03, FC, 00, FF, FB, FB, FF, FC, 00, 02, 00, 03, FF, FF, FF,
  FC, 00, 02, 01, FC, FE, FF, 00, FD, 00, 02, FD, FD, FD, 01, 01,
  02, 01, 06, 06, 00, FD, FF, 02, 0C, 02, 01, 03, 04, FE, 00, FF,
  FC, 03, 01, 00, FC, FD, 00, FC, 03, 00, FF, FC, FE, FC, 08, 0F,
  06, FF, 08, 12, 15, 1A, 0D, 0C, 0B, 0A, 12, 0B, FF, FB, FE, FF,
  FF, FE, FD, 02, FD, FB, FC, 00, 00, 02, 0D, 12, 1A, 0B, 19, 0F,
  0A, 17, 0D, 00, 0A, 0B, 12, 0D, FA, 03, 00, 00, FC, 00, FD, FE,
  FB, FB, FE, 01, 03, FF, FB, 01, F8, 07, 0B, 03, 04, 06, 12, 13,
  13, 1A, 1D, 03, EE, F5, F1, EF, F7, FB, FB, 01, FD, FE, FD, FC,
  00, F8, 0B, FC, 07, 0C, 0C, FE, F6, FB, 03, 00, 0A, 0D, 13, 00,
  EB, E6, F0, F3, F5, FC, FB, FC, FB, FB, FE, FE, FD, 01, 04, FD,
  01, 04, 00, 06, 07, 04, 05, 01, 00, F9, F0, EC, EA, ED, E7, EB,
  F8, FC, FF, FF, FE, FD, FC, F2, F7, 12, 03, FC, 03, 0C, 0F, 03,
  0D, 0B, 08, FF, E9, F4, DE, E3, E7, E7, E3, ED, 0B, 02, 02, 01,
  01, FC, FF, F5, FA, 0B, 09, FF, 12, 17, 08, 02, 0A, F4, F0, F2,
  E2, ED, E9, F6, F9, FC, F0, F9, 07, 06, 03, 02, FC, FE, FE, FE,
  03, FA, 08, 01, 0B, 15, 10, 0B, F5, F5, EF, FC, EB, E7, EB, F5,
  FD, 02, F3, FE, 0B, 00, 02, FE, FB, 02, FC, 01, FC, 11, 07, F2,
  06, 18, 13, F9, EF, EB, FB, 0E, 04, 08, 02, F3, 02, 09, 03, 12,
  1C, FE, F9, FD, 03, FD, FA, 03, 00, 04, 04, F9, 09, 1E, 0C, ED,
  DD, E3, FB, 18, 1B, 19, 0E, 07, 0C, 16, 02, 22, 22, FF, FB, FD,
  FC, FB, FB, 07, 11, 07, 16, 06, 09, 19, F4, D2, D5, E7, F3, 08,
  19, 0D, 04, 00, 07, 08, 07, 16, 17, F0, FA, FC, 03, 02, FE, 03,
  1E, 08, 16, 0F, 0F, 14, FA, D4, D0, E0, F8, 06, 02, F2, 02, F3,
  F1, 02, FD, 0F, 0B, FF, 00, FA, FE, FF, FE, 09, 1F, 0B, 00, 01,
  0C, 14, F3, E1, E6, EA, F0, FA, F3, 06, 04, F5, 03, 02, 07, FE,
  07, F6, F9, 00, FE, 01, FE, 0B, 0E, 14, FD, 0A, 0A, 0E, EB, DF,
  F0, F6, E7, F5, F8, 00, FF, F6, 08, 09, 0F, FE, F3, 05, FD, F7,
  00, 00, FC, 05, 10, 1D, F8, FA, 07, 13, FE, EC, F4, F3, F9, 00,
  EF, EF, ED, F8, 0A, 0B, 09, 04, FB, 0E, FF, FC, 02, FE, FE, 09,
  0E, 19, 02, 02, 00, 0F, 09, F6, F6, F3, F2, ED, FB, F2, F9, FB,
  0B, 09, 07, 01, FC, 01, FD, F9, 02, FC, 00, 0E, 0B, FB, FE, 08,
  02, 04, 0D, 05, F4, F7, F9, F3, DF, FA, 0A, 00, 0E, 05, 01, 02,
  04, FC, FA, FF, 01, FC, 09, 12, 10, F5, FB, FF, 01, 0A, 02, 03,
  03, F4, EF, F2, FB, 0B, 09, 04, 0D, 00, 00, 0D, 12, FB, FE, FC,
  FB, FD, 0A, 0A, 0B, 03, F9, F9, FE, 0B, 0F, 02, FB, F2, F6, FD,
  0E, 0C, 06, 07, FA, FA, 04, 07, 0A, 06, FC, 01, FF, FF, FA, FC,
  F8, FD, 06, 05, FE, 0D, 12, 01, FC, F7, FE, 07, 09, FD, 01, F9,
  F8, F9, F7, F5, 09, 0B, 02, 01, FB, FC, F7, FB, F1, 02, FD, F7,
  F0, FA, F1, F0, F0, FE, FC, 05, 00, 01, 05, FE, FE, F8, 04, FD,
  03, 08, 06, FC, FF, 02, 03, FC, FF, FD, FD, F8, E1, ED, FF, FB,
  F9, FF, 01, 0C, FF, 13, 05, 08, 07, 04, 0B, 09, 0B, 05, 01, FD,
  FE, 01, 02, FB, FF, FD, FF, FF, 07, FE, FF, FE, 06, 05, 02, 12,
  05, 09, 0B, 22, 27, 24, 1F, 0C, FD, FC, 00, FC, FC, FB, 02, FB,
  01, FB, 02, FF, FE, 06, 04, 01, FF, 02, F0, EB, E3, E6, 05, 14,
  16, 17, 0F, 07, 06, FF, FF, 01, FF, FC, FC, FF, FC, FC, 00, FC,
  FD, 06, FC, F7, FD, F9, F3, EE, F0, E8, F0, 00, 12, 0D, 05, FE,
  FC, FC, FC, FD, 00, 01, FD, FE, 00, FD, FB, FB, FF, 00, 01, 02,
  FD, 01, FB, FC, FD, F9, 01, FD, 06, FD, FF, FC, FD, 01, FB, 02,
  01, 00, FF, 00, FE, FD, FF, FE, FD, 00, FC, 02, 01, 03, 04, 05,
  05, 01, 01, FF, FF, 03, 03, 03, FE, FE, FD, FE, FD, FF, 00, FD,
  04, FE, 02, FF, FE, FF, 03, FD, FE, FD, FF, 08, 02, FF, FD, 04,
  02, 02, 02, FF, FE, 04, 01, 04, 03, 00, FD, 00, FE, 02, 04, 00,
  07, 0C, 09, 06, 06, 07, 09, 05, 0E, 05, 05, 01, 03, 01, 02, FE,
  FE, 03, 01, 05, 00, 04, 02, FF, 00, 00, 02, 00, 09, 19, 1C, 10,
  14, 0C, 0E, 02, FE, 00, FD, FF, 05, FF, FE, 01, FE, 04, 00, 03,
  03, 03, 00, 01, 06, 05, 08, 0B, 09, 17, 1E, 15, 0B, 03, 00, FF,
  F9, FE, 15, 06, 02, 08, 05, FC, FF, 03, 02, 01, 00, 00, 03, 04,
  04, 03, 05, 0B, 04, FD, 05, 0E, 0E, 0C, 02, F5, 08, 06, 10, 09,
  08, F8, FA, F7, F8, FB, 00, FD, FE, 01, 02, 06, 0B, 0B, 12, 0A,
  06, 10, 1A, 07, 05, 0F, 15, 15, 0D, 04, 06, 09, 00, FD, 03, F6,
  FA, F9, 03, 04, 02, 00, 04, 07, 09, 0F, 1A, 12, 11, 08, 0B, 10,
  10, 1A, 1E, 0D, 07, 00, 06, FC, 06, 03, F0, EF, F9, FE, 04, 00,
  02, 03, 02, 0A, 0D, 0A, FA, 00, 05, FF, 11, 11, 08, 14, 17, 04,
  FE, FA, F4, F9, FD, FA, F8, EC, ED, FF, 04, 02, 00, 03, 01, 01,
  01, F8, FF, 04, 05, 04, F7, ED, FC, DC, E4, EF, EC, 00, FF, FF,
  FC, EB, 03, 09, F8, FF, 01, FD, 02, 03, FE, F7, F4, F0, F6, E8,
  E5, CE, CA, BF, BD, BB, D1, EB, F9, 01, FD, FD, F5, E9, F6, FF,
  00, 01, 03, FF, FF, FF, F6, F0, E7, DA, D9, C6, B6, AC, BC, CE,
  DE, EF, FB, F6, 03, F8, EF, 02, F8, F1, F8, 08, 06, 0A, FF, 02,
  04, FA, F7, F6, E0, D1, BA, B6, C0, D8, F7, 01, 00, 0B, 0C, 03,
  01, F5, FE, 00, 05, F7, FA, 07, 08, 09, 09, FD, 04, F3, F5, FC,
  E9, D8, DA, E8, EE, 09, 11, 0D, 0E, 13, 0F, 09, 03, FF, FA, 02,
  FE, 00, 04, 03, 08, 09, 06, FE, 05, F9, F8, FA, F4, EE, 08, 15,
  14, 18, 0F, 08, 0E, 11, 0E, FB, 03, 01, 08, F9, 07, 03, 04, 09,
  0D, F9, 03, 03, 01, FD, FC, FF, 05, 1B, 15, 11, 0A, 0C, 07, FF,
  02, 0A, 0A, 06, FF, FE, 00, FA, 03, 07, 04, 17, 08, 00, 01, 00,
  FD, 00, 02, 0E, 0E, 12, 0A, FE, FE, 0E, 05, 04, 0A, 0C, 08, 04,
  05, FB, 03, 08, F5, 05, F8, 02, 04, 0E, 09, 03, FE, 03, 09, 06,
  0D, 02, FA, F8, F7, FD, 03, FF, 0A, 0A, 08, 0A, FB, 03, 05, FD,
  FB, FF, FA, 02, 05, 08, 08, FF, 04, 05, 02, 09, 02, FE, 07, FC,
  FA, FD, F3, E2, E7, F6, FF, 02, 0E, 09, 03, 08, 04, 0A, 05, 05,
  0B, 08, 04, 01, FF, 03, 04, 13, 04, 05, 01, 05, F9, FE, F9, 00,
  F6, FF, FC, FC, 05, FE, 00, FE, 07, 06, FC, 04, 0B, 01, 02, 01,
  FE, 00, 06, 19, 02, 04, 03, 03, 02, 04, 07, 0B, 05, 09, 03, FD,
  04, F7, 02, 00, 02, 02, F4, F0, 04, FF, 04, 04, 05, FD, 06, 0C,
  05, EF, F7, F3, FE, F5, 02, FA, 03, 00, FC, FA, 02, FA, 02, 0B,
  0C, 02, F8, 01, 00, 07, 05, FE, 00, FD, 01, 0E, 0B, 01, F3, F8,
  FE, F4, FA, FD, F3, FE, FC, F6, 03, 01, F7, 03, FC, F0, 03, 08,
  01, FF, 03, FF, FE, 02, 06, 13, 1C, 20, 0C, 14, 08, 08, FD, 09,
  FC, FE, FC, 03, 03, F5, F9, F2, ED, FE, 0A, 0F, 05, 01, FD, FF,
  00, 02, FE, 07, 17, 16, 11, 0C, 0B, 02, 05, 07, 05, FB, 03, 00,
  F6, 0F, FB, F7, F8, 00, 05, 05, 05, 03, FE, FE, FD, FE, FE, 02,
  0A, 0B, 0E, 0E, 12, 18, 19, 14, 0D, 06, 01, 0C, 08, 0A, 07, 03,
  01, FD, 02, 03, FF, 03, 01, FD, 05, 04, 02, FE, 03, FF, 01, 01,
  05, 03, 00, 08, 05, 10, 04, 0B, 03, 05, 03, 04, 05, 08, 01, 00,
  FE, 02, 04, 03, 00, 05, 00, 03, 00, FC, 00, FE, FE, 01, 02, 04,
  02, FF, 00, 04, FF, 00, FE, FD, 02, 02, FD, 03, 04, 01, 02, 01,
  03, 00, 03, 01, FE, 06, 04, FF, 02, 04, 03, 00, 00, FF, 04, 00,
  00, FE, 04, 00, 06, FF, FF, FE, 01, 00, FF, FE, 04, 00, 00, 05,
  02, 05, 01, 02, 05, FF, 01, FE, 04, 02, FF, 02, 04, 05, FF, FF,
  01, 01, 01, 00, 02, FE, 00, 04, FF, 03, 01, 04, FF, 02, 04, 02,
  0A, 0A, 08, 0C, 12, 1C, 19, 0F, 09, 0A, 02, 03, 03, 07, 03, 03,
  FF, 02, 04, 04, 02, 02, 06, FD, FF, 00, 0B, 11, 13, 13, 11, 05,
  07, 0E, 0B, 0C, FB, E3, E7, EF, 01, 06, 07, 0E, 0B, 04, 02, 04,
  03, 06, 01, 00, 05, 0D, 0C, 12, 06, 03, 03, 01, 12, 1B, 09, F0,
  E8, E4, E7, F3, 00, 0D, 0F, 10, 03, FE, 00, 03, 03, 04, 03, 02,
  0C, 03, 10, 0D, 0F, 14, 13, FF, 02, F5, F3, DB, DF, FB, 00, 08,
  0B, 09, 0F, 16, 0B, 01, 00, FF, 01, 01, FE, 01, FE, FE, 04, 0B,
  05, 0D, EB, F5, FF, F0, E9, AD, BC, 00, 01, 04, 07, 01, 12, 11,
  FD, 03, 04, 06, 05, FE, 01, F6, F8, 01, FF, 01, 07, FC, 03, 04,
  0F, 05, DE, BC, E0, 0C, 08, 06, F6, F8, 0A, 04, FB, FB, 07, 04,
  04, FF, 03, FD, 09, 0A, 04, 0C, FD, 0E, 06, 0C, 0B, FB, D5, BD,
  EE, 15, 03, F8, FF, 00, 07, FF, F3, FB, FB, 00, 00, 01, 02, 04,
  04, 0A, 00, FA, 05, 01, 02, 08, 12, EC, CC, DE, 0D, 0B, FD, 02,
  17, 14, 07, FE, F6, F8, F8, 04, 02, 05, 07, 08, 03, 0C, EF, 00,
  FE, FF, 05, 1B, 1A, E8, BE, ED, FB, 0D, 00, 01, 02, 08, FF, FA,
  01, FB, FE, 05, 04, 06, 05, 0F, 00, 0F, F4, FE, 07, 08, 0C, 19,
  0E, D2, CE, FD, 09, 05, 03, 01, FF, FE, 02, F9, F2, FA, FA, 02,
  FE, 02, 0C, FD, F5, 01, F4, 03, 07, 06, 11, 23, 12, DA, E1, 01,
  05, 02, 05, 02, 07, 0A, 07, 01, 08, F4, FC, 01, 03, 04, 09, FA,
  F1, 08, FD, FD, 0D, 0B, 18, 17, F1, D1, EB, 06, 06, 0B, 05, FD,
  08, 0C, 0C, 1A, 0A, EF, F9, FE, 01, 02, 05, 06, F4, 0E, FF, FE,
  FF, 09, 0D, 0B, E8, DF, F9, 0B, 08, 0A, 0A, 12, 0B, 0A, 14, 1C,
  08, FC, FC, 06, 05, 01, 02, 12, EF, FC, FD, 0F, 0B, FF, 08, FA,
  E6, F0, 08, 08, 04, 08, FF, 05, FB, FD, 11, 05, E1, EF, F8, 05,
  05, 02, 01, 07, 00, F8, 08, 0D, 06, F9, FB, F0, E6, F2, 0A, 09,
  FA, F7, FE, FA, F1, FA, FA, F4, F9, 02, F9, 03, 00, 06, FF, 06,
  FF, FB, 01, 04, 07, F5, F3, F0, EE, F6, 05, FC, 01, F9, 0A, FD,
  FD, 08, 07, 01, 02, 07, 01, 05, 06, 02, FD, 04, 04, FC, 04, 0A,
  08, FD, EF, F7, 0A, 09, 0F, FA, 02, FE, 07, 04, 0D, 15, 07, F2,
  F6, 01, 04, 05, 03, 01, FD, 02, 03, 04, 02, 02, FC, EA, E8, FB,
  FB, 03, 10, F8, F5, FA, FB, F9, 09, 09, FA, F4, F5, F6, 03, 03,
  FF, 01, 02, FB, F2, F7, F9, F4, E6, DC, E5, EF, 08, 04, FD, 00,
  FD, 04, 08, FE, 0C, FE, EB, EA, FE, F9, 05, 01, 00, 06, FE, FC,
  F6, FB, F6, EE, F5, F1, F4, 01, FE, 01, 05, 0B, 08, 05, FF, FD,
  0B, F7, F8, FF, 02, FA, 05, 02, FE, 00, 05, FD, 00, 01, F9, F2,
  EB, F1, FD, FC, FB, F7, ED, 02, 02, F5, F9, 06, 01, 00, 02, FF,
  FF, 01, 05, 06, 06, FE, 00, 05, 04, 05, 02, 05, F1, F5, FF, FE,
  FF, 0A, 02, F5, FC, F6, 07, 01, FA, 04, 06, FA, FF, 00, 02, FE,
  00, 03, 05, FE, 08, 00, 04, 08, F1, F9, FA, 01, 09, 0D, 0D, F0,
  0F, 02, 07, F9, F2, FE, 0B, FB, FB, 04, 05, FF, 00, 04, 02, 06,
  01, FF, F8, F7, F5, F9, 09, 02, FE, 0A, 04, FF, 0E, 02, 07, F1,
  E4, FD, 01, F6, 01, 01, 04, 00, 02, 02, 03, 01, 02, FD, FE, F8,
  F3, F4, F3, EE, FC, F4, E2, FC, 11, 02, F5, E4, F5, 01, FF, FF,
  00, 06, 06, 02, 06, 02, 04, FE, 01, 02, 01, 00, FB, FE, FD, 01,
  02, 04, FE, 00, 04, 01, 06, 02, 05, 05, 03, FF, 00, FF, FF, 03,
  FF, 01, 00, 03, FE, 02, 03, 06, 02, 04, 00, 04, 02, FD, 04, 05,
  00, 00, 02, 06, 02, 05, 03, 05, 03, FF, 05, 01, 01, 02, 00, 01,
  03, 04, FF, FD, FF, FF, FE, FF, FE, FF, 07, 05, 00, 02, FE, FD,
  FF, 00, 00, 04, 00, 03, 03, 04, FF, 04, 04, 04, 03, FF, 03, FF,
  F9, FD, F8, F0, EC, FB, FC, 02, 05, 03, 01, F5, F8, F5, F2, 01,
  05, 04, 00, 06, 03, FE, 02, 01, 01, 01, 02, FF, F3, F1, F4, EC,
  E5, E8, F4, 08, 09, 04, 07, 01, F3, FC, F6, FE, 01, 03, 05, 05,
  02, 05, 01, 03, 00, 01, F6, F8, F6, F9, FC, F5, FA, 05, 0D, 09,
  03, 00, 04, FD, FA, EF, ED, F9, 04, 01, 00, 00, 02, 00, 00, 04,
  02, F3, F1, E9, DF, F4, E7, ED, 03, 00, 01, 01, 02, 14, 12, 11,
  0A, 0D, F9, F5, FE, 0D, 03, FE, 03, 01, 05, FC, F7, F2, E7, EE,
  F4, F6, F2, F9, FC, FC, F8, 08, 08, 07, 0C, 05, 00, 06, F9, 07,
  01, 09, 08, 03, 03, 02, 05, FD, FE, F9, EB, F1, 00, 03, 03, F0,
  EC, FD, F7, FF, 06, FC, FC, FE, FF, FE, FB, FE, 05, 12, 03, 03,
  05, 03, 02, 03, FF, F2, F6, FA, 01, 00, F7, F2, F5, FA, FF, 02,
  03, F7, 03, FF, F9, FF, 01, FB, 09, 0F, 06, 04, 06, FE, 02, 02,
  F2, F6, FE, F4, F8, 01, FB, F8, F6, 00, F3, FA, 00, 04, 0D, 0D,
  06, 08, 01, FD, 04, 08, 07, 00, 03, 04, FE, FE, FF, 05, 0D, 06,
  F9, 00, F7, FC, 06, E6, E3, EB, FD, 03, 0A, 0D, 0B, 03, 05, F7,
  F1, FD, 06, 06, 05, 02, F0, F2, 06, 08, 03, FF, FE, FE, FC, 00,
  F9, D3, DC, FE, 0E, 06, 0B, 12, 09, FE, F4, DB, EA, 01, 04, FE,
  04, FD, F6, F9, 08, 0D, 01, FB, F0, 00, FD, F3, ED, F7, 04, 0A,
  0E, 03, 05, 1A, 07, 05, E4, DB, F1, FB, 04, 03, 06, 03, F7, FC,
  00, FD, F9, 00, FF, 00, FB, 00, 0A, 18, 13, 06, 06, 0B, 02, 00,
  00, F2, E8, EA, EB, FE, 01, 00, 06, 03, F7, 03, 09, 03, 04, 01,
  02, 03, 01, 10, 12, 1B, 15, 08, 06, 09, F3, F3, EA, E9, EA, EE,
  EA, FD, 09, 04, 06, 01, 03, 01, 11, 0C, 09, FF, 0D, 0D, 05, 04,
  09, 20, 18, 0D, 01, FC, F5, F8, E2, E2, F2, EF, F2, F9, 04, 00,
  00, FF, 00, 0A, 17, 04, 0C, 08, 05, 0A, 0C, 01, 0B, 13, 0C, 0C,
  01, 04, FB, FF, FA, F7, FC, F7, F7, 01, 08, 02, 03, FE, 06, 0C,
  12, 08, 10, 15, 15, 0A, 05, 02, 04, 10, 0B, 08, 05, 00, F9, FE,
  FE, 04, FA, 03, F7, F9, 02, 05, 02, 05, 07, 0D, 0A, 11, 16, FC,
  F8, F8, 04, FB, F9, 0F, 05, 07, 08, FA, 03, FB, 06, 09, 0B, 09,
  0F, 05, 00, 03, 00, FF, 00, 0B, 05, 11, 03, FD, F2, EE, F5, F4,
  EB, FE, FB, 09, 10, 0E, 0F, 0B, FF, 08, 13, 15, 0A, 02, 0A, FF,
  05, FF, 07, 0A, 18, 0C, FF, FD, 01, F8, E7, E9, E8, F6, F7, 03,
  09, 10, 13, 03, 01, 00, 0A, 1C, 10, 00, 05, 00, 05, 02, 03, 0A,
  12, 03, 01, FC, 00, FC, F2, F6, EF, EE, F7, FF, 00, FA, FC, FE,
  0A, 10, 15, 14, 07, F9, FF, 00, FE, 02, 06, 07, 0B, 04, 02, FF,
  F6, FA, FB, 02, F6, FC, F6, EF, F8, FC, 07, 01, 13, 11, 16, 11,
  08, FD, FF, FF, 04, FF, FE, 05, 08, FB, F6, 03, 0D, F8, 03, 05,
  F7, 03, FF, 01, 04, FE, FB, 01, 14, 16, 16, 0E, 00, FF, FF, FF,
  04, 01, 06, 04, FD, F0, F8, F9, 0D, 06, 02, 04, 00, 01, 01, EF,
  FC, EF, FB, 04, 09, 0F, 0C, 07, 01, 01, 05, 03, 01, 00, 05, FD,
  FD, F5, F9, FE, 01, FF, F2, F8, FC, 01, 00, F9, 03, F5, F6, FD,
  03, 00, FA, F8, FA, 02, FE, 06, 05, 03, 02, 06, 07, 04, 04, 0B,
  0C, 00, 0A, 0F, 07, 0B, 13, 05, 0D, 0E, 00, FB, 05, FE, FD, 01,
  03, 00, 02, FF, 00, 03, 01, 00, 00, 06, 01, 05, 03, 06, 02, 01,
  03, 03, 06, FC, 02, FF, FF, 06, 04, 01, FF, FE, FF, 05, FE, FF,
  03, 04, FF, FF, FD, 03, 00, 03, 03, FF, FD, 04, FF, 00, FE, 02,
  FE, FF, 02, 00, 01, 00, 03, FE, 01, 02, 01, 00, FF, 04, 00, FD,
  00, FD, FF, 01, FF, 03, 02, 01, FD, 00, 02, 03, 04, FE, FC, 00,
  FE, 02, FF, 04, 01, 00, 03, FD, 03, 00, FE, 03, FC, FF, 00, FE,
  04, FE, 03, FD, 00, F7, F5, F3, F6, FA, F5, F0, FF, FF, 00, 01,
  01, 00, 03, 05, FE, 00, 04, 04, 02, FD, 04, 05, 07, 00, FA, 09,
  0B, 0B, F7, F1, 03, 07, FC, F5, F5, FF, FB, FC, 01, 03, 01, FF,
  05, 00, FD, 00, 00, FB, 08, 0C, 17, 0A, FE, 00, 04, 05, FC, 01,
  F7, FA, FC, 03, 02, F3, F8, F9, FA, 05, 01, 00, 02, FE, 03, 01,
  04, FA, 00, 12, 0C, F5, F4, F0, 01, 04, FF, 07, 06, FE, FE, 05,
  FE, FF, F5, E6, ED, 07, 04, 01, FD, 02, FE, FF, 04, 03, FD, F8,
  01, 07, 02, F8, 00, FD, 03, 05, 02, FC, FE, 04, 00, 02, 00, 03,
  EE, 03, FE, 01, 01, 04, 03, 04, 0A, 0B, 08, 01, 06, 02, 0B, 00,
  F8, F7, F4, FE, F8, F9, 07, FE, F9, 0B, 05, FA, FB, 03, 00, 04,
  02, 04, 04, 0B, 12, 11, 0E, 05, 08, 04, 0A, 07, 06, 05, FF, FF,
  02, F8, F6, FF, 04, 02, 08, 08, F7, 08, 08, 05, 03, FF, 02, 10,
  1B, 22, 14, 0E, 10, 12, 0A, 09, 0F, 0F, 02, FC, F9, FE, F5, FD,
  0F, 08, 04, 19, F9, 08, 08, 05, 02, FD, 03, 0D, 18, 18, 23, 1D,
  1F, 1A, 16, 17, 0D, 03, F7, F6, E7, FB, 0A, 04, 07, 00, 09, 07,
  F4, FF, 02, 06, 03, FE, 04, 03, 11, 12, 0F, 25, 17, 0F, 01, 08,
  FF, EE, F6, F2, F6, FB, 04, FF, FB, F5, 09, 00, 09, 0C, 00, 00,
  FE, FF, 02, F6, FF, FD, ED, FC, F9, EC, DD, E2, DE, E6, 04, FA,
  07, 0D, 02, FC, 01, 08, FA, FC, 1A, 12, 05, 06, 04, 05, FF, F5,
  DE, E2, D2, D1, D9, D5, CF, D5, EF, 03, 06, 01, 0D, 0A, F8, F9,
  04, 02, FD, 05, 0C, 0D, 0F, 08, FD, FD, FE, F3, CB, CA, BC, A9,
  B3, CC, E6, FA, FF, 08, 06, 04, 03, 04, F8, 01, FE, 03, FE, 00,
  FA, 04, 07, 03, 04, 03, 01, EF, D0, C8, C3, C9, EA, F6, 10, 1E,
  0E, 0C, 06, 06, FF, F8, 00, 06, 07, 02, 07, 04, FD, FD, FB, 04,
  FF, FE, 04, FB, DF, D0, E8, 0E, 10, 16, 15, 14, 0C, 09, 03, 09,
  06, 08, 09, 05, FC, 09, 04, 08, FB, FD, 04, FE, 02, 03, FF, FB,
  FC, 00, F4, 09, 0A, 0F, 06, 03, 07, 0A, 04, 05, 03, 03, F0, F9,
  F8, FD, FD, F7, 02, 0B, 06, FE, FE, 00, 05, 03, 00, 04, 04, 12,
  02, FD, 06, 01, 08, 00, 01, 03, F8, FE, F9, F9, EF, F8, 00, 03,
  0B, 08, 02, FE, 04, FE, 04, 09, 12, 05, 0B, 10, 07, 09, 0B, 02,
  FB, FE, 0C, FF, 01, 08, 03, 01, FC, F9, 00, 09, 06, 0F, 05, 03,
  02, FE, 05, 0D, 17, 0B, 0D, 13, 0F, 06, 08, 06, FA, 00, FA, 03,
  FD, F7, FE, 02, FA, F5, 01, 0C, 12, 0C, 02, 01, 00, FD, 0A, 09,
  15, F6, 05, 02, FC, 03, FF, FF, FD, F9, FC, FD, F9, F9, 08, 0D,
  EA, F4, 12, 14, 02, 04, 05, 01, 00, FF, 08, FC, 14, 09, 05, 03,
  02, 04, 06, 08, 04, 03, 07, FA, F9, F0, 07, 01, EF, 02, 18, 14,
  04, 01, 02, 05, 00, 03, FF, F7, FF, FC, 05, 05, 0A, 08, 02, 08,
  0C, 0C, 07, 09, 05, FD, 0C, FF, F5, 0D, 12, 10, FF, 00, 03, 02,
  FD, FF, 05, FB, 00, F0, F9, E8, F1, FA, FE, 02, 07, 03, 06, 0E,
  12, 12, 09, 10, FD, 06, 05, 00, 06, 07, FE, 02, 03, 04, FF, FD,
  FC, F8, 06, 00, F6, F9, 07, FC, 01, 01, 07, 1B, 19, 12, 07, 0D,
  0D, FF, FE, 02, 04, FE, 00, 01, FD, 03, FE, FD, FF, F8, F8, 08,
  00, F8, 00, 00, 02, 02, FE, 09, ED, F2, FD, FF, FC, FC, F8, 03,
  FE, FD, FF, 00, 00, FF, 02, 04, 02, 05, 03, FF, 03, 00, 07, 05,
  05, 01, 04, 05, FE, 05, FF, FE, FD, FF, FE, 04, 05, 02, 00, 03,
  04, 05, 04, 08, 05, 06, 06, 06, 06, 08, 08, 0A, 04, 08, 09, 04,
  08, 09, 04, 03, 05, 06, 06, 0A, 02, 05, 08, 0A, 07, 08, 07, 07,
  08, 05, 02, 04, 09, 07, 04, 02, 06, 07, 03, 03, F8, 04, 04, 02,
  09, 07, 02, 0A, 03, 06, 05, 08, 06, 05, 03, 03, 04, 06, 06, 04,
  08, 05, 00, 04, 02, 02, 00, 06, 04, 00, 02, 05, 04, 02, 04, 08,
  09, 03, 06, 06, 0A, 02, 0A, 08, 0A, 05, 09, 08, 06, FA, FD, F9,
  FA, EF, FA, FD, 06, FC, 06, 05, 04, 03, 08, 06, 09, 0A, 02, 06,
  0A, 04, 04, 03, 04, 08, 04, 01, F4, F2, EC, E7, EA, E4, DA, E5,
  ED, E5, F4, FC, 01, 03, FD, 0A, 01, 04, 02, 05, 04, 03, 05, 07,
  02, 03, 05, FF, 0D, 10, FF, 09, 05, F9, F5, F1, E8, DD, DF, E3,
  E1, E9, FE, 07, 07, 00, 02, 03, 09, 07, 0B, 03, 07, FB, 00, 0D,
  17, 10, F4, 0A, 10, 04, 05, 01, 09, 17, FE, FB, F4, 0B, F9, F6,
  00, FE, 08, 02, 04, 09, 08, 06, FE, F5, 08, F8, 01, 0F, 00, 03,
  06, 0B, FE, F8, 06, 13, FD, 01, FD, F4, F3, 04, 10, 11, 0D, 03,
  03, 09, 06, FF, FD, F6, FF, 04, 14, 0E, 08, 10, F7, F5, FF, 05,
  FD, FF, 06, FD, F0, F3, FE, 04, 0F, 0E, 03, 06, 0A, 05, 06, 00,
  FC, 06, 04, 08, 0B, FE, 06, 0F, 05, FD, 0E, 05, FC, 03, 01, FA,
  02, F7, FD, F5, F7, F5, 04, 14, 08, 06, 03, FF, 03, 0B, 0A, FD,
  FF, 02, 01, 00, 04, 0B, 08, 05, 05, F6, FF, 07, 01, F7, F3, EE,
  F6, 07, 07, 06, 0A, 06, 04, 06, 05, 06, 0B, 03, 10, 04, 0B, 00,
  00, F6, 0D, 0E, 0C, 0C, 08, 09, FE, F6, F5, EB, FC, FE, 02, 09,
  08, 0A, 0D, 09, FD, F6, FD, 05, 13, 05, 07, 05, F4, F8, 09, 18,
  11, 10, 12, 07, 03, FA, EB, E8, F8, 00, 02, 07, 0A, 0C, 06, 05,
  FD, FA, 06, 14, 07, 02, 0B, F5, FD, 01, 11, 0C, 0B, 19, 0F, 06,
  10, 04, F8, F6, FC, FC, FD, 07, 06, 0C, 09, 03, 0D, F8, F2, 0C,
  09, 0A, 00, FC, 09, 07, 0B, 11, 0E, 11, 10, 0F, 11, F3, F7, F6,
  F6, FE, 02, 03, 08, 05, 09, 04, 06, F0, E4, F1, F9, FF, 0A, 00,
  00, 01, 04, 0A, 08, 1B, 0F, 06, FB, F5, F6, FD, F5, F4, 06, 03,
  08, 04, 04, 02, 00, EA, EF, ED, 04, 01, 0C, 04, 01, FB, 01, 0C,
  11, 0A, 02, FA, EF, F5, E9, F5, FA, F1, F8, 07, 08, 05, 02, 03,
  FD, F1, F6, EC, EA, EE, F5, F0, F0, FB, 00, 0C, 07, 00, FD, EE,
  E1, F0, E4, FE, FF, 07, 00, 04, 03, 08, 06, 01, FE, F8, F5, E6,
  CB, C8, D8, F4, EA, F8, 00, F8, F5, E8, E0, DA, D7, EC, DE, E1,
  F5, 06, 0B, 05, 08, 08, 0A, 07, FD, F5, EE, E3, DD, DB, DF, ED,
  EF, F5, F6, ED, E5, E8, D7, DF, E0, F0, E4, DC, EB, 02, 0A, 03,
  09, 05, 02, 09, FC, F3, EB, F0, FF, 0F, F1, EC, E7, F6, F0, E2,
  F2, E8, DE, E7, E4, EC, EA, E4, EF, FD, 04, 0A, 04, 08, 04, 04,
  F8, EF, E4, F3, 08, 0D, 06, F6, F6, F2, E7, E2, F5, E7, E9, EC,
  F1, F6, E7, ED, F1, 02, 03, 05, 09, 07, 05, 05, F3, ED, FA, FF,
  07, 07, 0C, FE, FA, F1, F8, F2, FB, ED, F9, F7, F5, F1, F2, FA,
  F6, 02, 04, 08, 06, 04, 01, 01, F0, F9, 00, 04, 02, F7, 02, 02,
  FA, FD, FF, EC, F8, F7, 03, FD, F4, FD, F6, FF, 09, 07, 02, 09,
  07, 09, 06, 06, 09, 16, 10, 13, 01, F3, FA, F3, DD, EF, F7, EE,
  EE, F7, FC, 01, FC, 02, F3, 00, 01, 07, 05, 07, 08, 07, 07, 05,
  0A, 13, 09, 08, 08, FB, F7, FC, EC, F5, F5, E4, F7, F7, F7, F4,
  05, FD, F1, FE, 00, 03, 06, 05, 07, 03, 0A, 06, 06, 08, 10, 13,
  11, 1A, 20, 14, 18, 11, 0D, FB, 03, 10, 0C, 0C, 0C, 02, 05, 06,
  04, 06, 09, 06, 06, 0A, 04, 09, 03, 07, 04, 0C, 08, 05, 06, 0A,
  05, 04, 0C, 0A, 03, 08, 0D, 0B, 07, 0A, 07, 03, 07, 06, 06, 03,
  FF, 05, 05, 00, 01, 06, 03, 02, 03, 07, 02, 06, FE, 01, 04, 05,
  01, 06, 05, 01, 01, 03, 02, 04, 05, 02, 06, 00, 02, 05, 03, 04,
  03, 01, 01, 01, 01, 07, 04, 06, 02, 01, 02, 05, 06, 00, 06, 01,
  01, 00, 01, 03, 04, 01, 00, 02, 07, 06, 04, 02, 04, FF, 04, 03,
  06, 01, 04, 00, 07, 06, 0A, 0C, 06, 08, 03, 05, 07, 04, 00, 01,
  05, 05, 01, 07, 01, 02, 03, 02, FE, 05, 05, 00, 00, 01, FF, E4,
  F3, 04, 06, 15, 12, 12, 02, 03, 02, 07, 02, 04, 01, 05, FF, 03,
  05, 03, 03, 02, 01, 01, 01, 00, FB, FC, 06, FC, FE, F7, F3, 0A,
  15, 01, F4, 07, 05, F9, F8, 06, 04, 04, 03, 04, 06, 04, 04, 01,
  FF, 01, 01, F8, F6, FB, E9, F7, FD, FE, 04, 0F, 08, EF, EF, F6,
  F8, FB, FB, 01, 00, 00, FE, 05, 04, FF, 06, 0C, 05, 08, 01, F6,
  FC, F0, F0, 01, 0B, 0B, F9, FD, F7, FB, F9, 07, 08, 0E, FB, FC,
  05, 05, 05, 00, 02, 07, 01, 17, 0C, 00, 07, 01, ED, 02, 08, F9,
  03, 00, FB, FA, FA, FB, FC, FC, 0B, 06, FD, FF, 05, FD, 03, 01,
  03, 08, 0F, 18, 0A, 04, 03, 04, FA, FF, 0B, FA, 03, 06, 07, 07,
  FB, 00, 06, FE, FF, 09, 0A, 0C, 0A, 09, 02, 00, 02, 09, 07, 0F,
  16, 06, 09, 0B, FB, FE, FD, FE, 00, 11, 1F, 16, F6, FF, 07, FB,
  05, 01, 10, 03, 0C, 09, 07, 01, 01, 03, 0B, 0F, 1E, 0E, 05, FF,
  FA, 02, 01, F9, FC, 1A, 08, F7, F1, F6, 00, 0D, 06, 05, 04, FB,
  00, 01, 07, 03, 04, 07, 0B, 0C, 19, 0E, 04, 00, F7, 07, 04, 09,
  00, ED, F8, F2, F7, F7, 03, 06, 0C, 00, F4, F9, F9, FE, 06, FF,
  06, 07, 0A, 0C, 0B, 0C, FD, 0C, 0C, 0B, 05, FC, F1, D3, F7, F0,
  F6, 00, 03, F3, 01, F6, F4, F0, FD, 01, 02, 04, 03, 0A, 0B, 0A,
  FD, 06, 0D, FB, 05, 0B, 0D, F5, E1, CE, F0, F2, F4, F4, F6, E9,
  FD, F6, E9, F1, FF, 05, 01, 01, 02, 01, 0B, 0E, FE, 0F, 0C, F7,
  02, 12, 11, E2, BB, DD, FD, F5, F3, F8, F5, F9, F9, F4, F7, 01,
  FD, 06, 03, 03, 07, 03, 09, 11, FE, 0B, 18, 0C, 01, 0F, 00, AE,
  AF, FD, 04, F8, F4, FB, F6, 03, F9, F7, 00, FD, F4, 04, FF, 00,
  03, 01, 05, 04, 05, FE, 07, 11, 08, FE, E0, A1, C8, FC, 15, 02,
  FF, FA, F4, 00, EF, FF, FC, EA, EF, FF, 04, FF, 05, 02, 00, FD,
  FD, FD, F2, F4, EF, D5, C5, C0, D1, 05, 1B, 10, 08, FB, FA, EF,
  EB, F1, F0, EC, F4, FA, 00, FF, 00, 02, 08, F4, F4, EB, E7, DA,
  E3, CB, D5, E0, E1, 08, 15, 0C, 01, FA, FA, F2, 04, 03, F3, EB,
  F1, FF, 06, 03, 03, 06, 02, EF, F2, E8, D6, D3, DE, DD, F1, FC,
  F3, FF, 11, 17, 09, 02, FD, 0A, 13, FB, EC, F9, 08, 03, FF, 03,
  01, 06, 01, F1, E8, D6, E5, E9, E0, E1, 04, 0F, 11, 03, 0E, 15,
  08, 12, 0A, 0F, 0D, F6, F5, 03, 09, 09, 03, 01, 02, 02, FF, F3,
  F4, F9, 01, F6, F5, 00, 15, 0F, 08, 05, 09, 17, 15, 0B, 0E, 11,
  13, 0E, 01, 01, 0D, 06, 04, 00, 01, FF, 01, F4, FC, 03, 03, 07,
  0C, 0C, 07, 04, FB, 07, 0C, 1C, 0C, 0E, 11, 0A, FE, FF, FE, FA,
  05, 05, 01, 07, 04, 06, 01, 01, FB, F3, F9, 04, F1, 06, FB, E7,
  F9, FB, 09, 09, FA, 0A, F7, F7, EA, F0, F2, FA, F8, 03, 07, 07,
  04, FF, 01, 06, FD, FC, FB, F9, 08, 01, 03, 00, F7, F0, F4, F8,
  E1, FD, 01, F8, F9, FB, F9, FA, FF, 03, 00, 02, 01, 06, 06, 04,
