memory_initialization_radix=16;
memory_initialization_vector=
  03, 06, 00, 04, FB, 04, FF, 05, FE, 03, FF, 03, 01, 03, 07, 04,
  FF, 04, 04, 05, 05, 02, 05, FD, FF, FF, 01, FF, FF, 00, 02, 03,
  FF, FB, 07, 07, 05, 05, FB, FB, 01, 03, 01, 06, 07, FE, 05, FE,
  04, FB, FE, 01, 05, FC, 00, FF, FE, 01, 04, 01, FB, 02, 06, FD,
  06, 0B, 11, 00, F9, 03, 0E, 08, 09, FF, F4, F5, F9, F4, FB, FC,
  00, 03, 06, 00, 00, 02, FF, 03, 05, 07, FD, 07, 08, 1B, 25, 20,
  27, 0F, 10, 12, 1C, 18, 02, F7, FF, F6, F6, F5, 04, FE, FD, 04,
  FD, FF, 06, FE, 00, 02, 0E, 09, 15, 1D, 1B, 0D, 10, 03, 04, 05,
  13, 0A, 10, 07, 07, F8, FA, EA, FD, 01, 03, FD, 01, 01, 00, FE,
  04, 07, 0F, 19, 14, 12, 16, 0B, 16, 05, 03, 07, 0F, 03, 00, 04,
  03, FA, F9, EB, 00, 00, 05, 04, FF, 00, FF, 0D, 0C, 16, 18, 1C,
  04, 0B, 1A, 19, 1C, 1B, 0A, 03, FF, 07, 08, 03, 01, FC, 02, F3,
  F5, 03, FE, FC, 07, 00, FD, 08, 1C, 16, 14, 13, 14, 11, 1A, 1E,
  1C, 18, 08, FC, FB, 00, 04, 04, FE, 04, FE, F1, 00, FF, FC, FF,
  FE, 05, FE, 09, 13, FC, FC, 08, 08, 0A, 14, 06, FB, F1, F7, F9,
  03, 00, 0B, FE, F5, F1, 00, FE, E4, F7, FA, FF, 06, 00, FC, 06,
  FC, F5, EE, EB, E5, E5, C8, B4, C0, C9, E1, F7, 00, 06, 12, FF,
  EC, EE, 17, FF, E0, F9, 01, FD, 06, 05, 01, F7, E2, D3, C3, AD,
  9E, 88, 95, B8, D3, DE, EF, F2, FF, 04, FE, FE, FB, 00, FC, F2,
  E5, 00, 06, FD, 02, 03, FB, F1, CF, B5, A1, 90, 9D, B5, EC, F9,
  FF, F5, FF, F8, F8, 03, F8, 12, 02, F1, EF, F3, FB, 04, 02, FC,
  03, FC, 01, EB, CA, B5, AD, BB, EC, 09, 20, 16, 09, 02, FE, F4,
  F6, EE, FC, 01, FB, EF, E4, ED, 0A, 12, 00, 01, FE, FF, FA, F9,
  E4, D5, EC, FF, 21, 10, 15, 0B, 06, 10, 02, F2, 02, FE, 04, F4,
  F5, F4, E8, F7, 0C, 0E, 03, 01, 02, 05, FE, 07, 04, 00, 27, 25,
  15, 0C, FF, FE, 06, 07, 04, FD, F9, 04, FC, F1, FA, FA, F2, 00,
  13, 16, 15, FD, 05, 00, FC, 09, 10, 19, 2B, 0A, EF, FB, F6, F3,
  F1, 06, FD, 04, FE, FC, FC, F5, F7, F8, FC, 0F, 1F, 1A, 0B, FF,
  FE, 06, 07, 0D, 0C, 04, 06, 05, F6, 03, FC, FD, F7, FB, F7, FD,
  FA, FC, 06, 0C, FD, 03, FC, 0C, 17, 14, 09, 05, 00, 02, 02, 03,
  0B, 05, FC, F7, FC, FF, 01, FD, FE, 05, FF, F6, F9, FD, 03, 04,
  FD, FC, 0B, FE, 04, 0F, 0D, FD, FD, FD, 05, 09, 07, 08, 04, 02,
  0E, 07, 00, FC, 05, 07, 02, FB, 05, 05, 01, 0A, FE, 10, 17, FF,
  04, 15, 05, 01, FC, FF, F3, 07, 07, 05, 0D, 09, F9, FF, FA, 04,
  00, 0D, 08, 0C, 11, 07, 09, 02, 05, 0A, 0E, 07, 0B, 16, 08, FF,
  00, 01, F9, 0C, FE, 02, FD, FF, 00, 03, 07, 07, FC, 08, 0B, 08,
  FD, F9, FD, F6, F7, F9, 00, F9, 06, FF, 08, 07, 07, 07, 05, 13,
  00, F9, 03, 09, FB, F9, FD, F5, 00, 00, FC, FF, F9, FE, 01, FF,
  FA, EF, FD, 01, FE, 07, 03, FE, 02, FC, 07, 10, 14, 0E, 0A, 10,
  0C, F9, 00, FE, F7, 06, 07, 02, FD, FF, 02, 07, 00, F8, F9, 05,
  05, FB, FF, FE, 01, 07, 02, 03, 06, 17, 00, 0B, FD, 00, 06, 05,
  FF, FF, FF, FC, FC, F9, 06, 06, FE, 0F, 10, 0A, FF, 01, FE, FB,
  07, 07, FF, 07, 08, 04, 08, 13, 11, 0A, 0D, 15, F8, FF, 05, FD,
  FA, 07, 06, FD, F9, 09, 0B, 02, 0A, 00, FD, 06, 01, FC, 00, 07,
  02, 09, 06, 0A, 10, 13, 1A, 13, 0C, 04, FA, FB, 0A, 0B, 05, 02,
  FC, EE, FC, 06, FD, 01, 07, FD, 06, 03, FE, FC, FC, 03, 02, FD,
  01, 02, FE, FF, 04, FD, 03, FE, 04, FF, FF, FF, FD, FB, 02, 04,
  FE, 05, 01, 02, FB, FF, FF, 03, 04, FF, 07, FD, FE, 07, 03, 04,
  FB, 00, FF, FB, 05, 06, 00, 05, 06, FD, FE, 07, 06, FC, FF, 01,
  03, 09, 01, 00, 03, 04, 08, 05, FF, FF, 03, FF, 01, 07, 02, 09,
  02, 00, 04, 04, 00, 05, 02, 03, 0A, 0A, 03, 03, 08, FF, 03, 04,
  03, 05, 0A, 03, 03, 0B, 07, 0C, 0D, 04, 01, 07, 05, 02, 06, 03,
  04, 05, 05, 04, 08, 08, 05, 08, 01, 09, 06, 04, 06, 09, 0B, 0D,
  0D, 08, 08, 0E, 17, 12, 12, 16, 0F, 09, 1A, 19, 14, 15, 12, 0E,
  02, 02, 0A, 04, 0A, 09, 09, 09, 08, 03, 0C, 09, 13, 09, 09, 04,
  04, 00, F4, 01, F7, 00, 04, 02, 13, 0A, 10, 15, 12, 00, 05, FF,
  04, 06, 07, 00, 01, 0A, 09, 04, FE, FF, FF, FE, 04, 01, E8, E2,
  E9, EB, F7, 04, FF, F7, EC, 0E, 0F, FE, 00, 05, 03, 00, 03, 0C,
  05, 0A, FE, F3, F8, FD, F5, EE, EE, F1, F9, FB, E8, E7, F7, E8,
  F5, FF, FC, 09, 09, F6, 0A, 0B, 01, 05, 03, 0A, 0A, 04, F1, F2,
  EF, EA, E0, F0, E1, F0, F7, F3, EB, EC, F4, E0, E8, F4, 05, 0E,
  03, 01, 08, 06, 04, 0A, 07, FE, 0B, 01, F9, 00, ED, E2, F1, E8,
  EE, F0, 08, F5, F3, F3, EA, E3, EB, E3, F5, FF, 04, FE, 04, 0A,
  05, 06, 07, FE, FF, FC, 02, 00, F6, E9, EC, DF, E6, F0, FB, FA,
  EA, FC, F6, F2, F5, EA, E6, FD, 07, 07, F6, 00, 06, 03, FF, 03,
  0A, 01, FC, 05, FA, E3, E8, EC, DB, E0, EA, FB, 02, FC, F8, F2,
  FB, FB, EF, FD, 11, 05, FF, 07, FF, 0B, 05, FE, FD, 03, FB, FB,
  02, F2, F5, EB, E2, F0, F7, 19, 14, 11, 03, FF, F9, 04, F8, 02,
  12, 10, 07, FF, 09, 0A, 0B, 0C, 0A, 0C, 00, 0F, FE, F4, FF, F5,
  EB, 09, 17, 1B, 16, 0F, 09, 0F, 04, 11, 02, 16, 0A, 02, FC, 0A,
  0A, 02, 0A, 07, 08, FF, FD, 16, 13, 0F, 06, 06, 00, 17, 24, 18,
  07, 05, FD, 11, 11, 0E, 0A, 15, 0C, 11, 05, 03, 01, 00, 0E, 0B,
  0F, 16, 0F, 07, 10, FE, FD, F9, 03, 12, 13, 02, FC, F4, F6, 01,
  FC, 0E, 0A, 17, 0B, 03, 05, 07, 01, 06, 06, 10, 0B, 0F, 14, FE,
  06, FD, FC, 07, 09, 0E, FD, 01, 0D, FB, F6, FC, 10, 0A, 19, 19,
  0E, 00, 02, 05, 00, 00, 07, 09, FD, F7, 0E, 07, FD, FD, 03, 06,
  08, 0F, 08, F7, FE, FB, F9, 07, 08, 02, 0D, 0D, 08, 09, 00, 05,
  FF, 09, 04, FD, 0B, FD, F6, F3, F0, FA, 04, 0C, 07, 09, 02, FC,
  03, FC, 03, F8, FB, 04, FE, 05, 04, 07, 00, FF, 09, 09, 0A, FF,
  00, FC, F4, EA, F0, 01, 08, 12, 0A, 0E, FF, FD, 07, 03, 04, FE,
  0A, FD, F3, FB, F2, 00, 00, 00, 04, 03, 00, FF, EE, F1, E8, F9,
  04, 0E, 0F, 13, 19, 12, 0A, 04, 07, 0C, 0A, 03, F8, F9, E7, F2,
  FE, FF, 03, 0A, 03, 07, 01, 03, E4, E7, F4, FB, 07, 16, 10, 1F,
  23, 21, 11, 14, 02, 0F, 0F, 02, 04, F3, EE, F0, FC, 00, 00, 02,
  06, 08, 08, F8, F0, E7, ED, F5, 00, 04, 09, 13, 1F, 1D, 1C, 08,
  04, 04, 06, FD, F1, E9, E6, E3, EA, FC, 07, 05, 01, 07, 06, 03,
  F6, FE, F5, F3, F6, F4, F6, F5, 00, 0C, 01, F0, FB, F8, F0, E6,
  DD, E0, DF, E8, F4, 03, 05, 04, 01, 00, FE, FF, 02, 14, 01, FD,
  EE, F7, E6, DC, E7, F3, F3, F1, F2, E9, ED, E7, E4, E6, E9, EB,
  F0, 07, 03, 01, FF, 07, 0A, FF, 06, 16, 12, 00, 05, 02, F0, F3,
  01, F2, E9, EE, F0, F3, F2, F4, 02, F6, F7, FB, F3, 07, 0D, 00,
  0A, 0A, 07, 06, F7, FD, F5, F3, F6, 03, 04, F5, F5, E9, F6, EE,
  DF, F1, FA, 06, 08, 05, FB, 04, FF, 06, 00, 03, 08, 05, 01, 02,
  FE, FB, F8, EC, E6, E7, EC, E3, F0, F3, E3, E7, F4, ED, EB, F6,
  F7, F8, FD, 03, 04, 0A, 01, 08, 0A, 03, 00, FF, 02, 02, 03, F7,
  FD, FA, F8, FF, F4, F2, F1, F9, FB, 00, F1, FB, FE, FA, 07, 06,
  04, 0A, 04, 02, 09, 0A, 02, 0A, 03, 06, 02, 09, 01, 07, FE, 00,
  03, 07, FE, 02, 06, 05, 04, 0A, 08, 05, 04, 09, 04, 07, 08, 02,
  00, 07, 04, 07, 04, 04, 00, 02, 08, 02, FE, 08, 02, FE, FF, 06,
  03, 02, 03, 04, 04, FD, 07, 04, FE, 01, 05, 02, 00, 07, 02, FF,
  FE, 02, 05, FF, 00, 07, 01, 06, 02, 05, FF, FF, 06, 06, FD, 07,
  FF, 04, 08, 06, 06, FF, 08, 01, FF, FE, 02, 08, 08, 06, 03, 04,
  00, FF, FB, FC, FC, FA, FF, F6, FC, 00, 01, 00, FD, 02, 07, FE,
  07, 02, 00, 03, 03, FD, 03, 02, FD, FB, 03, 01, FA, E8, E9, E7,
  E4, DE, F0, EA, F7, F6, EF, EA, FF, FE, FF, FB, 07, FF, 00, 01,
  02, FE, FD, 04, FD, FC, 00, F5, E8, E7, E5, E2, EA, E7, F7, 04,
  0C, 03, F3, 0B, 10, 17, 16, 05, FB, FE, 00, 01, FF, 00, 05, 05,
  03, 06, 06, EE, F5, FA, EC, F7, EC, F3, 00, 01, FD, FB, F3, F3,
  F8, 06, 09, 0E, 07, FD, 00, 07, 02, 05, FD, 01, 0A, FD, F6, F3,
  F2, EE, 08, 07, FF, FE, 00, FC, 07, F9, 00, 05, 04, 0A, 13, 07,
  EB, F1, F7, 06, 02, 00, 01, 01, 00, DE, E5, EF, E6, 03, 0C, 08,
  10, 03, 03, 02, 0D, 10, 08, 0C, 09, FE, 07, 03, DF, DC, FA, FE,
  09, 07, 01, 05, F0, DD, F0, FF, F6, 03, FD, FD, 03, F6, 06, 0F,
  12, 0A, 10, 15, 0E, FE, 00, F1, E1, CC, F8, 03, 00, 07, 05, 14,
  FA, F5, 03, FF, F5, F8, FC, FB, F4, E9, F8, 18, 17, 0F, 12, 1B,
  1A, 07, 00, FC, F2, CF, EE, 04, 08, 07, 10, 11, FC, 17, 09, FF,
  F7, F8, F4, FB, E5, D5, EE, 1B, 0E, 0D, 05, 15, 18, 13, 1D, FE,
  E1, DE, F3, 06, 05, 03, 21, 18, 0A, 0F, 0B, 07, 08, FF, 0B, 02,
  EC, ED, 08, 15, FE, 01, 01, 08, 0B, 0C, 17, 07, EC, E3, F8, 06,
  03, 00, 19, 1D, 06, 09, 0A, 0E, 12, 0B, 0D, 08, E2, EB, 10, 0B,
  07, F9, 09, FA, 03, 10, 1A, 14, FA, EA, 00, 00, FF, 00, 15, 0E,
  0B, 05, 1A, 1E, 0D, 0F, 07, E7, E3, FC, 09, FC, FE, F1, F8, 02,
  13, 14, 0F, 05, E6, FD, 03, 01, 00, FF, 05, 08, FF, 01, 12, 15,
  13, 06, EE, EA, F5, 02, F7, FB, E1, E7, F9, 0D, 0C, 0E, 05, FB,
  F0, FD, FD, 05, 07, FF, 06, FE, F5, FF, 02, 22, 13, 00, DA, E6,
  01, 00, F4, FC, E8, EE, F3, 0A, 11, 08, 03, FC, EF, FB, 04, 01,
  FE, 07, FD, F3, FC, 05, 0A, 1A, 1B, FB, D7, DF, F8, 00, F9, F6,
  ED, EE, EB, FC, 0B, 05, 06, FE, FB, F3, FE, FC, 06, 07, 05, F6,
  FA, F4, F6, 0B, 08, F4, EA, EE, F7, 05, FA, F2, E8, EE, 06, 04,
  0A, 11, 0C, 05, 02, 0E, 03, FD, FE, 08, 07, F1, F3, EA, F4, FC,
  06, 01, F2, FF, FD, 07, F4, EB, E7, FC, 02, F1, 03, F7, FC, F0,
  F4, 04, 09, FD, 05, 03, 01, F4, F6, 08, 06, 03, 02, 09, F7, F8,
  0C, 08, E8, D1, E7, FF, F8, F8, F9, F1, F2, E2, F6, FD, 02, 04,
  FD, 05, 04, F2, F9, FC, FE, F9, FD, FA, 03, 06, 10, FB, ED, DA,
  F0, FD, F6, E8, E7, EF, F2, F2, 05, FF, 03, 00, 03, 03, F8, FE,
  F6, FF, FD, FE, E8, FE, 08, 07, 0C, F6, E8, D9, EA, E9, F1, E1,
  E2, EE, ED, F5, 11, 06, FE, 05, 01, 06, FF, F4, F2, 0A, 0A, FA,
  00, FD, 06, 00, 0B, 00, F8, EE, F3, FE, EE, F3, F6, F2, F0, FE,
  09, 04, 00, 08, 02, FD, FF, FB, EB, 05, 05, 01, F8, 02, 0B, 0A,
  0C, 0A, FA, ED, E5, F7, EF, E6, E5, F3, FC, FC, 14, 06, FF, 03,
  03, FF, 02, FD, 07, 1A, 00, F5, F8, FB, 0E, F9, FD, EE, F6, E5,
  E0, DC, E7, E8, F8, 00, 05, FE, 03, 02, 07, 02, 01, 07, 05, 03,
  06, 0D, EF, FF, 05, 0A, 05, 17, 02, F7, 09, F3, E9, E6, F1, 07,
  0E, 0D, 0B, FF, FF, 04, 08, FD, 05, 05, 07, 04, FF, FE, FF, 10,
  0D, 0F, 17, 12, 00, 0F, 11, 0C, 0D, 0D, 08, 03, 0B, 14, 06, 04,
  00, 07, 05, 04, 06, 00, FE, FD, 02, FD, FF, 08, 08, 06, 06, 0A,
  03, 03, 06, 09, 0B, 06, FF, 02, 09, 09, 08, FE, 07, 00, 00, 01,
  FE, 07, 07, 04, FF, 02, 04, FF, 07, 04, 09, 06, FF, 09, 00, 09,
  08, FD, 07, 00, FE, 04, 00, 00, 06, 04, FE, FE, 00, FF, 02, 00,
  FD, 05, 05, 0A, 03, 08, 04, 06, 11, 0C, 04, 07, 05, 01, 00, FE,
  05, 04, 03, 05, 05, FF, 05, FF, 04, 05, 02, 09, 05, 03, 01, 0B,
  02, FF, 09, 11, 11, 0A, FC, FD, 04, 16, 1C, 1B, 12, 10, 08, 04,
  08, 05, FE, 05, 06, FF, FE, 07, 05, FF, 0D, 0D, 08, 03, 0F, 10,
  03, 12, 15, 09, FC, 17, 21, 16, 12, 12, 0A, 10, 09, 00, 04, 08,
  02, 08, 07, 05, 07, 09, 07, 10, 0F, 0E, 0B, 00, F3, 08, FC, F9,
  00, 01, FB, FA, FA, FA, 00, FC, FB, FD, FF, 04, 02, 04, 01, 0A,
  08, F3, FF, F9, F5, 00, 03, EF, F2, 01, EB, F2, F0, 0D, 05, 13,
  03, 01, F8, EC, F2, 07, 07, FF, 04, 05, FF, 01, FF, F7, F8, F7,
  FD, F9, FF, ED, EB, FA, ED, F2, F9, 08, 07, 0F, 11, 06, 0C, 01,
  F7, 02, FB, 04, FF, 02, FF, FF, 06, FE, F6, FA, ED, FB, FA, F4,
  F2, F8, 07, 11, 0E, 0B, 09, 0D, 00, FB, F5, 07, 03, F8, FB, 01,
  FE, 01, 01, FD, 00, 01, FD, F1, F2, 05, 01, FC, 0B, 18, 0B, FC,
  07, 06, FD, 0C, FB, FC, 03, F7, 00, F4, 03, 01, FD, 04, FF, FA,
  FD, 00, FF, F2, 02, F5, FE, FC, FE, 07, 00, E8, F8, F6, EF, 03,
  06, FB, 06, 14, 05, FF, FB, F7, 06, 02, 06, FB, FA, F1, F4, FD,
  F4, FE, 00, 00, FC, 04, 16, FE, FD, F7, 08, FC, 0B, FE, 07, 1F,
  06, E9, F5, FB, 04, 02, FC, F7, FA, F2, 04, 05, 0A, FE, F5, F7,
  F3, 0C, 26, 1A, 0D, 13, 15, 08, 0F, 0E, 0B, 21, 1F, F6, 09, 07,
  03, 07, 05, 00, FC, 03, 0E, 0F, F0, 01, FA, E9, DF, 0E, 2B, 16,
  08, 1A, 0E, 0C, 15, 08, 13, 1F, 26, F9, 00, FF, 03, 06, 03, 04,
  01, 07, 08, FE, FC, 00, F7, E1, F9, 00, 0D, 13, 0D, 0C, 08, 01,
  F3, FC, 02, 0A, 07, F9, F1, 07, FE, 09, FE, FD, F4, 0C, 01, F8,
  FD, 00, FF, FB, 03, 0D, 03, 02, F6, F8, F7, E6, FF, 0E, 05, F8,
  0A, 02, F2, 04, 00, 03, FD, F5, 04, 0F, 03, 0B, 04, 04, 02, FD,
  05, FC, FC, ED, E7, E4, ED, F7, 0C, FB, 01, 0F, 08, EF, EE, 02,
  06, 05, 03, F5, FE, 13, 09, 05, 10, 10, 10, 0A, FC, E3, EC, E3,
  DF, EA, EF, 01, FF, EE, FF, 0B, FA, E1, F3, 03, 09, 00, 01, 04,
  F8, FD, FC, 07, 09, 06, 0C, 02, F3, D4, E0, EE, F4, 07, 01, 0C,
  FF, F7, FA, 00, EE, EA, F8, 04, FF, 02, 09, 03, FB, F6, 00, 0A,
  07, 09, 11, 02, E5, DD, F9, 08, 06, 11, 05, EC, F5, FE, FF, 01,
  E7, F3, FF, 07, 00, 08, 0F, 02, 00, 09, 04, FA, 00, 05, 14, F6,
  F2, F7, 01, FE, 09, 15, 04, FB, 03, 04, 06, F1, EF, F3, FE, FF,
  05, 05, 09, FD, 0D, 04, FB, FB, FA, 04, 0F, 02, 08, 14, 02, 04,
  01, 0F, 01, FE, 08, FD, EA, E3, E7, 01, 05, FF, 06, 02, 00, 03,
  02, FB, 06, 0A, 00, 05, 0A, 14, 18, 0F, 0D, 0B, 0B, 0F, 03, FF,
  F6, DE, D7, DB, EE, FE, 06, FE, 09, 09, 08, 09, F5, F6, 0C, 03,
  F0, 01, 03, 10, 0E, 14, 13, 19, 08, F8, EC, E8, DE, D6, E5, E8,
  F8, 05, 03, 08, 08, 04, 04, 11, 0A, FE, 0C, 0D, 10, 07, 05, 0A,
  05, 19, 0D, FE, DB, E1, D9, E3, E3, E9, FA, FF, 00, 06, FF, 09,
  05, 08, 03, 02, FF, F5, 0C, 06, 0B, 0B, 07, F7, 06, F8, D4, DB,
  D6, DE, E6, F5, FC, F2, FC, 03, FE, 01, FD, 08, 03, 04, 09, 02,
  F2, F4, 03, 05, 04, 06, FB, ED, E7, DE, DC, F1, F9, 02, FF, 06,
  01, 01, 05, 02, FE, 03, 01, 04, 07, FF, 08, 03, 05, 09, FC, FB,
  F6, 04, 03, 06, 09, 00, 06, 00, FD, FC, 01, FE, FF, 07, 03, FE,
  08, 06, 02, 02, FF, FE, 01, FE, FE, 06, FF, FE, FB, 02, F8, 08,
  07, FB, 00, FC, 01, 03, 03, FC, 06, FE, 05, 05, FD, 07, 00, 03,
  09, 0C, 02, 0D, 05, 03, 09, 02, 06, 04, 03, 0C, 04, 04, 0D, 0D,
  09, 03, 0B, 03, 09, 05, 09, 02, 07, 06, 0A, 0B, 03, 06, 0B, 07,
  05, 08, 01, 02, 08, 0A, 0C, 06, 0A, 08, 0E, 07, FE, 02, 04, 06,
  06, 07, 06, 09, 0D, 0A, 0A, 05, 0A, 07, 09, 06, 0C, 08, 04, 0B,
  05, 08, 02, 07, 10, 06, 0E, 16, 12, 07, 0B, 12, 0C, 0E, 0A, 08,
  03, 03, 08, 0B, 03, 0B, 0C, 09, 04, 07, 02, 0A, FE, 0B, 05, F9,
  F4, F4, 02, 01, FE, 04, F7, 0C, 0B, 06, 07, 08, 06, 04, 09, 08,
  0B, 06, 0A, 0B, 0D, 05, 05, 01, 01, FB, FA, 01, F9, 03, F1, F1,
  FB, FB, F6, 12, 09, 0C, 15, 0E, F6, F1, FD, 05, 08, 02, 03, 01,
  02, 09, 01, FD, F9, EB, E2, EC, F5, F0, FD, FD, FD, F1, FC, FE,
  F9, 06, 0F, 1E, 0B, F9, 0C, 05, 02, 0B, 0D, 04, 02, FF, F0, ED,
  E8, E1, E6, FE, F4, EF, F8, FB, F4, F5, FA, ED, ED, 03, 16, 1C,
  0E, 01, 08, 0F, 05, 04, 05, FE, FD, 03, F4, F8, EB, E2, EB, FA,
  ED, F8, 07, F2, EE, FC, F2, ED, F9, F0, 07, 0B, FC, F6, 06, 03,
  02, 06, 06, 01, FC, FE, 05, FA, E4, E6, E9, F2, FB, FE, FD, EF,
  E7, F7, F1, F0, E6, DB, E8, E8, D8, E8, F9, 0A, 06, 08, 07, 00,
  FE, 01, FC, FA, F1, DF, E3, F8, F9, FC, FA, F8, FB, F2, FE, E9,
  E4, E5, DE, DE, D6, E3, 02, 0C, 0C, 07, 04, 01, 05, FD, F4, FE,
  EA, E2, EC, F9, F8, 02, FC, 0F, 08, 03, FA, F9, DA, D3, D1, CC,
  CF, E7, 00, 0C, 07, 0E, 08, 02, FA, F7, F7, FC, F0, F5, F4, F8,
  0A, 0B, 13, 11, 0E, 06, 02, FB, E5, E4, D9, CD, C1, DA, F6, 0C,
  0A, 06, 04, 02, F7, EE, FC, 07, FC, F7, 02, 1B, 24, 1D, 10, 14,
  19, FC, FE, F7, EC, F7, F4, E5, E5, E9, FE, 02, 0B, 08, 07, 03,
  05, FD, 08, FF, FF, 03, 16, 16, 0F, 12, 10, 11, 10, 04, 03, FE,
  09, 16, 16, FE, F0, EE, F8, 05, 06, 0D, 0B, 07, 0E, 09, 06, 04,
  03, 0B, 1B, 0D, 0D, 0D, 0A, 08, 0E, 06, F9, FD, 0D, 1E, 28, 17,
  FD, 03, 00, 08, 0A, 03, 0E, 05, 0D, FF, FE, 0D, 09, 12, 16, 12,
  0E, 0E, 13, 10, 07, FC, F9, 04, 10, 23, 2D, 18, 00, 03, 01, 06,
  06, 07, 0A, FA, 00, F6, F2, 19, 18, 11, 01, 13, 0B, 15, 1F, 11,
  0C, FC, 0D, 0E, 16, 13, 09, 0A, 00, FC, FE, 09, 0C, 07, 0B, FA,
  FC, F1, E1, 03, 0F, 11, 22, 0B, 04, 18, 11, 02, FC, F0, 0E, 0F,
  09, 08, F6, F9, FE, FD, FE, 01, 02, 09, 02, 00, FE, E7, E0, EF,
  F7, 18, FF, 02, 0B, 0F, 05, F2, EC, EB, 03, 06, F4, F4, D8, E7,
  FB, 04, 0B, 04, 0A, 07, 07, 06, 00, E6, EB, F7, F1, F9, FA, 0F,
  0A, 05, 01, F8, FA, EC, FC, FA, E9, E9, D4, E5, 01, 02, 06, 05,
  04, 02, 0B, FE, FC, EE, F6, FA, F8, F3, F5, 04, FD, F7, 02, 08,
  05, F2, 03, E5, DB, E1, E1, EE, 05, 06, 0D, 03, 09, 06, 04, 01,
  FA, 07, ED, ED, 04, F9, F8, F2, FC, F2, FF, FE, FF, F6, 01, E5,
  DA, EB, EC, F6, 03, FB, 07, 03, 0B, 08, 03, FF, FF, 14, F5, EA,
  F5, F1, F8, E6, E3, EE, F5, 00, 04, FD, 0C, 03, F9, F5, F5, 04,
  07, 03, 08, 09, 0B, 0A, 08, FC, 00, 0A, 0E, 04, FF, F7, FA, F0,
  FD, F7, EF, FD, FF, 03, 0F, 10, 0A, 06, FD, 0D, 0A, 0A, 08, 0B,
  08, 06, 08, 08, 02, 02, 02, 09, 02, 10, FE, 02, EE, F5, FA, EB,
  F4, F6, 0F, 17, 1B, 06, 0C, 12, 04, 0A, 08, 0C, 0A, 02, 04, 0B,
  05, FC, FF, FD, F7, F6, F6, FC, E3, F6, E7, E6, EA, E4, E4, E2,
  F4, 06, 0E, 13, 05, 03, 0A, 09, 08, 05, 0C, 06, 02, 05, 04, 02,
  F7, F3, F8, F0, E9, E2, E3, F1, F5, ED, ED, F8, FD, F9, 00, 0B,
  0D, 0C, 03, 07, 0A, 03, 0A, 03, 02, 04, 0A, 08, FF, 08, 06, 0B,
  08, 05, 08, 07, 04, 05, 07, 04, 0D, 0D, 08, 08, 04, 05, 08, 0C,
  FE, 02, FF, 05, FF, 03, 08, FE, 00, 06, 08, 05, FE, FE, 09, 02,
  05, FE, 02, 00, 06, 00, 09, 04, 02, 05, 05, 09, 09, 02, 04, 02,
  06, 03, 02, 01, FC, 07, 01, FA, 03, 00, 04, FF, 02, 06, 05, 00,
  FE, 01, 01, 01, 06, FF, FE, 06, 03, 02, 00, 03, 00, FE, 01, FE,
  00, 01, 06, FA, F5, F1, F3, FE, 07, FF, FF, 00, 00, 05, 01, 03,
  08, 03, FF, 07, 01, 04, 03, 06, 05, 06, 05, 05, 12, 07, F9, FB,
  EF, EF, E4, E6, F2, FD, 03, FF, FE, 00, 07, 01, 02, FF, 04, 08,
  02, 08, 05, FE, 02, 0C, 0D, 06, 04, FD, F2, FE, EA, DE, CD, CB,
  E0, E8, F0, FA, FD, FD, 02, 02, 02, 07, 03, 06, 06, 08, 00, 08,
  0B, 10, 07, 10, 02, 02, 03, 04, EE, E1, B7, B5, B4, CD, E0, EB,
  F5, F2, FB, FA, 05, 03, 09, 03, FF, 07, 08, 0E, 14, F7, 1C, 15,
  11, 18, 0C, 02, FD, 08, FC, FB, F6, EB, D6, CC, CE, DD, E7, F5,
  FC, FD, 04, 06, FE, 03, 0C, 1C, 18, FA, 17, 06, 04, 07, FE, 00,
  0F, 1E, 17, 0F, F0, EA, DE, C9, CF, DA, DE, E9, F0, F6, 04, 08,
  FF, 01, 0A, 0F, 15, 09, 0B, 03, F9, FA, 0F, 11, 1A, 20, 19, 12,
  FF, FB, F7, DF, CE, CC, D9, DD, EB, FB, 05, 04, 08, 00, 02, 13,
  1A, 24, 02, 00, FD, 0E, 0B, 12, 1B, 15, 1E, 05, 02, 09, FD, ED,
  EE, DD, E2, E9, EF, FB, FF, 09, 02, FD, 03, 08, 12, 13, 0F, 0F,
  08, 0B, 09, 10, FF, 08, FE, FF, 0A, 07, FB, F2, F9, EB, EF, F7,
  F9, FD, 07, 05, 00, 00, 05, 14, 17, 15, 10, 12, 0B, 07, FF, 08,
  FF, 01, 04, FE, 00, 08, FA, F8, 00, E8, EF, EF, FF, 02, FF, 01,
  01, 06, 0B, 10, 1A, 15, 0C, F3, F9, F2, E0, E1, EC, FA, 10, 0C,
  08, 05, 0B, F8, F6, ED, F5, F5, F8, 0D, 02, 0C, 06, 07, 01, 13,
  02, FC, 01, EC, F0, F2, E6, F0, FB, 07, FF, FD, 04, 0A, 0C, EF,
  FA, F9, FF, FD, 02, 0A, 06, 08, 01, 05, 04, 02, F9, E2, E5, E6,
  E4, F4, FB, 05, 0F, F8, F3, FB, FF, FF, 0B, F6, F4, 08, FA, 01,
  03, 0A, 11, 08, FE, 02, 00, 02, EF, E4, E8, D8, F1, FE, 06, 07,
  06, 01, FE, FE, F8, 0A, 0A, 06, 0F, 15, 11, 02, 0A, FF, 06, 0A,
  05, 06, 01, 07, F9, E3, F3, F2, 05, 03, 0F, 0E, F8, 01, 03, F7,
  F1, 01, 08, 0C, 0E, 0A, 0B, 01, 01, FF, 0D, 06, 05, 01, 05, 00,
  FC, FC, 04, FF, F9, F9, FB, 0B, 04, 08, 02, F1, EE, FB, FD, 0F,
  0E, 07, FD, FC, F7, 0E, 0D, 09, 01, 01, 0A, 04, F9, FF, F8, F4,
  07, FC, FF, 0E, FB, FD, F5, EA, F4, 00, 02, 0B, FE, FF, 13, FC,
  F3, 0F, 0A, 03, FE, 05, 05, 04, FE, F7, F1, FB, FB, F5, FC, 07,
  07, F4, EE, F6, FC, F9, FF, 01, F5, 07, 0C, FB, F9, 0C, 05, FF,
  02, 05, 00, 05, 04, F8, F0, FF, 08, FC, 03, F7, FB, FB, F8, 00,
  06, FA, F6, FC, 02, 06, 01, FB, FC, 00, 07, 01, FF, 05, 00, 06,
  07, FA, F2, FD, FD, 03, 03, FB, FC, F7, F8, 00, 04, F8, F1, FF,
  FE, F3, E5, FC, FB, F6, 01, 06, 08, 03, 01, FF, 03, F9, F8, EE,
  F8, FF, 05, FD, FF, FD, F7, FA, FA, FF, F8, EE, F0, E9, ED, F5,
  F7, 04, 03, 04, 02, 09, 07, 02, 06, FE, F8, F7, F9, F2, F6, 06,
  08, 05, FA, F9, F2, ED, EA, DF, E8, F2, EE, F5, 07, 02, FE, 01,
  FF, 05, 05, FD, 00, 0A, 08, FF, 00, F7, FE, 00, F3, F8, F8, F5,
  F1, 07, F4, FD, FE, F0, E9, F1, FD, 06, 00, 05, 08, 01, 05, FF,
  08, 08, 06, 03, 0E, 0F, 0C, FC, 0D, 00, 0F, 02, 0C, 0F, 02, 12,
  05, F3, EB, F1, 01, 04, 00, 05, 05, 00, FE, 07, 09, 07, FE, 0C,
  11, 1E, 24, 16, 1A, 1C, 29, 0D, 0C, 1C, 18, 14, 08, 07, 01, 03,
  07, 06, 06, 04, 08, 04, 07, 06, FF, 04, 00, FF, 02, 02, 03, 02,
  08, 05, 06, 01, 01, 01, 0B, 0B, 02, 08, 09, 05, 05, 08, 08, 01,
  02, 05, 03, 03, 04, 03, 02, 06, 05, 06, 01, 0C, 06, 08, 03, 06,
  07, 0B, 03, 04, 0D, 08, 08, 02, 09, 04, 06, 07, 0B, 01, 03, 0A,
  0C, 01, 0B, 0C, 09, 05, 06, 03, 06, 06, 06, 0E, FE, 0A, 06, 07,
  0A, 05, 0A, 02, 02, 08, 08, 0D, 03, 08, 07, 05, 0C, 01, 0A, 04,
  09, FA, FD, 00, 0C, 02, 0B, 0E, 0D, 0E, 0F, 0B, 0A, 0F, 0C, 0B,
  00, 05, 04, 0B, 09, 02, 07, 08, 07, 01, 07, 04, 06, F9, F3, EE,
  F8, E5, EA, F0, FB, FE, FD, F3, FF, 05, 11, 01, FE, 09, 08, 06,
  09, 0B, 07, 0A, 07, 00, 07, 02, F4, EE, E0, DC, E0, E9, EB, E9,
  FB, 0E, 09, F9, F6, FB, FC, 02, FD, 08, 05, 03, 0C, 05, 05, 0C,
  01, FE, 01, F5, E1, D9, D1, DD, EF, F8, FA, FC, FD, 00, E9, F0,
  0D, 0D, 05, F9, F7, 01, 09, 08, 06, 0C, 08, 04, 01, 01, F3, E4,
  D5, CA, E1, EB, 0C, F7, FC, F8, EC, F5, 06, FE, 0E, FE, 12, 0B,
  04, 12, 0D, 06, 06, 05, 03, 02, 05, 01, EE, E0, CC, D4, EB, 10,
  21, 08, FF, FC, F3, 00, FD, F2, 08, 0D, 15, 16, FF, 0A, 14, 04,
  07, 02, 02, 06, 02, FD, EE, DB, D5, DA, ED, 0E, 16, 16, 06, F7,
  F4, FC, FA, 04, 0C, 18, 0D, 10, 2E, 2B, 0F, 08, 07, 0B, 02, 03,
  05, FF, ED, E4, C7, DA, F4, 0F, 10, 17, 04, 01, FD, 04, 07, 0D,
  14, 19, 0E, 0E, 32, 3E, 0F, FE, 0C, 0A, 0B, 01, 06, FD, F2, ED,
  D5, E2, F8, FF, 16, 13, 10, 05, EF, EB, F3, FE, 01, 16, 1C, 25,
  39, 37, 16, 08, 08, 04, 06, 03, 06, 05, F4, E8, DE, E9, F2, F3,
  09, 17, 0F, FF, F6, E2, E0, D6, D9, FB, 01, 23, 26, 26, 0F, 07,
  03, 0B, 05, 07, 01, 02, F5, EE, EF, E6, FC, 04, 08, 0E, 19, 05,
  FF, FB, D9, BC, C8, C7, CE, EB, EF, FC, 02, 09, 0A, 06, 05, 06,
  06, 07, EE, FF, FE, 04, FF, 02, 12, 04, 17, 06, 03, 01, E5, E0,
  C5, C3, CA, D7, E0, F8, 07, 0A, 02, 0B, 02, 08, 0C, 04, EC, FD,
  02, 0C, 07, F3, F2, 0A, 11, 01, 04, F8, 00, F0, DB, D2, D3, D5,
  E5, 03, 06, 07, 05, 09, 06, 03, 0C, FA, 05, 00, FA, FB, F3, F4,
  FF, 11, 15, FB, EF, EC, 02, F5, E4, CD, D3, D8, F0, 04, 04, 09,
  0B, 0C, 09, 03, 02, 11, 04, EE, EC, EF, FA, F6, 0D, 15, 14, 03,
  F3, F6, F7, F1, F0, DF, DD, E6, FD, 03, 03, 08, 09, 0C, 06, 07,
  05, 14, 0F, FD, 00, 00, 13, 08, 00, 07, 10, 02, FF, FD, 03, F8,
  04, EC, E9, F2, 01, 01, 05, 07, 09, 09, 08, F6, FC, F0, 00, 03,
  0B, 0B, 12, 06, 08, 0E, 0D, 02, F9, 09, 02, 06, FF, DC, CE, EA,
  02, 06, 06, 02, 0C, 03, 02, F1, E0, EF, F9, FC, FF, 08, 09, FE,
  FE, 02, 00, 03, 07, 04, 06, 06, EF, E2, D8, F1, 0B, 09, 0B, 0C,
  06, 09, 0C, EB, D8, F8, 08, FA, FC, F3, 09, 08, F1, F7, FA, 03,
  05, 16, 08, 0A, FD, E3, E6, FA, 09, 0A, 0B, 0C, 01, 04, 06, F5,
  F1, E8, 02, FD, FB, 05, FE, 07, 00, 00, 03, FD, FC, 08, FF, 03,
  F2, EC, ED, FF, 12, 03, 09, 02, 04, 05, FF, 00, F5, FE, 00, 00,
  02, 02, 01, 0A, 0B, 01, 04, FC, FC, 08, 0B, 01, F6, EB, FD, 0E,
  07, 07, 08, 03, 0A, 06, 02, 01, F1, FA, 06, FD, F9, 07, 00, 01,
  08, 01, 08, 08, FC, F7, F8, F6, F8, F2, F6, FD, 02, 0B, 09, 0B,
  0B, 04, 0B, 04, ED, E8, E4, F2, EE, 01, F3, F9, FF, F6, 0A, 0A,
  EF, F5, 0A, 07, 0C, FD, 09, 04, 03, 01, 0B, 07, 09, 05, 02, 0A,
  F8, EF, EA, DE, DD, F2, E9, FC, FE, F9, F6, F4, F3, 06, 0F, 0E,
  05, 05, 0B, 0B, 08, 08, 07, 04, 02, 0B, 03, 06, 08, FD, 00, 03,
  FB, FE, 01, FF, 04, FC, 01, 06, 09, 09, 09, 07, 06, 02, 04, 08,
  01, 0B, 03, 04, 09, 08, 0A, 0A, 0C, 02, 08, 03, 08, 04, 06, 0A,
  09, 0B, 05, 03, 08, 05, 07, 09, 06, 09, 06, 06, 0C, 09, 07, 0C,
  02, 01, 0B, 03, 08, 08, 08, 01, 0A, 00, 02, 0B, 08, 02, 03, 0A,
  04, 02, 0B, 05, 09, 09, 08, 00, 09, 0C, 06, 06, 0B, 0A, 0B, 0A,
  02, 0C, FF, 01, 03, 03, 01, 06, F8, 04, 08, 05, FD, 02, 09, 08,
  05, 02, 08, 08, 03, 0C, 09, 01, 04, 0B, 06, 02, 03, 09, 06, FD,
  F9, FA, F0, F2, EE, F4, FB, FA, 03, 07, 04, 01, 04, 04, 04, 05,
  FF, 07, 01, 03, 0B, 08, 0A, 03, 09, 02, FF, F1, E4, D8, E8, EA,
  E3, DB, E4, F3, 0A, 08, F9, 02, 02, 0D, 04, 00, 07, 05, 0B, 0B,
  06, 03, 04, 04, 04, FE, 00, FA, E9, E6, E7, F7, 00, F6, EB, EF,
  08, 08, 08, 15, 13, 13, 12, 10, 0B, FF, 0B, 05, 0B, 06, 07, 05,
  FF, 04, FB, FD, FA, 04, FD, FF, 02, DF, C1, D3, 07, 19, 1A, 0E,
  0C, 0B, 07, 16, 03, FE, FC, 01, 05, 02, 0C, FC, 03, 0B, FF, FF,
  0A, 09, F4, F7, 00, DB, BC, C0, F0, 1A, 0F, 0A, 0C, 0B, 0D, 0B,
  F4, FE, 03, 04, 06, 01, 06, 0B, FC, 0F, 0B, 0B, 09, 03, 07, 08,
  00, E6, C5, CD, F7, 11, 11, 0C, 0C, 06, 0A, 0B, F9, 01, 0C, 01,
  01, 09, 12, 1C, 07, 20, 19, 1A, 0D, 17, 15, 0B, 0D, EA, C9, D7,
  05, 12, 0F, FF, 02, 00, 02, 03, FA, 06, 03, 07, 0A, 07, 10, 10,
  17, 18, 14, 0F, 13, 19, 09, 08, 0B, E3, CA, E9, 17, 17, 06, 01,
  02, 08, 05, F7, F3, 08, FD, 02, 05, 0C, 0E, 10, 0A, 03, EF, FF,
  01, 06, 08, 19, 15, E7, CA, FB, 0F, 10, 0D, 0C, 01, FF, 08, ED,
  08, 09, 08, 02, 04, 0C, 0E, 0E, 00, 01, F9, 07, 04, 09, 13, 1C,
  10, DC, CC, 01, 14, 08, 02, 05, F5, F3, 02, E5, E8, 02, 05, 03,
  07, 0E, 16, 03, F5, F1, F2, 12, 05, FB, 0C, 19, 14, C6, D2, 07,
  18, 02, 05, F6, F8, FF, FD, D8, E9, FB, 04, 05, 01, 0C, 0D, F7,
  FD, 07, 03, 07, 07, FD, 10, 11, F3, BB, E4, 04, 00, 01, 0B, F3,
  FB, 00, F2, DB, DD, F7, 04, 02, 04, 09, 05, FC, 0F, 23, FF, FD,
  F4, 04, 07, FC, E9, DA, E8, 04, 05, 0B, 0D, 05, 05, 04, FD, F4,
  EA, F0, 02, 01, 08, 0A, 08, 15, 0D, 09, 00, FD, FF, 04, 0A, 01,
  F6, E5, F9, FE, 02, 10, 0F, 09, 0C, 12, 14, FA, D2, E8, FA, 0A,
  05, 04, 08, 0E, F5, F5, 01, 15, FE, 03, F6, E7, F1, F0, 00, 0F,
  07, 0A, 12, 14, 19, 23, 07, F5, EF, E8, F4, 05, 02, 0C, 0E, 01,
  0A, FF, 01, 0F, 07, 00, F9, EC, DF, 01, 0E, 0F, 08, 0A, 19, 0D,
  12, 14, FB, FB, FA, FA, FF, 02, 0A, 05, 0A, 04, 0C, 04, 06, 08,
  03, 04, EA, E0, E2, 05, 10, 05, 00, FF, 02, 00, FC, FC, EB, EF,
  F7, 00, 0A, 0A, 01, 08, 09, 05, 12, 04, 09, 00, 03, FB, E2, D1,
  DE, 02, 13, FC, EF, FC, F6, F7, EF, F3, DE, EE, F8, 03, 05, 03,
  04, 0B, 08, FB, F0, F7, F2, EB, E1, D6, D3, E8, F4, 01, 02, 01,
  FA, 02, F7, EE, F6, F3, DD, EE, F8, F8, 08, 05, 0A, 0C, 07, F6,
  FA, F1, E5, D9, E3, D2, E2, FF, 02, 02, FC, 02, 07, 03, F7, F6,
  06, 06, FC, F8, FD, 02, 09, 0B, 0B, 03, 05, 01, F1, FD, E9, DE,
  E7, E9, F1, FF, FF, F9, F8, 08, FD, F8, 03, 0B, 0B, 03, F5, F0,
  00, 04, 05, 06, 03, 08, 0C, 05, 03, FC, F9, EF, F0, F6, 02, 02,
  F5, 03, 03, 03, 03, 05, FE, F9, EE, FC, F1, F2, F9, 07, 08, 06,
  06, 04, 09, 03, 03, 08, 01, FA, FA, F8, FD, 09, FC, 0F, 01, FA,
  0B, 0B, F7, F2, E2, E7, EF, FD, 01, 08, 06, 03, 01, 05, 09, 01,
  0A, 03, FB, FD, 07, FA, FC, 0D, 13, 08, FE, FC, 02, 00, FE, E9,
  DC, E6, F3, 03, 06, 09, 0B, 03, 04, 02, 07, 00, 03, FC, 00, 0A,
  0B, FD, F2, F0, F2, F0, E9, F5, FC, EF, FC, FE, EB, F4, 01, 08,
  09, 0A, 0C, 0B, 0B, 00, 03, 08, 08, 0B, 01, 01, 05, 06, 06, 04,
  07, 0D, 00, 04, 0E, 0A, 0E, 05, 07, 05, 00, 0B, 09, 0A, 01, 08,
  08, 04, 0B, 03, 04, 04, 08, 08, 0C, 04, 09, 0B, 0C, 04, 04, 02,
  06, 07, 07, 05, 02, 0A, 04, 02, 03, 07, 0D, 06, 09, 02, 0C, 02,
  0A, 07, 02, 02, 0A, 03, 09, 01, 03, 08, 08, 0A, 05, 00, 0A, 0D,
  05, 05, 06, 0D, 03, 06, 09, 05, 0C, 05, 04, 07, 05, 09, 09, 08,
  09, 04, 01, 0A, 07, 10, 0F, 0A, 0B, 09, 0E, 0C, 09, 0B, 08, 05,
  04, 09, 0B, 0B, 07, 0A, 0E, 0B, 09, 05, 0D, 06, 00, F6, F7, F9,
  F6, FB, F2, F2, FA, 08, 14, 09, 01, F7, 00, 09, 08, 09, 03, 04,
  0A, 0B, 04, 0D, 0B, 05, 04, FD, F9, F7, 00, F5, FF, F6, 00, FA,
  09, 0E, 07, 08, FF, F9, F0, F2, FA, 04, 05, 07, 06, 0B, 08, 07,
  0B, 03, FF, 02, FA, F4, F0, 10, 1B, 0C, FF, F7, E9, F6, 01, F3,
  F9, FC, F8, F7, 05, 08, 09, 0D, 09, 05, 03, 06, 04, 00, 0C, 1F,
  07, F1, F3, 0E, 14, 06, 06, FE, FA, 0B, FC, 04, 0B, 08, FE, 02,
  FE, FC, 03, 08, 03, 09, 02, 06, 05, 0A, 13, FB, EE, F9, FB, 00,
  FE, 06, 06, FF, FA, FE, 05, 08, 0F, 07, 09, 02, F8, F1, 01, 08,
  06, 05, 08, 09, 10, 0E, 11, 06, 0C, 09, FC, F8, 04, 0C, 10, 00,
  F2, EB, F9, F9, FD, 05, F8, F8, 05, 0E, 0A, 0A, 06, 09, 0B, 0F,
  04, 00, 02, 02, FF, FB, FA, F3, F7, 08, 02, FF, FB, F0, F4, F3,
  F9, 07, 09, 06, FA, F8, 07, 0B, 09, 06, FE, 01, FC, FA, F8, FE,
  08, 07, 01, F9, F7, FE, 00, FC, F8, F1, FC, F3, F3, 0E, 1B, FC,
  EF, EB, FF, 02, 08, 07, 07, 01, FE, FB, F8, 09, 1F, 14, 0F, 03,
  0F, 08, 10, 03, FA, FC, FC, F1, FF, 14, 0A, F0, E5, E4, 00, 08,
  09, 06, 08, FA, F8, EB, F8, 03, 0B, 12, 0C, 07, 00, 0E, 07, 0A,
  0B, 0A, 05, 0C, 22, 21, 18, 0E, ED, E2, F8, 07, 06, 09, 01, 06,
  EF, EF, F4, 07, FE, 07, 02, 02, FD, 02, 10, 21, 16, 06, 09, 1E,
  29, 1C, 13, F8, E4, EE, F6, FF, 02, 04, 0A, 02, 01, FB, F6, 00,
  03, F6, EE, 04, 10, 1B, 18, 1D, 0D, 04, 08, 1A, FB, F1, EA, E2,
  EF, F8, FF, 04, 0D, 05, 0D, 05, 06, F7, EA, F5, F5, DF, EE, 09,
  12, 17, 23, 10, 0B, 0D, 00, 00, E3, E5, E7, F4, F7, 00, 02, 01,
  09, 0A, 07, 08, 05, F5, EE, E4, ED, F0, F8, 0C, 13, 0E, 10, 05,
  11, 08, FB, DE, F0, E4, DF, EE, F3, F3, F7, 09, 08, 06, 08, 04,
  F0, DE, D3, DD, FB, FC, 09, 09, 0C, 01, 04, 02, FF, F9, E8, EB,
  FC, F1, F7, F7, F1, F6, FE, 05, 09, 0A, 04, FC, E2, D1, DD, EA,
  03, 03, FE, 05, 0F, 09, 04, FC, E8, EA, EF, E9, 01, F5, E9, EE,
  ED, F9, 0C, 02, 0A, 08, 03, FB, E7, DB, E8, 00, FE, FF, 00, 06,
  09, 00, 06, F1, F1, EA, EF, F3, 02, FB, F9, E8, EC, FD, 08, 07,
  0C, 03, 07, F6, E3, E3, F5, 04, FC, F0, 05, 0E, 07, FB, F8, FD,
  EB, EB, E8, F4, F7, FC, 01, F1, F4, FE, 05, 06, 02, 03, 01, FD,
  F6, EA, FB, 07, FA, F5, FA, F7, 04, 00, FD, FA, E6, E8, EA, F1,
  F6, 00, F9, F0, FE, 00, 03, 02, 0D, 07, 01, FC, 03, 06, FF, 0D,
  F6, E8, FD, EE, F7, 08, 09, 09, F5, F4, EE, F4, FC, FA, F3, F6,
  03, 03, 07, 04, 0C, 04, 07, FC, F9, FE, FA, 01, 02, FB, FB, 02,
  08, 11, 07, 04, 02, 0D, 03, FF, F3, E7, F8, FC, 03, 01, 0C, 02,
  09, 06, 0C, 05, 00, 02, FC, 00, F8, F9, FE, 11, FE, FD, 08, 0A,
  0A, F0, 0B, 05, FB, F4, 00, 04, FD, 00, 01, 09, 03, 07, 05, 08,
  0A, FD, FD, F8, F4, F2, FE, FE, EF, F2, 0C, FD, F0, F9, 06, 03,
  FA, FF, FD, 00, 02, 02, 0B, 0C, 02, 09, 02, 04, 07, 0C, 0C, 08,
  06, 11, 08, 0C, 08, 00, 08, 0A, 02, 03, 05, 0C, 0A, 0B, 05, 04,
  0B, 0C, 0D, 0B, 07, 06, 08, 04, 04, 05, 0A, 03, 0C, 0D, 02, 0C,
  08, 09, 09, 07, 0D, 01, 0A, 04, 0A, 05, 09, 0B, 05, 08, 0C, 02,
  0E, 05, 06, 0C, 03, 0E, 04, 06, 02, 0B, 07, 03, 05, 08, 09, 0B,
  0B, 06, 0B, 02, 03, 07, 06, 09, 0A, 0C, 0C, 09, 09, 0C, 04, 09,
  08, 07, 03, 07, 06, 03, 0B, 0C, 11, 09, 0B, 0A, 0A, 07, 0D, 0A,
  0E, 0A, 0F, 07, 04, 0B, 0A, 07, 08, 0C, 0D, 05, 0B, 03, 09, 06,
  07, FE, 01, 06, 09, 0B, 0F, 0A, 0B, 0D, 02, 11, 15, 12, 10, 0D,
  0D, 0C, 09, 04, 0C, 08, 0B, 03, 03, 0A, 03, 0A, 00, F9, E6, F4,
  F6, FD, F8, F9, FD, 06, F6, 07, 10, 11, 07, 0A, 0B, 02, 05, 03,
  0C, 02, 02, 0A, 01, 03, FD, FC, E5, E3, DA, E1, E5, F5, EA, EE,
  F3, FB, FB, 04, 13, 0F, 09, 14, 0C, 0A, 07, 0C, 0E, 09, 02, 03,
  FC, F8, EF, E5, DA, E8, F4, FD, F8, FF, 03, F6, EF, FE, 00, FB,
  FB, F6, 06, 12, 18, 0F, 0E, 06, 03, 08, 0E, 08, 02, FC, EB, E2,
  D6, DC, EF, FB, F7, FB, 04, FB, F5, FB, FA, F2, F9, F9, 04, 08,
  15, 1B, 14, 0F, 04, 04, 06, FE, F5, F6, E7, E7, EB, E9, F3, FB,
  FD, 09, 07, F8, F2, 05, F9, F1, FF, 0B, 13, 16, 12, 1C, 1B, 07,
  0C, 0D, 07, FF, EF, F2, EC, DC, E7, EB, F4, 01, 06, 09, 06, FC,
  FB, FB, 00, F5, FF, 15, 07, 05, 19, 1E, 0F, 00, 09, 0B, 06, FF,
  F5, F1, E2, E1, E8, F7, F8, FD, 0A, 0D, FD, F6, ED, F8, F4, F2,
  00, 01, FB, 0A, 23, 25, 07, 0B, 0B, 0A, 10, 0A, 05, F6, E0, E4,
  ED, F7, 03, 06, 13, 13, F6, F3, F0, FB, F9, ED, EF, EA, F6, EF,
  0C, 11, 08, 0A, 04, 06, 06, 04, F5, F4, E6, F0, EB, F3, 05, 10,
  27, 0F, EF, E3, EC, FE, FD, FE, DF, EA, E7, EF, EA, FB, 08, 06,
  0A, 0A, 08, FF, F2, F4, ED, EB, F9, FD, 10, 2E, 28, 0D, F8, E4,
  EB, F3, F7, FA, EF, E9, F2, EA, E3, F5, FC, 02, 03, 06, 0B, 04,
  F8, EB, F3, F9, 07, 14, 18, 28, 1E, FE, EB, E9, F2, 06, F8, 03,
  04, FF, F9, E4, DF, F2, F3, 03, 09, 0A, 08, 06, F9, FA, F6, 10,
  0F, 16, 12, 13, 12, F7, E7, F3, FE, 0A, 05, 04, 0E, 0B, 00, EB,
  E4, E7, FF, 08, 07, 09, 0F, 07, FC, FB, FE, 12, 0C, FE, 0E, 13,
  0A, ED, E6, F3, FF, 10, 0D, 0D, 08, 07, 01, FB, DB, E3, FB, 05,
  09, 06, 04, 04, 09, 06, FC, 00, 01, FA, 09, 19, 06, EA, E8, 04,
  02, 13, 11, 16, 17, FF, FA, F9, EB, E4, F0, 00, 0D, 04, 01, 02,
  0F, 0A, 01, F9, 00, FF, 16, 09, EE, F8, 08, 15, 0F, 13, 24, 15,
  11, 02, FF, F8, EA, F5, FE, 0B, 07, 02, 0D, FD, 1D, 12, 0C, 01,
  FD, FA, F6, EF, F5, FC, 13, 10, 16, 07, 04, 09, 05, 05, F4, F3,
  F2, F3, 03, 02, 04, 04, 03, 06, 20, 16, 0D, 04, FE, F3, F3, F4,
  03, 04, 15, 0C, 07, F4, 06, 03, F8, 03, F0, F6, FB, FE, 06, 0D,
  03, 0B, 0B, 01, 0C, 04, 01, F9, FB, FC, FA, 05, 08, FC, 0C, FA,
  05, FA, 0A, 07, FC, F2, F9, F8, FF, 02, 02, 09, 03, 05, 07, 0C,
  03, 04, EE, EE, F7, EF, F6, 0A, 08, 03, 03, FE, 02, F9, FF, FB,
  08, F6, 07, FB, 01, 09, 08, 03, 05, 05, 03, 0B, FD, F8, E9, E9,
  F6, FA, 06, 0E, 09, 08, 01, 03, 0B, FA, F9, 02, 02, FC, FC, FC,
  FF, 01, 06, 04, 0D, 05, 05, 0D, 03, 02, F9, F6, 10, 0B, 16, 0F,
  08, 00, 00, FB, FE, FF, 01, 08, 09, 04, FF, 05, 03, 04, 03, 03,
  07, 09, 05, 04, 02, 07, 00, FE, FE, 0F, FE, FD, FF, 08, FC, FA,
  04, 04, 0B, 01, 06, FA, 06, 08, 09, 05, 08, 0B, 03, 09, 05, 03,
  07, 02, FB, F6, FE, 0D, 06, 11, 0C, FD, EF, F5, FB, 00, FC, F9,
  F7, 08, 0C, 07, 09, 02, 04, 06, 0C, 08, 0C, 0A, 0A, 09, 09, 09,
  FD, FC, FA, FE, 03, FB, ED, FC, 01, FD, FC, FB, 03, 05, 0C, 0E,
  05, 03, 0A, 05, 0A, 04, 0C, 0D, 0D, 08, 0B, 0A, 08, 0D, 0B, 03,
  0D, 04, 00, 07, 04, 0E, 09, 03, 09, 08, 0A, 09, 0D, 04, 05, 0A,
  FC, FC, FB, FD, 01, FA, FB, FD, FD, FE, FB, F8, FE, FE, F8, F8,
  FA, F8, 01, F9, F7, F8, F8, 02, 02, 02, 00, FB, FE, FF, 01, FB,
  FC, FA, FD, 02, FE, 02, FF, FB, 03, 04, F8, 03, FE, 02, FA, FB,
  FA, FA, FC, FA, FA, F7, FF, F9, 01, 01, FA, F9, FF, FE, 02, 02,
  FD, FE, F9, 06, 09, 14, 0F, 11, 06, 07, 0C, 01, FD, FA, FD, FF,
  F9, FD, FA, FA, FF, F9, FB, FA, 01, FC, FF, 02, FA, 01, 07, 0B,
  1A, 39, 31, 14, 05, FF, FE, 05, 01, 00, FD, F5, 01, F9, F7, 01,
  02, F7, FF, FF, FE, 01, 00, 07, 07, 0E, 11, 11, 19, 0E, FB, F7,
  02, 10, 0A, 05, 05, 0E, 10, F7, F2, FB, FD, FB, F8, F7, FF, F8,
  F2, F6, FF, FC, 17, 12, 0F, 00, FF, 0A, 01, F1, F3, 00, 0C, 0E,
  FD, F9, 19, 08, F9, FF, 01, FC, FA, F9, 02, F9, F8, 07, FB, 05,
  FB, EC, 05, 01, 04, FA, FE, F9, F7, FB, FC, 0D, 05, 12, 1A, 10,
  04, 02, 02, 00, F8, F7, FE, FD, F9, FE, 00, 11, F7, 03, 12, 1A,
  06, FD, FC, F1, F7, EE, F5, 05, FC, F6, FD, 05, 15, 05, FA, F8,
  FD, 01, 05, 07, FA, FB, F4, 00, 03, 08, 0B, 15, 1A, 0B, ED, F3,
  F8, F2, EC, E7, F6, F7, FB, 09, 0B, 09, 00, FA, FE, 00, 09, 15,
  11, FC, F2, 07, 05, 0B, 0B, 21, 23, 0C, E6, EC, E5, E8, F1, F4,
  EF, F5, 00, 04, 15, 10, 08, FB, FE, 01, 05, 19, 0E, FE, F4, 0E,
  10, 14, 18, 22, 22, 04, E1, E0, E9, EF, F1, F0, 03, F6, F9, 05,
  13, 0C, 05, 03, 02, 01, 15, 14, 03, 02, 04, 05, 06, 0B, 13, 1D,
  12, F0, E2, E7, FA, FE, FA, 05, F2, F2, FD, 1B, 16, FD, FC, 01,
  F9, FC, 0F, 04, 02, 07, 14, 0C, 12, 12, 19, 12, F9, E6, E8, E6,
  EC, F4, F4, EB, F4, F5, F8, 1B, 1E, F9, FD, FD, FA, FE, 08, 06,
  03, 0C, 0F, 0C, 0B, 13, 0C, FB, ED, F5, F9, E2, DA, EA, ED, F0,
  F1, F7, FF, 09, 1B, FA, FC, FF, FD, 02, FD, 06, F6, 1B, 0A, 0E,
  0E, 0B, 07, F2, EF, F5, F9, F7, E9, F2, F2, EE, FD, FB, 04, 15,
  22, FE, F4, FA, FD, FE, 02, 02, F9, 11, 10, 09, 00, F9, 0B, FF,
  F6, ED, EF, EB, F2, F3, 03, FC, F2, 02, 07, 11, 11, F1, F1, F6,
  FE, F9, FE, F9, F7, 0D, FE, 0D, 09, 09, 00, 02, F3, E7, EF, F0,
  F2, EA, ED, F6, EE, FA, 05, 0D, 0B, E2, EC, FC, FC, F7, F6, FC,
  FD, 0B, 04, 0B, 06, 05, FE, 01, F9, DF, EF, ED, E3, F1, F7, FA,
  F9, FF, 0A, FF, F7, F8, F7, FF, F7, F7, F8, FF, F3, EE, F8, FB,
  F8, F4, EC, EF, E9, DB, F2, EA, EA, F5, 02, FF, 0A, 1A, 10, FF,
  F3, F5, F5, F9, F9, FB, 02, 03, FE, F2, ED, EE, F4, FC, EE, FA,
  F1, E6, F2, F7, 01, 0D, 0F, 0D, 23, 0D, 0B, 06, F3, F5, F1, FD,
  00, FB, 00, FA, FC, FC, EA, ED, EE, F9, F7, FE, FF, FF, FF, 06,
  1C, 15, 14, 19, 09, 00, 08, 02, F6, F5, FE, FC, FA, F8, F7, F2,
  F5, 01, F2, EF, FC, F4, 03, FF, 04, 07, 12, 0F, 10, 12, 19, 04,
  FA, 0B, 03, 04, 00, 02, FB, FB, 00, FE, 01, FB, F1, FE, FF, EF,
  00, FA, F4, 00, 02, 00, 0B, 13, 0E, 0A, 0C, 0B, FC, 03, 00, FD,
  F4, F9, 01, 00, FB, FA, FC, 00, F7, FA, F9, FF, 05, 05, 0A, F9,
  07, 0A, 0F, 05, 02, 0C, FD, 0D, 03, 06, FD, EE, ED, F8, FD, F9,
  FC, F8, FF, F8, FE, F6, FA, 0B, FA, FD, 05, FF, 0E, 13, 09, 0E,
  09, 15, 08, 05, FB, 07, 06, EE, FA, F7, FD, FE, 01, FA, 00, 03,
  FD, FE, 00, FF, 03, FE, 02, 1D, 26, 1B, 02, 0D, 12, 0C, 09, 17,
  08, 0F, 12, 00, 06, F8, FA, F8, 02, FD, 02, FA, FB, 00, FA, FD,
  01, 03, 09, 15, 15, 05, 01, 1B, 16, FF, 02, 1F, 07, 04, 05, 01,
  02, FE, F9, FB, F7, FD, 01, F8, F9, F8, FB, F8, FD, F7, 01, FE,
  03, FE, FF, 04, FE, FF, 03, FF, FE, 06, FB, FE, FA, FD, F8, FF,
  09, 01, 02, 06, 01, 01, 07, 0A, 05, 05, 03, 05, 07, 0A, 06, 03,
  0A, 0A, 08, 0A, 05, FF, 07, 08, 00, 05, 02, 04, 03, 01, 0A, 08,
  02, 06, 02, 09, 0B, 02, 08, 07, 08, 07, FD, 09, 05, 05, 0B, 0D,
  0C, 0E, 0B, 07, 0A, 05, 00, 05, 0A, 08, 09, 09, 00, 03, 07, 0A,
  0B, 0F, 1A, 1E, 1D, 16, 18, 15, 15, 14, 1A, 18, 1A, 1A, 11, 0D,
  0D, 06, 07, 04, 08, 00, 03, 06, 06, 09, 11, 10, 12, 22, 0E, 03,
  0A, 0C, 05, 00, 05, 14, 1B, 21, 19, 10, 08, 01, 01, 08, 02, 0B,
  05, 07, 06, 0A, 03, 0D, 0A, FE, F9, 0A, 08, F9, FB, 0E, 03, F6,
  F4, FB, 01, 09, 02, F2, E2, EB, EE, FF, 03, FF, 08, FF, 04, 07,
  09, F9, F9, F7, 04, 0D, 08, F3, 04, FB, 01, FC, FB, F4, F2, F2,
  ED, E4, DC, E2, E2, FB, 08, 02, 0A, 06, FE, FD, 04, F7, F8, FC,
  F6, 01, FD, 03, FE, F3, F3, F6, EF, F6, F0, E8, CC, E8, E1, DE,
  EB, F9, 06, 01, 00, 01, 01, F9, 04, F7, FD, 06, 00, 05, 06, 01,
  FE, FE, F4, FC, F4, 0A, ED, E2, E1, D5, E3, E3, F0, F0, 05, 0A,
  FF, 01, 01, 02, 0B, 06, FA, 10, 07, 08, 13, 08, FE, 07, 15, 05,
  F2, FD, E6, E5, EE, D7, E2, E5, DD, F1, FB, 06, 09, 04, 0B, 01,
  FA, 00, 04, 05, 10, 0E, 05, FB, FB, F9, 10, 0B, ED, F5, D9, DA,
  F6, E6, F2, F8, EC, EC, FC, 08, 08, 01, 0A, F1, EE, FC, 02, 07,
  0A, FD, FA, EA, DF, F9, F8, FE, FC, 05, EA, F0, F2, F6, FF, 04,
  F3, F2, FE, 03, FF, 03, 08, FB, F8, EF, E9, 00, 05, FD, E2, EC,
  D9, DD, F5, F1, F9, FF, F6, 09, 05, 0B, 05, 10, F9, E7, F6, 04,
  06, 06, FF, FD, EE, E0, DC, F2, EF, DC, E0, E8, E9, E6, FD, FA,
  0C, F8, FB, 05, 01, 07, FC, 0F, 01, F5, FB, 01, 00, 05, 07, FF,
  EB, E5, DD, D6, E6, DD, EB, E9, F8, 04, FF, 07, 07, F4, F9, 0B,
  EF, 08, 06, 1D, 13, FF, 04, 06, 06, 08, 04, 02, E4, E8, E4, E8,
  F0, F2, FD, 00, FB, FF, 0C, 06, 04, F2, 07, 06, 07, 17, 10, 12,
  08, 0C, 0D, 04, 03, 07, 00, 04, E8, EE, 00, FE, 06, 02, 02, 0E,
  06, 14, 04, F8, F7, F5, 09, 0A, 0F, 14, 0A, 09, 15, 1B, 02, 06,
  05, 03, 07, F9, F4, F7, 15, 08, 05, 03, 09, 0B, 00, 1A, 0E, 00,
  04, F9, 03, 03, 06, 0F, 06, 0B, 11, 1D, 09, 04, 01, 06, 0A, FF,
  F8, F3, 12, 02, 04, F8, 0A, 00, FD, 10, 17, 02, 02, FA, 01, 01,
  FF, 00, FC, 0A, 09, 20, 0C, 00, 02, FF, 04, F9, F8, FE, F5, 0C,
  03, ED, E8, F4, 09, 11, 19, 0E, FD, 0F, 08, 02, F5, F6, 03, 07,
  0B, 18, 0A, 05, 02, 02, 01, F8, 01, 0C, FC, FE, F6, FE, F9, 12,
  17, 16, 1E, 17, 0B, 05, 05, F8, FA, 03, 0A, 08, FF, 0D, 09, 00,
  01, 07, 04, 0D, 11, 0B, 04, F0, E9, F1, 04, 12, 25, 1A, 26, 15,
  0E, 08, 03, 02, FF, FF, 0A, 08, FC, 04, 03, 09, 01, 05, 0A, 07,
  0B, 03, F7, F6, F2, F2, 0E, 08, 1A, 12, 1C, 0E, 02, F6, F5, F6,
  FA, F6, FF, F8, F5, FF, 02, 02, 01, 08, 03, 08, 04, 03, F0, F7,
  05, 06, 0D, F9, FB, FA, EF, F8, F2, E8, EE, E8, E9, F2, E7, DF,
  F1, FF, 02, FF, 05, 03, 04, FC, F1, F3, F8, FE, F4, 02, FC, 00,
  02, F6, F9, F9, F5, E1, CE, DF, E4, EA, E8, E6, F4, F9, 03, 0A,
  04, 00, 04, 01, FE, F8, EB, F6, 06, 00, 00, 03, FF, EB, F1, EB,
  E8, F0, E7, E0, E3, E9, F7, F7, 09, 0B, 08, 0A, 09, 07, 02, 06,
  FF, F8, F7, 01, 0B, FD, FA, 0A, 12, FB, 02, FA, F5, F7, ED, F2,
  F5, 00, 02, FA, 00, 07, 03, 05, 05, 04, 02, FF, FF, F1, F2, 0B,
  07, 1A, 18, 12, 08, 06, 0E, 0D, FC, FE, 00, FF, 03, 00, 03, 07,
  08, 08, 02, 09, 05, 0A, 0A, 01, 01, 03, 07, 02, 06, 0B, 05, 05,
  08, 0B, 04, 07, 07, 00, 06, 00, 0A, FF, FE, 06, 09, 08, 05, 08,
  06, 04, 01, 0A, 07, 00, 01, 0A, 05, 03, 02, 04, 07, 0A, 06, 01,
  02, 04, 06, 0A, 08, 03, 08, 07, 04, 09, 08, 06, 03, 02, 02, 06,
  08, 07, FF, 00, 08, 05, FE, 03, 00, 00, 05, 09, 01, 05, 00, 09,
  06, 08, 09, 09, 05, FF, 00, 09, FF, FF, 02, 03, 08, 08, 07, 02,
  FF, 01, FF, 02, 01, 06, 01, 07, 07, 08, FC, 06, 05, 00, 00, 04,
  FF, 01, 06, 04, 00, 09, 0A, 08, FF, 07, 05, 00, 03, F6, F8, F2,
  00, F9, FA, 01, 03, FF, 03, FB, 01, FB, 01, 00, 02, 02, 07, 06,
  07, 04, 03, 01, 08, 01, FB, 01, F6, F4, EB, EA, ED, ED, EB, FC,
  F7, F4, F2, F4, F3, FE, 01, 00, 02, FF, 06, 09, 04, 05, FF, 02,
  FF, FE, FB, FC, FA, EF, E4, D3, D5, CF, C6, C5, C2, D1, E7, E6,
  E8, ED, E9, F4, FD, 03, 02, 05, 01, 05, 05, 09, 06, 12, 10, FA,
  04, FC, F7, F0, E6, E8, EC, F9, FD, 13, 0C, F3, ED, FC, DF, DD,
  EE, 01, 06, 04, 07, 01, 09, 0A, 04, 04, 0F, 10, 11, 0D, 05, 01,
  06, 06, 05, 05, 0B, 1A, 15, 06, 06, F5, EA, E8, E4, F6, 02, 06,
  FF, 09, 08, 06, FE, 00, 11, 1D, 13, 10, 12, 0C, 0B, 0A, 09, 06,
  0F, 07, 00, 02, 00, FE, FD, F6, E7, F0, 04, 03, 09, 05, 0E, 05,
  F7, 0C, 0D, 02, 04, 06, 0A, 13, 14, 19, 15, 0B, 00, FD, F3, 0D,
  0A, 01, 06, EE, F2, FE, FF, 11, 01, 07, 0C, 0A, 09, 16, 1B, 05,
  03, 0C, 0F, 11, 13, 27, 1D, 0F, 09, F6, FD, 04, 05, 01, F7, F3,
  03, FF, 05, 06, 04, 01, 10, 19, 13, 12, 05, 06, 18, 08, 0D, 17,
  07, 0B, 1E, 0F, FD, FE, 0D, 06, 0A, 00, F8, E0, F2, FE, FB, 08,
  0A, 05, 0B, 11, 16, 04, F9, 09, 0B, F3, F5, FB, DE, E4, FB, 0B,
  0A, 0C, 16, 0D, 06, F6, F8, E6, EB, 0A, 0A, 06, 04, 0A, 0E, 09,
  11, 01, FD, FD, FD, EC, E9, EC, DA, EC, FD, 0F, 0C, 03, 03, FF,
  F5, F9, F6, F6, F5, 0F, 15, 0B, 04, 04, 03, 02, 0A, EF, F7, EE,
  F1, EB, F1, F3, F8, FB, 03, 08, FE, 05, 06, 07, 04, FC, FA, 04,
  F9, 11, 11, 03, 02, 02, 01, 00, F9, EC, F9, EB, E9, EF, F6, FB,
  00, 0A, 02, 0A, FD, 13, 10, 08, 06, 0C, 0D, 0B, 0A, 0B, 0F, 0A,
  06, 01, FF, FA, F8, F0, EC, FC, 03, F4, 06, 01, FD, F8, FB, 06,
  0A, 13, 09, F3, FF, FB, 02, FA, 07, 06, 0E, 00, 0A, 00, FC, F5,
  F6, E8, F0, F8, 03, 0C, 02, 05, 05, F9, 03, 0C, 03, 07, 03, F8,
  00, F8, FE, FA, 01, 0D, 07, FF, 03, 01, FE, F8, F3, F6, ED, FE,
  07, FA, F8, F1, ED, FA, 02, 02, F5, 08, 01, FC, FA, F2, F4, EB,
  FA, 08, 05, 07, 09, 00, 04, FF, 00, F0, EE, F3, 06, 00, FC, FF,
  F6, F1, FC, F5, F7, F6, F7, F9, EE, EC, EB, F8, 00, 0A, 07, 02,
  08, 05, 0A, 00, FE, F0, E6, E9, FA, F6, F0, F6, FC, FE, 02, F6,
  EB, F1, EB, EC, E3, F2, E9, F6, 0F, 07, 00, 01, 0A, 00, 00, FA,
  00, FA, EC, E6, F4, EC, F7, F8, FB, FE, F1, EB, EE, ED, E1, E7,
  E1, F4, DF, EC, 02, FF, FD, 00, 01, 07, FE, FB, 01, FD, 02, 06,
  FD, F6, FB, EC, FA, F8, F5, F1, EA, F1, E4, E9, ED, F4, E5, E7,
  01, 04, 04, 02, 01, 02, FE, FA, 06, 11, 1E, 0F, F5, EC, FA, FD,
  FA, F9, F5, ED, E9, FA, F3, F0, F8, F4, F4, F6, 04, 06, 05, 05,
  06, 07, FF, 03, 14, 22, 12, 02, F5, E8, F3, F5, ED, E5, E4, F0,
  EF, F6, FD, 06, 03, 02, F3, FB, FF, 01, 03, 07, 04, 01, 01, 07,
  16, 0C, FC, FB, 06, F5, E9, FD, 01, F5, FB, 00, 00, FE, 00, 12,
  05, 06, F9, FC, FC, 06, 02, 05, 01, 08, 05, 0A, 00, FE, 0A, 14,
  1E, 2F, 2A, 0E, 01, 0A, 27, 19, 0E, 05, 1B, 21, 17, 17, 0B, 08,
  08, FF, 07, 00, 07, 0A, 04, 09, 07, 05, 01, 0B, 0E, 09, 0A, 08,
  03, 11, 0F, 0C, 0A, 0C, 08, 05, 09, 10, 0F, 05, 05, 00, 04, FF,
  FD, 08, 00, FE, 07, FD, 01, 06, 07, 01, 04, FE, 03, 04, 03, 01,
  03, 07, 01, 03, 00, 00, FE, 02, FE, FE, FF, FF, 08, 01, 06, 05,
  06, 01, 02, 00, 02, 03, FE, 05, 03, FD, 02, FE, FF, 03, 05, FD,
  FF, FF, FF, FD, FD, FD, 02, 05, 05, 01, 08, FF, FD, 04, 06, FE,
  09, 0A, 08, 01, F9, F3, F3, FF, F6, F4, FB, F8, FC, 00, 00, 04,
  03, 05, 03, 04, FD, 05, 04, 03, 02, 0B, 05, 07, 14, 1A, 26, 17,
  1A, 08, 09, 11, FD, 01, 0C, 01, 03, FF, 03, 04, 05, 09, FF, 02,
  FD, 08, FE, FF, 02, 06, 09, 22, 18, 27, 2D, 2B, 28, 13, 16, 0E,
  07, 10, 12, 08, 04, 03, FF, FF, 08, 08, FE, 00, 00, 07, 08, 0B,
  13, FF, 07, 11, 09, 08, 09, 12, 19, 12, 03, 08, 1A, 18, 0C, 0B,
  14, FD, F0, FC, 02, 0C, 08, 04, 06, 07, FF, 0F, 0F, 02, 01, F6,
  FF, 0A, 05, 0E, 0A, 09, 03, 0C, 0E, 18, 0B, FA, 05, FE, 03, 0B,
  0A, 0E, 00, 05, 01, 04, FA, 08, 0C, 08, 06, FE, 14, 0F, 06, FC,
  03, 01, FD, 09, 03, 04, 01, F4, F0, F1, FD, FC, 0B, 09, 03, 07,
  FF, 02, FE, FB, 14, 09, 15, 04, 14, 0F, 12, 03, 01, FE, FC, F2,
  FB, F6, 04, 01, ED, FA, 08, F8, 00, 03, 0A, 02, 06, FE, FA, FF,
  0C, 10, 07, FA, 05, FA, 05, FD, F2, F5, F8, F5, F8, 02, FE, 06,
  FE, 05, 18, 15, FC, 07, 08, FE, FE, FC, 01, FC, 06, 01, F7, F8,
  00, 04, 0B, FF, F2, FF, 02, F4, 06, 12, 10, 10, 13, 03, 0D, FD,
  F3, 02, 01, 03, 07, FF, F4, FE, F6, E5, E7, F6, 01, 01, 08, 0F,
  17, 17, 07, 02, 13, 1A, 0F, 05, 02, F4, E3, EB, F2, FC, 00, FD,
  06, FF, F8, F5, E6, E1, E2, 03, F8, F5, 0F, 1E, 1C, 21, 17, 0D,
  08, 08, FE, FF, EA, DD, D4, E0, EC, FE, 04, 01, 03, FF, FA, FB,
  E1, DB, E7, EE, F2, EA, ED, 0D, 17, 1B, 1B, 01, 08, FD, F6, F1,
  ED, E8, E4, F6, F6, FC, 08, 06, 02, 06, FF, 04, DC, D0, CF, D3,
  D1, D4, DE, F2, 01, 0D, 15, FE, F9, FE, F7, F3, EA, FB, F3, F3,
  06, 0B, 00, 00, 03, 05, 01, FE, E8, D3, D3, D0, D2, D8, DF, E2,
  F5, 17, 0D, 03, F2, F3, FA, 01, 06, FE, 05, 04, 1C, 10, 03, 01,
  FF, 09, 04, 0D, F6, ED, EF, EA, F7, EC, E9, DD, F7, 08, F8, F4,
  F1, 00, 12, 11, 08, 17, 12, 12, 1C, 11, 01, 07, FF, FF, 06, 14,
  06, FF, 02, 08, 11, 00, EF, EA, E8, F0, EA, EB, 01, 03, 03, 0E,
  12, 0F, 0F, 0D, 04, 06, FE, 06, 02, 03, 05, 21, 03, 1A, 21, 10,
  0A, 02, 01, FC, EC, E2, EB, FD, 0E, 09, 05, 0A, 0C, 03, 0A, 0F,
  F9, FF, FB, 07, 05, FF, FF, 1B, 03, 17, 18, 07, FE, FB, 08, 09,
  F8, F1, EE, F7, FF, FD, 00, 0E, 00, 0B, 07, 03, F1, FC, FE, 06,
  FF, 04, 09, 18, 1C, 0A, 16, 10, 01, FB, 02, F8, F9, FD, F8, FF,
  FD, F3, 04, 0C, 06, 03, 04, FB, EB, FC, FE, 06, 06, 08, 09, 0F,
  0E, FA, FF, FC, FA, FF, F5, FA, F0, F6, FC, 04, F8, F4, FB, 02,
  06, EF, FD, F7, F2, FB, 04, 06, FF, 07, 02, 11, 10, FB, FA, 05,
  F9, F7, 09, 13, 03, 0A, 0D, 03, FA, FA, FD, FA, 00, F6, 01, F9,
  FF, 02, 00, FE, FD, 00, 02, 14, 0F, FA, 08, 12, 18, 04, 05, 16,
  11, 15, 01, 0C, 09, 02, 04, FF, 04, 02, F4, F9, 07, 06, FF, 08,
  FD, FF, 00, 07, 0C, FA, 04, 08, 0A, 01, FC, 07, 16, 0C, 06, 0E,
  16, FF, 08, 01, FD, F0, F6, FD, 03, 02, 04, FD, 05, 07, FE, 08,
  02, FF, 0C, 0B, 09, 12, 20, FE, 04, 01, 02, 09, 08, FE, FC, 03,
  00, FB, FF, 00, FE, 01, 03, 03, 07, 02, FD, 00, 07, FF, FE, FF,
  08, 0D, 04, 00, F9, 01, F9, 00, FC, FB, FE, FD, 04, FE, 02, 05,
  06, 00, 05, 07, 03, 05, 06, 03, FF, 04, 03, 00, 04, 05, FF, FA,
  FC, F9, FC, FF, 02, 01, FE, FB, FE, FD, 03, 06, FF, 05, 07, 04,
  07, 07, FF, 07, 09, 00, 07, FE, FF, 02, 02, FF, 04, 07, 02, 03,
  05, 07, 03, 00, 07, 05, 06, 01, 04, 04, 05, 01, 05, 05, 01, 05,
  04, 05, 07, 00, 02, 02, FD, 07, 04, 03, FF, 02, FE, 08, 00, 08,
  07, 08, 01, FE, 04, FE, 04, 06, 01, 04, 03, FD, 07, 02, FD, 02,
  06, F9, 04, 10, 0C, 10, 13, 10, 0F, 0D, FD, 06, FC, FE, 02, 02,
  07, 01, 09, 01, FF, 07, 09, 04, 00, 02, 01, 09, 04, FF, 08, 0C,
  06, 08, 17, 12, FE, F3, E6, F1, F4, 01, 06, 05, 01, 09, FF, 01,
  FF, 02, 05, 01, 09, 0A, 05, 16, 02, 01, FD, 02, 1E, 1E, 05, F1,
  E9, DB, D7, ED, FA, 0F, 12, 1C, 0A, 03, FF, 06, 03, 07, FE, 04,
  06, 0A, 0F, 12, 06, 12, 0D, 07, FE, EC, E6, E0, D7, DB, EC, FE,
  0F, 12, 12, 15, 0D, 03, FC, 03, 08, 03, 00, F8, FB, 02, 09, 11,
  05, 0F, F8, 06, FD, F1, E3, BD, A5, DB, 01, 09, 08, 08, 05, 13,
  FF, EF, 03, 08, 06, 09, 06, F8, F6, 00, 01, 03, FF, F7, 07, 0A,
  09, F6, E6, B9, B7, F3, 0F, 0A, FC, 02, 0E, 1E, 10, FF, 0E, 09,
  08, 07, 05, 03, FA, 0C, FE, 05, F0, 03, FE, 09, 12, EE, D7, A7,
  D8, 0D, 0F, 06, FC, 06, 11, 10, 08, 10, 07, FA, 01, 06, 03, 0B,
  06, 06, F2, EF, F6, F9, FB, 10, 18, EA, B5, BA, F6, 0F, 0B, FE,
  14, 12, 08, F9, FA, 05, FF, 01, 09, 0A, 03, 0B, F8, FC, F8, F1,
  FD, F8, FF, 16, 14, D4, AE, E7, F8, 10, 06, 11, 0D, 05, F3, F4,
  FC, 09, 05, 09, FF, 0B, 05, 0A, F2, FB, FD, FA, F2, FA, 10, 19,
  14, D6, DF, 01, 18, 0E, 13, 08, 03, FC, FD, 00, E8, 05, FD, 02,
  08, 01, 0B, 04, E4, F0, FC, 03, 07, F7, 0B, 23, FE, E2, F1, 15,
  0C, 10, 11, 0D, 06, 08, 10, 08, 08, FD, 02, 03, 03, 07, 05, FD,
  F1, 01, 03, 06, 0C, 0B, 11, 02, FA, EF, F5, 0C, 04, 05, 0D, 0C,
  0C, 1A, 19, 15, 0A, F6, FB, FA, 04, 01, 07, FF, 08, 0C, 01, 04,
  09, 0C, 06, 0A, FA, F6, 00, 0A, 09, 09, 09, 13, 11, 14, 1A, 13,
  FD, F5, F7, 01, 07, 08, 05, 07, 02, 00, 01, 07, 10, 01, FD, 02,
  FB, FF, 0C, 0C, FE, 0A, FD, 0B, FC, 05, 12, 01, F4, F5, FB, 06,
  FF, 09, 00, FD, FB, EB, 07, 08, 08, F8, 01, FD, FF, FF, 11, 10,
  FA, F7, F6, F0, ED, FD, 05, F4, 03, 0B, F4, 01, 09, 07, 06, 06,
  FD, ED, 04, FF, 05, 00, FE, FA, F5, FD, 0B, FE, FB, FD, 0F, F3,
  FB, 06, 01, 05, 12, 16, FB, 00, 06, 06, 07, 00, 05, ED, F0, FD,
  FF, 07, FE, 02, 07, 09, 0E, FE, 0C, 09, 0E, 01, FC, 0A, 0C, 00,
  0B, 0E, 04, FF, 07, 05, 02, 0A, 07, EE, F8, FD, FF, FD, 00, 09,
  F5, FA, 0E, FB, F6, FB, FA, 02, 04, 0D, FF, 03, FF, FB, 08, FF,
  FE, 06, FF, 00, F6, EC, F1, F9, EF, F4, F0, F1, F1, 04, FF, FF,
  05, FC, 07, 00, 0D, F5, F1, FB, 03, FA, 06, 00, 07, 04, 07, 00,
  02, FC, F0, F5, FF, FB, F0, F7, FB, FF, FD, 02, F8, 05, 07, 01,
  0B, FA, FE, 03, FC, FA, 01, 02, 09, 06, 04, FF, F9, FD, 07, 07,
  FD, FE, FB, F4, F4, F4, F0, FF, F8, ED, F2, 0B, F5, F7, F8, F8,
  F3, 05, 06, 02, 01, 04, 00, 00, 05, 0D, 12, 11, 02, F9, 03, FF,
  F7, F4, FC, F7, F1, F0, F5, F7, EB, F6, F5, F2, F3, 03, 02, 04,
  02, 03, 06, 07, 02, 0B, 14, 0C, FD, 02, F7, 02, 0A, 12, 0E, EF,
  0E, F9, FF, 00, E6, FD, F9, FD, F8, 07, 03, 06, FE, 03, 04, 03,
  03, 00, FF, F8, F9, EA, FA, FE, FD, 0C, F9, 05, 12, FC, FF, F0,
  E9, FB, 01, 01, 02, 08, FE, 03, 00, 07, 05, 09, FF, FB, FA, FD,
  F1, F3, E8, E3, EE, F4, EC, ED, FA, FC, EC, E7, FA, 00, 00, 05,
  07, 07, 02, FF, 09, FE, 06, 02, FF, 07, 04, FF, 00, 00, FE, FB,
  03, 02, 00, 05, 04, 06, FF, 05, 07, 01, 02, 04, 04, FE, 01, 09,
  FF, 00, FB, 03, 00, 05, FA, FE, FF, FD, 03, FC, FA, FC, FE, FF,
  FE, FC, 04, 00, 01, FF, FD, 02, FE, FF, FA, FA, FF, FD, FB, 01,
  02, 01, FC, FB, 02, 00, 00, 01, F8, F9, 03, 06, FB, 01, FE, F9,
  FE, 03, FD, FF, FA, FD, FC, 02, FD, 02, 02, FC, FD, 05, FE, FA,
  04, F8, FA, FB, FB, F9, F2, F2, FA, FB, FB, F7, FC, FA, FF, F8,
  FC, 00, 05, 05, FC, FC, 02, FC, 05, FF, F9, F9, FB, FE, F9, F5,
  F4, ED, EA, E4, EC, EB, F3, FD, E9, EB, 02, FD, F9, FF, FE, FA,
  F9, FC, FF, FC, FD, 02, FC, FC, F9, EB, E3, E8, E6, ED, E9, ED,
  EB, F0, 00, E6, E3, E6, FB, F4, F7, 08, 07, 00, FC, FC, 02, 00,
  F9, FE, FB, F7, EA, E2, D7, EE, 04, F3, E5, D1, CD, D8, DD, F1,
  F6, F5, 01, F9, F5, 00, FB, FF, FA, FC, FD, 00, F8, F0, EF, E9,
  EB, F2, EF, FA, F7, FC, F4, EA, F2, FC, 07, 05, 0B, F3, F5, 02,
  0B, 13, 00, FC, FC, FD, FC, F9, EC, E9, F1, EA, FF, 00, FE, EF,
  00, 08, 05, 11, 12, 05, 05, FB, 09, 0D, F6, F8, 09, 0A, 09, 02,
  01, FC, FF, FD, F1, EB, F9, F6, FB, 03, F8, F5, 06, 0A, 08, 03,
  0F, 00, FD, 02, 0C, 17, 09, 06, 22, 1B, 0B, FE, 05, FD, FF, 01,
  F3, E5, FE, FB, FF, 0C, FD, 08, 01, 06, 05, 06, 00, 05, 06, F6,
  00, F8, 01, 04, 1E, 23, 0D, F9, FB, FC, F4, FF, F9, F1, 08, EF,
  FA, 06, 09, 0B, 05, 03, F7, F9, F9, EA, F9, F6, F8, 00, 02, 04,
  12, 26, 10, FB, FB, F7, FA, F3, 06, 00, 06, F3, 07, 10, 01, 0F,
  00, F5, 00, FE, EE, F3, FC, FF, 06, FD, 0F, 0B, 17, 18, 07, 03,
  FE, FE, F6, F3, 07, 0A, 00, 06, 0D, FD, FF, F2, F5, F6, 01, F5,
  F5, ED, F3, FC, F8, F2, F4, 02, FD, 01, 0A, 00, 01, FC, FC, FA,
  06, 00, FF, 0D, FB, 01, FA, F7, FC, 0F, 0D, 03, FA, EB, EA, 02,
  05, F6, EC, DB, E9, F4, 02, 04, FC, 01, 00, 07, 00, FC, FF, 04,
  05, 09, 06, EF, F8, 00, 03, 04, FD, F1, 00, FF, 02, F7, E5, E3,
  E9, F1, FF, 02, FE, 02, FA, 00, F1, FF, 12, 08, 0E, 0C, 06, FE,
  FD, FB, FE, F3, F8, F2, F8, FB, F3, E4, E3, E9, E6, EE, 03, FF,
  03, FE, FD, FC, EA, 05, 10, 0D, 0D, 0B, 0F, 0F, 03, 02, F1, E5,
  E4, F2, F3, F3, E9, F1, F6, ED, EB, FB, 02, 01, 03, 00, 00, F8,
  E8, FC, 13, 18, 0C, 0A, 04, 12, 12, 06, F6, F2, E9, F0, F2, F3,
  FE, F2, F0, EB, E4, FE, FA, FE, FB, FD, FA, EF, DB, F5, FD, 17,
  0D, FA, 08, 0F, 1B, 0E, 02, FB, F2, FC, FA, EE, FD, F0, EE, E8,
  E9, 03, 03, 01, FC, FC, FB, EE, DB, E1, EB, 00, 08, F6, FC, FB,
  FD, 02, FB, F3, F2, F8, 02, F4, FA, EF, EA, FC, 02, 09, 04, 04,
  03, F8, 04, EA, D8, F1, EB, E7, F0, F7, EC, ED, F0, F6, F9, F6,
  F5, FA, F9, FF, 06, F8, FE, 0F, 16, 12, 01, FC, 03, 04, FB, F4,
  F0, FF, EC, DA, D6, F1, ED, EF, F1, F4, F7, FE, FB, F4, 08, 0A,
  10, 07, 0A, 15, 20, 03, F7, FA, 00, F9, 01, F9, 02, 03, ED, F0,
  ED, F5, FA, F4, EF, F3, F9, EC, EB, F2, 03, FD, 15, 09, 1A, 1E,
  1E, 06, FD, 02, 03, FD, 00, FC, FA, FF, F7, FE, 02, F6, 03, F2,
  F6, FC, F7, F0, F8, 00, 03, FE, 16, 0B, 24, 1F, 19, FF, FC, 01,
  FF, 02, FC, FD, FD, F8, EB, F5, FF, F2, F2, FF, 00, FF, FF, F7,
  F6, 06, 13, 10, 1B, 18, 17, 19, 05, FF, FC, FC, FC, FA, FC, FC,
  F9, 02, FA, F4, 08, 12, 01, 02, 17, 1A, 0D, 02, 18, 1F, 21, 20,
  28, 1E, 12, 0E, FF, 01, FC, FC, FE, FA, FE, 01, FE, FA, 06, 07,
  12, 15, 18, 1C, 21, 18, 1D, 0A, 1B, 1A, 18, 09, 14, 0C, 01, FE,
  00, F9, FB, 05, 02, FE, 04, FB, FC, 00, FD, FE, 00, 00, 05, 03,
  04, FF, 09, FD, F9, F7, FC, 02, 00, FB, FA, F9, 01, FD, FE, FC,
  02, 07, 05, 01, 07, 07, 06, 08, FE, 01, 02, 04, 09, FF, FF, 03,
  03, 08, 03, 02, 00, 00, 01, 02, 03, 08, 07, FF, 03, 00, 07, 09,
  FF, 08, FF, 06, 05, FF, 08, 00, 02, FF, 06, 04, 03, 04, 05, 00,
  FF, 04, 05, FE, 05, 06, 05, 03, 08, 04, 03, 09, 03, 05, 08, 05,
  06, 06, 03, 00, 07, 00, 0A, 01, 01, FE, F9, 02, 03, 03, FD, 00,
  08, 03, 06, 00, FE, 03, 08, 02, FD, 0A, 05, 05, 09, 11, 11, 16,
  04, FE, F0, E8, F5, F9, FF, F8, FD, FF, 07, 01, FD, 06, 00, 04,
  FF, 09, 01, 04, 05, 02, 04, 04, 11, 15, 16, 15, 23, 1D, 1F, 12,
  0B, 00, 06, 07, 04, 01, 03, 01, 04, 04, 0B, 07, FE, FF, 08, 07,
  01, FE, 08, 05, F4, F9, 00, 14, 12, 19, 13, 0A, 03, 06, 08, 10,
  1D, FF, F3, E8, FB, 0D, 04, 07, 03, 02, 03, 0B, 06, F8, FC, EF,
  F4, FE, 06, 0F, 04, 09, 07, 17, 05, 08, 00, F5, 04, FA, F8, 06,
  FE, 0F, FF, 06, 03, FF, FD, 02, 08, FA, F5, ED, 02, 03, F7, EB,
  01, 0E, 14, 12, 03, FA, 00, EF, F2, F8, F9, F8, 02, 0A, 01, FD,
  05, FE, 01, 05, 05, E6, F9, 00, F9, FD, 04, FF, 07, 0C, 02, FD,
  04, 05, 06, 06, F8, 02, 03, EA, E6, F5, FF, 00, FF, FF, 01, FC,
  FB, FD, 04, 06, FF, 01, 0A, 00, F6, F2, F6, FD, 07, 0D, 11, 0D,
  0B, 11, F6, EA, E2, EF, 03, 03, 06, 01, 00, FF, 03, 0A, 11, 03,
  FD, F5, FA, F6, E5, F7, FC, FD, 10, 11, 22, 13, 22, 13, 00, E1,
  CC, EC, 00, 01, 06, 00, FC, F9, 07, 01, FB, F7, F9, F9, F3, F5,
  F5, 0D, 15, 12, 07, 0D, 19, 1E, 1E, 04, EB, D0, DE, F5, FD, 00,
  01, 00, F6, F1, 02, 08, F3, 03, FC, FB, F0, FA, F8, 1D, 26, 07,
  01, 13, 0D, 17, 05, EC, D6, ED, F7, FB, 01, FF, 06, 05, 01, F8,
  EB, FA, FB, 07, 09, FB, E5, FC, FB, 1F, 1D, 10, 11, 04, 04, F5,
  E5, CD, D7, F1, F0, 00, 05, 00, 01, 07, 04, FC, EE, F3, 00, 04,
  09, F3, ED, F1, FF, 1E, 14, 08, 03, FD, F0, E4, E0, E1, DF, EB,
  FF, 0B, 07, FE, 05, 08, FD, 00, FA, F6, F8, 12, 03, FE, F6, F2,
  06, 1C, 1A, 01, 02, F2, ED, E3, DF, E7, F3, F8, 02, 0E, FC, 07,
  07, 04, 00, 05, 06, E9, 06, 06, 01, 0E, 14, 05, 10, 0E, 05, F9,
  F6, F8, F2, EF, EC, F6, FC, FF, 03, 03, FC, 03, 02, 03, 06, 0C,
  FE, F2, FB, FC, 08, 03, 03, 08, 17, 0B, F0, E2, F6, F5, F8, F4,
  F3, 01, F6, FE, FE, FB, 03, FF, 08, 08, 0A, 0A, F4, FE, 00, FD,
  F5, FF, 00, 05, F5, F1, E6, EC, F6, FC, 02, 06, 0D, 09, 0B, FD,
  FC, 01, 07, 02, 06, 03, FF, 09, 02, FC, F9, F4, F6, F8, F6, DE,
  DF, E1, E7, F8, F4, FE, 08, 0B, 0E, 15, 0D, 0C, FE, 03, FE, FE,
  01, 05, 09, 14, 15, 0A, FF, FE, F5, F5, F5, E5, E0, FC, FB, F9,
  F4, FB, 09, 18, 19, 0F, 07, 00, F8, 00, 02, 07, 03, 06, 06, 0D,
  0F, FE, 00, FA, EF, F9, F8, F5, F2, 06, 01, 03, 04, 01, 05, 12,
  10, FE, 0F, F2, F2, FF, 02, 07, 04, 08, 05, 13, 10, F2, F5, FE,
  F9, FC, 01, 04, 00, 0E, 0A, F9, FA, FD, 02, FB, 08, 02, FB, FC,
  FF, 07, 07, 00, 04, 00, 06, 0F, 0B, F4, F5, FF, 0F, 13, 08, 0B,
  14, 17, 08, 09, 0B, 11, 0B, F1, F7, F3, 04, 0F, 0A, 06, 00, FF,
  02, 03, 0A, 08, 06, F6, 0C, FD, FC, 07, 04, 03, F8, FD, EC, 0D,
  0F, 04, FA, F4, F9, 06, 02, 03, 02, FE, 09, FD, 01, 07, 01, 01,
  01, FA, FD, 05, 00, 0A, 0F, FA, 04, 03, 06, 0E, 0C, 14, 16, 13,
  17, 06, 01, 02, 03, 06, 05, 04, 07, 02, FF, 08, 02, FC, 01, 01,
  02, 12, 1B, 19, 13, 17, 20, 23, 16, 1C, 26, 0C, 12, 0E, 03, 00,
  01, 04, FE, 06, 01, 07, 09, FF, 05, 08, 07, 09, 05, FF, 06, 07,
  05, FF, 04, 0A, 04, 04, 01, 08, 05, FE, 02, 00, 00, FE, 08, 03,
  0A, 0B, 05, 02, 0B, 07, 05, 01, 06, 08, 0B, 05, 0A, 0B, 03, 09,
  05, 06, 07, 01, 03, 08, 06, 07, 08, 02, 00, 05, 05, 07, 0A, 06,
  05, 07, 03, 0C, 05, 0C, 02, 0C, 08, 04, FF, FE, FE, 05, 0A, 08,
  06, 01, 08, 06, 02, 01, 05, 08, 02, 00, 09, 02, 00, 09, 02, 0B,
  0A, 04, 07, 0D, 19, 0D, 14, 0F, 0E, 0E, 11, 11, 10, 11, 0E, 0E,
  03, 07, 02, 05, 03, 06, 07, 08, 03, 0B, 03, 09, 07, 02, 03, 0C,
  04, 06, 0F, 01, 0A, 1A, 21, 1A, 20, 2D, 20, 11, 0A, FF, 07, 01,
  0B, 03, FF, FF, 0B, 03, F9, 00, EE, F3, F1, E5, E6, EF, EE, EB,
  0B, 21, 17, 11, 0D, 0C, 03, 02, 0A, 07, 00, 05, 00, 00, FF, 01,
  06, F0, F0, EA, EB, EB, E9, F3, F9, F6, EF, EF, F8, 00, FB, 0E,
  0C, F9, F2, F8, 00, 03, 04, 0B, 04, 00, 01, F8, F8, F2, E6, EA,
  E8, EF, ED, F6, FB, F2, 00, FE, 01, 0B, FD, 00, 0A, F3, F8, 08,
  0C, 02, 04, 03, 03, 08, 03, FB, F7, FC, EB, DA, F0, FA, FE, EE,
  F1, FE, F9, 0C, FD, FE, FE, FC, 07, 06, 0B, 03, FD, F7, 00, 08,
  03, 07, 01, F9, FC, EF, F2, F0, F7, FE, F6, F3, FD, 06, FA, 01,
  F8, E3, E5, F1, F4, 01, FA, E7, FC, 0E, 0A, 04, 03, 07, 07, F6,
  EF, E3, F8, F0, FF, 05, 03, FD, FD, F0, E5, ED, E3, DB, E1, E6,
  F0, ED, F3, ED, FE, 02, FB, FB, 08, 09, 01, F6, F1, E2, F2, FD,
  0A, 0F, 0F, 04, 00, D9, E2, E9, E7, E6, F4, F9, F5, F1, FB, FE,
  03, FD, 00, 01, 06, FF, 01, F2, DD, D6, F2, 08, 0C, 15, 13, 13,
  14, E7, EA, E8, EB, F6, 06, 00, 09, 01, 05, 12, 03, FD, 04, 03,
  07, FF, 06, EA, D1, CF, FC, 0C, 05, 10, 0C, 22, 15, 0C, FC, F8,
  01, 11, 0A, 01, 06, 17, 0F, 16, 09, F8, FB, 06, 03, 04, 02, EE,
  D5, CE, F1, 0F, 08, 0E, 08, 0E, 17, 14, 11, 18, 0F, 14, 0D, FE,
  02, 05, 01, 00, FB, F6, FB, 04, 04, 09, 02, F8, F1, EB, F3, 0B,
  03, 00, 03, 10, 05, 10, 17, 08, 09, 01, 06, F5, FC, FF, F9, F5,
  F3, FB, F8, 06, 03, 08, 0A, FE, F4, F0, F6, 02, 05, 03, 04, 03,
  0B, 0E, 12, 0A, FC, 06, FC, F2, F6, FA, 0A, FA, EA, FB, F5, 09,
  07, 02, 0A, FE, F2, E0, FC, FF, 01, 02, FB, 0B, 07, FC, 0A, 08,
  04, F6, F9, E6, F9, F4, FB, F7, F7, F9, EE, 00, 01, 07, 03, FA,
  EF, E4, F0, 06, 08, 07, 03, 00, FF, 03, 02, 03, 09, FB, F5, E6,
  00, 0B, FC, FD, F1, F6, FF, 08, 08, 03, 08, FB, EC, E4, F5, 02,
  0A, 06, 07, 08, 0D, 07, FE, 0B, FF, 06, F4, E6, F9, FE, F5, F7,
  EB, F3, FE, 00, 0B, 03, 06, FA, E6, EB, EC, FD, 0E, 06, 1D, 0D,
  06, F9, 00, FF, 0A, 0B, 02, F8, F3, FC, FF, F8, F9, F7, 05, 02,
  05, 0B, 09, F8, E3, E7, DA, E8, F7, 04, 0B, FF, FA, FF, 02, 07,
  FF, 05, 04, FA, F9, 00, F8, F9, F7, FE, FF, 06, 07, 05, 03, FF,
  F9, FD, E4, E6, F4, 0B, FF, F8, 02, 0D, FD, 00, F2, 07, 06, F5,
  E7, EC, F3, F6, 02, FD, 06, 01, 05, 03, 0A, FF, FA, 03, F4, E4,
  EB, F5, 09, 00, 06, 0A, 01, FC, 02, FE, 09, F5, E0, EA, F2, F8,
  07, 08, 01, 01, 06, 08, 02, 0A, FE, 04, FA, FA, FF, FE, FA, F9,
  FE, 03, 03, 02, 04, 02, 0B, F3, E3, F9, 01, 03, 03, 0C, 05, 09,
  09, 04, 07, 01, 02, 00, FF, 01, FE, 02, 09, 18, 11, 0F, 05, 07,
  19, 01, 11, 03, 08, 06, 02, 0B, 08, 07, 01, 0A, 07, 04, 03, 06,
  FF, 07, 05, 09, 05, 0D, 12, 04, 01, 0F, 04, FA, 15, 25, 26, 16,
  08, FB, FF, 05, 07, 03, 06, 04, 08, 0A, 00, 09, 0C, 0D, 05, 11,
  0F, 18, 0D, 07, 15, 18, 11, 08, 0F, 1E, 1F, 03, 0A, 00, 08, 05,
  07, 06, 05, 07, 03, 07, 07, 05, 07, 05, 02, 02, 08, FF, 02, 05,
  01, FF, 09, 0E, 01, 02, 08, 0B, 04, 06, 07, 02, 05, 05, 04, 02,
  04, FE, FF, 04, 03, 01, 05, 01, FF, FE, 01, 01, FB, 00, 04, 06,
  02, 00, FD, 04, FC, 02, 02, FD, 00, 00, 05, 01, 01, 00, 02, 03,
  03, 01, 03, 06, FC, 02, FE, 06, FA, FF, 07, 04, 05, 06, 06, FC,
  FB, FA, FD, 04, FF, FF, 06, 06, FF, 00, 01, FF, FF, 03, 03, 02,
  04, 02, FF, 09, 08, 14, 13, 15, 0E, 00, 01, F5, F8, FD, 00, 00,
  FE, FE, 02, FE, FE, 06, FC, FC, 03, FD, 02, 08, 07, 0C, 0A, 07,
  10, 12, F2, F4, 04, F7, EF, ED, E6, F5, FE, FF, FE, 01, 01, FE,
  FD, 00, 08, 03, 04, 00, 0C, 0B, 0A, 17, 1D, 0F, 19, 0A, 09, FF,
  04, 00, F8, 04, FB, F3, F7, E8, EC, 01, 03, FF, 04, 00, FE, 06,
  03, 02, 09, FB, EC, EE, FA, F3, F8, 05, 08, 04, 02, FF, FD, 08,
  12, 0D, 12, 02, F7, FB, FF, 03, 02, 03, 02, 01, 06, F8, EF, F7,
  E5, E6, EC, 0B, FB, FC, 01, FC, 00, F5, 05, 07, FB, F4, 01, 00,
  F3, F9, 01, FF, 02, 00, 03, FB, FE, F0, EC, F7, EE, E5, FC, 0D,
  FE, F7, 08, FB, F4, FA, FD, 01, F9, 00, 10, E9, E0, F0, 05, 02,
  FE, FF, FA, 01, 00, F5, EB, F1, E4, F3, 11, 07, FA, 09, 06, 04,
  F6, 05, F3, FC, F6, F7, 01, E8, E9, F7, 00, FF, FC, 03, FE, 00,
  F5, F4, F4, FF, F5, F0, 03, FE, FD, FE, 06, 05, 01, 04, F6, F6,
  F0, FB, 03, F3, F0, F6, 02, 03, FF, FF, 01, FA, F5, FE, F9, F5,
  F7, E3, FB, 05, F4, EF, FF, 04, F3, 01, FD, F6, ED, F6, FA, F1,
  F5, F7, 00, 06, 01, FD, F5, F8, F4, EA, DB, DD, D5, D1, E3, F2,
  D7, DA, FA, 05, F8, F4, F6, F8, FD, F5, F6, FC, FD, 0E, 0D, 05,
  02, FF, 00, F9, E7, DC, C6, C0, D7, D7, CF, D6, D2, E1, FF, F9,
  F7, F1, E9, F9, FF, 03, 08, 0D, 14, 13, 0E, 03, FB, FB, FC, FB,
  EB, E4, D3, D2, E6, E0, D9, DC, F9, 08, 02, FB, F5, F0, E7, F7,
  FF, 07, 01, 0C, 13, 0D, 13, 00, FC, FA, 01, FE, F9, ED, F6, 03,
  FE, F7, F1, FC, 11, 1A, 18, 08, F8, E2, F9, F5, F1, FF, 00, FC,
  06, 02, 08, 04, FD, FD, 03, 0B, 01, 07, 18, 19, 11, 1B, 0B, 06,
  0F, 2F, 18, FD, F8, E0, F1, EF, E4, FB, EC, F3, F3, 04, 0B, 01,
  03, 04, FD, 0E, 09, 0E, 21, 19, 16, 21, 0D, 0C, 10, 1E, 17, FE,
  F1, E1, EF, EB, EB, FA, 02, 03, 01, 15, 0C, 01, 05, 00, 05, 0F,
  11, 18, 27, 15, 14, 12, 09, 0E, 0D, 09, 16, F7, E7, E1, EA, EF,
  F3, 02, FA, F4, FC, 16, 0C, 00, FD, 04, 02, 0A, 11, 10, 18, 0C,
  02, 11, 0B, F5, F9, 08, 15, F4, EA, F5, EB, FA, F2, 00, FD, F8,
  0A, 18, 08, 06, FE, FC, 02, 0D, 0F, 10, 0E, F7, F5, 05, 00, FD,
  F3, 0E, 01, 01, 05, 01, 01, 03, F6, 03, 02, 10, 13, 10, 03, 03,
  FC, FE, 00, 02, 17, 05, 0D, 0E, 12, 08, 05, 07, 05, F8, FF, 02,
  0B, FE, 07, 03, FF, FF, 01, 14, 1F, 0F, 04, FF, 02, 02, 03, 06,
  01, FC, 05, 0D, 02, 01, 02, F8, F1, F5, F7, FD, FB, 01, 1C, 11,
  06, 05, 0B, 10, 15, 0A, 02, 03, FF, FF, FD, 02, 08, 1A, F7, F4,
  F5, 03, F8, EE, F0, FB, 00, 03, 05, 0F, 14, 19, 07, 14, 02, 03,
  0B, 00, 06, FD, FB, FC, FF, 00, 05, 0B, F9, E5, EB, EF, F8, FC,
  09, 01, FB, 00, 01, 0B, 17, 18, 07, 02, 05, 01, 05, 02, 04, FD,
  04, FC, FB, FB, FE, F1, F6, EC, EE, F0, 01, F0, E7, E4, DB, E2,
  E5, 0A, EF, F1, F7, FB, FE, F6, 07, 03, 02, 04, 02, 03, 01, F9,
  F5, F0, F3, EC, E1, E4, FA, EC, E2, E4, DD, E5, F9, 05, FB, ED,
  F9, FA, FA, FA, FF, FF, 07, 04, 02, 01, 05, FD, 02, F7, FF, 01,
  FB, 03, 01, FE, F7, F8, FC, F6, 02, 01, F5, FD, FA, F8, 04, 02,
  01, FC, 05, 00, 04, 02, 01, FD, FB, 02, FE, 04, FC, FD, FB, FF,
  FB, 02, 01, 02, FF, 04, FE, 05, 03, 03, FB, FD, 05, 01, 02, 03,
  03, 07, 04, 08, 0B, 05, 0B, 04, 05, 03, 0C, 02, 06, 0C, 08, 08,
  09, 04, 02, 06, 07, 06, 0A, 04, 04, 07, 07, 0A, 04, 0C, 07, 07,
  03, 0D, 0C, 0C, 03, 05, 0A, 05, 04, 0C, 04, 0B, 05, 0A, 02, 04,
  03, 0B, 03, 07, 05, 03, 0A, 07, 05, 04, 0C, 08, 04, 0C, 03, 05,
  05, 09, 02, 03, 0B, 0B, FF, 01, FE, 05, FD, 09, 02, 0B, 0A, 0A,
  0C, 02, 06, 06, 03, 07, 07, 05, 03, 0C, 04, 0B, 0A, 03, 0B, 03,
  0B, FE, F1, FB, 09, 0E, 13, 0D, 07, FF, F9, FF, 08, 01, 01, 09,
  0D, 09, 0C, 0A, 08, 07, 02, 0A, 00, ED, F8, 05, FE, EA, EE, FB,
  0D, F4, 07, 0E, 02, 0D, FE, 02, 06, FD, 07, 0C, 0D, 02, 05, 0C,
  08, 15, 15, 09, F6, 02, 00, F6, FE, F9, F4, 05, 06, FF, FD, FA,
  EE, F5, 0A, 14, 0C, 05, 05, 0A, 0A, 05, 06, FF, 06, 0C, 00, 0C,
  06, 07, 0A, 0A, 03, FF, 01, FF, 07, FD, FF, F9, 09, EE, FD, 07,
  0B, 01, 05, 0A, 04, 07, 0C, 0D, 00, E9, F3, 16, 0E, 0D, 03, 05,
  01, 02, FA, FD, FF, 08, 04, 09, 0D, FB, EA, F8, FA, 05, 0F, 0D,
  06, 08, 0E, 17, 08, F7, F9, 05, 07, 0B, 08, 0D, 0A, 05, F8, F8,
  FD, 10, 0E, 11, 04, 04, 03, E4, ED, F1, 05, 02, 09, 06, 0C, 1C,
  1C, FE, 09, 19, 16, 1B, 09, 16, 0C, EC, DF, 04, 19, 0C, 05, 04,
  05, 0A, 08, FD, FB, F8, 09, 06, 0C, 0C, 0E, 23, 25, 0D, F9, 00,
  03, F6, DE, DA, C1, C4, E4, 08, 1A, 0E, 06, FF, 10, 0B, 0D, F5,
  F2, 03, 06, 0A, 0D, 03, 05, 11, 04, EB, F8, F0, E0, BB, B3, AD,
  C2, F2, 18, 13, 01, FC, F9, FD, 00, 06, 0C, 03, FB, 0A, 0B, 08,
  06, 05, 09, 05, F5, E2, D3, CB, AD, B7, D8, EE, 13, 1B, 13, 08,
  04, F8, 06, F5, F0, F3, 04, FA, FB, 0B, FF, 03, 07, 03, 00, FD,
  F2, D4, CE, BF, D5, F4, 02, 09, 14, 0B, 09, 0F, 0B, 04, 05, F9,
  F8, 03, E9, E5, F1, FA, FF, 04, 0A, 02, 03, 06, F6, EA, DD, E6,
  FD, 0D, 04, 0E, 16, 05, 0D, 16, 0C, 08, 0E, 06, 04, 08, FA, E9,
  F4, 00, 04, 0A, 0B, 0D, 08, 0B, FA, F0, F4, F1, FA, FE, 0C, 13,
  13, 12, 17, 17, F7, 02, 05, FF, FF, 1A, 15, 05, FC, F5, 05, 0B,
  05, 06, 0E, 0C, FD, EA, F6, F8, F6, 0A, 0C, 18, 1B, 1B, 1D, 0B,
  02, 07, 07, 0E, 00, 17, 05, 02, F0, F3, FC, 0B, 0C, 05, 0D, 0D,
  F5, ED, C9, CD, CB, ED, EF, 05, 14, 16, 0C, 09, FF, 00, 02, FF,
  FB, 08, FC, F9, F1, F6, FB, 0A, 07, 0C, 0B, 13, F9, ED, D4, C0,
  BE, C0, CB, D7, E6, F6, F8, FA, FE, F7, 03, F9, 06, 04, FB, F2,
  ED, 00, 04, 0D, 0C, 09, 08, 0A, F6, F5, E0, E6, D6, D3, C2, C0,
  CA, E4, E9, F4, FF, 00, 00, 01, 09, FC, F0, DC, E6, 04, 01, 0A,
  06, 07, FE, 0C, 0E, F6, FF, 03, 04, FE, F9, E9, E0, F3, FA, FF,
  F4, FF, 0A, 00, 04, 04, F0, E6, F9, FE, 0D, 06, 05, 0D, FB, 11,
  19, 14, 17, 16, 18, 07, 13, FE, FF, 02, 06, FE, 02, 00, FC, FB,
  0E, FD, E5, E8, 01, 0B, 0C, 09, 04, 05, F6, 00, 18, 1E, 0F, 09,
  10, 05, 0C, 01, FF, F9, F2, 03, 07, FD, F2, 04, F5, EE, E8, F9,
  FA, 0A, 04, 07, 02, 03, 0E, 0A, 14, 1C, 08, 0A, F5, 03, FF, FF,
  F9, FE, FB, FA, F1, F7, FC, EC, E4, E6, F9, 08, 02, 07, 0B, 03,
  08, 0A, 0B, 13, 14, 0B, 10, 06, F5, 05, 01, FA, FD, FA, FC, EC,
  F3, F6, E3, E4, F2, F8, 01, 0B, 09, 04, 02, 07, 0A, 04, 09, 0A,
  0E, 17, 0A, 14, 21, 0C, 03, FE, 08, 0C, F5, E5, F9, EC, E7, F6,
  FB, EF, 02, 01, 07, 09, 08, 02, 04, 0A, 0D, 0A, 08, 0D, 09, 05,
  08, 06, 0B, 06, 00, 04, 04, 00, 00, 09, 07, FE, F7, FC, 04, 07,
  02, 0C, 06, 08, 03, 06, 03, 0A, 0C, 05, 08, 08, 02, 0C, 0A, 08,
  04, 05, 03, 07, 05, 0F, 09, 04, 08, 09, 0B, 0D, 0C, 03, 0C, 02,
  02, 04, 0B, 01, 06, 04, 07, 04, 0C, 02, 0A, 04, 05, 02, 06, 05,
  08, 08, 0C, 04, 07, 03, 06, 03, 0B, 01, 08, 06, 01, 0C, 0C, 06,
  07, 08, 0B, 08, 04, 08, 01, 01, 01, 03, 08, 0C, 01, 05, 04, 01,
  06, 01, 05, 09, 02, 01, 04, 07, 02, 09, 04, 07, 0C, 0B, 09, 06,
  02, 08, 01, 07, 02, 04, 0D, 0D, 01, 06, 03, 05, 07, 04, 0B, 0A,
  0C, 08, 02, 09, 04, 01, 0D, 0C, 07, 09, 04, 08, 00, FF, FD, FE,
  F9, F8, EB, DC, F0, 07, 06, 0A, F9, F0, FD, 06, 0B, 03, 03, 05,
  08, 08, 0D, 09, 01, 04, 03, FF, FD, F9, F9, FA, F2, E7, F1, F8,
  FA, F1, FB, 1C, 00, F9, FF, 00, F5, 01, 03, 08, 0B, 0B, 02, 03,
  06, 15, 0E, 0C, 09, 04, F2, EA, EF, DE, E7, EF, EE, F0, FA, FC,
  EF, F6, FC, F6, F7, FE, 00, 02, 07, 02, 0A, 08, 05, 10, 04, 09,
  05, 07, FB, FB, 01, FF, 08, 0C, 05, 16, 0E, F5, E8, FE, 07, F2,
  F7, FF, 06, 05, 06, 06, 06, 0D, 02, 05, 02, FD, ED, FC, 00, FE,
  08, 0A, 07, FE, 18, 15, 06, 06, 07, 00, F7, F3, F6, F8, 00, 09,
  0A, 04, 08, 0F, 07, 0B, 06, 0E, 04, 07, 0A, FB, F6, 03, 05, 09,
  02, 09, 0B, FB, F6, F6, F8, EC, F0, F4, 0B, 0C, 06, 04, 0C, 0D,
  00, 02, 07, 05, 06, 10, 09, 04, FE, 00, 06, 14, 02, 0D, 09, F9,
  F6, F0, 00, E6, FA, 01, 05, 06, 08, 05, 0F, 02, 02, FA, F7, F0,
  01, 10, FB, FD, F4, F6, 0D, 0D, 13, 0A, 06, FF, F4, FA, EE, F4,
  FB, FA, FE, 04, 05, 08, 0D, 11, 0A, F9, F3, F4, 04, FB, 04, 08,
  EA, EA, 08, 12, 13, 0C, 10, 03, F8, EF, FA, F4, FA, F7, 06, 05,
  0B, 04, 0C, 12, 02, F6, F4, F5, FC, FD, FF, 0A, E6, F8, 0B, 1F,
  15, 0C, 14, FA, DE, E3, E9, F3, EF, FA, 02, 02, 08, 05, 0E, 06,
  08, F9, FD, 03, 02, 05, 12, 00, F0, F8, 09, 1A, 0E, 0C, 0E, E8,
  CA, E6, EE, FA, FE, 05, 02, 01, 03, 03, 06, 0A, 03, 02, F8, 03,
  FA, 00, 0A, 06, F4, FE, 08, 13, 07, 02, 05, E7, E2, F3, F4, 00,
  02, 06, 0B, 06, 0A, 09, 09, 08, 09, F3, EB, EF, 07, 08, 04, F2,
  F0, FF, 0E, 08, 12, 14, FC, E2, EF, 01, 0A, 03, FD, FA, 08, 0A,
  03, 0A, 00, 04, 03, F4, E2, F0, 05, 0F, 00, F9, FE, 02, 0B, 06,
  0D, 09, F2, D8, FB, F8, F3, ED, EE, F3, FD, 0A, 0B, 09, 00, 04,
  FB, F0, E6, EB, FD, F6, 01, F8, FB, 02, 07, 00, FD, EE, E3, EB,
  F8, FC, F5, F9, FE, 05, 06, 02, 03, 04, 08, 00, FE, F3, E2, F5,
  EC, EB, FB, 01, F8, 05, 09, F7, EB, E5, DD, ED, F9, F2, EC, EF,
  FB, 08, 08, 02, 0C, 04, 08, 03, 06, F0, E6, ED, FA, FA, F1, 00,
  03, 06, 04, E9, E3, D5, D1, EF, FF, E9, DB, E7, F7, 0B, 00, 0A,
  0C, 05, 01, FB, FF, E6, E0, E4, 00, EA, F6, 00, 0B, FD, F9, EA,
  EF, DC, CA, E0, E8, F4, F0, F1, 03, 05, 08, 0A, 0C, 0A, 04, F9,
  F4, DA, EC, F0, F9, F3, 00, F0, EF, EF, FF, F9, F8, DF, D3, E3,
  ED, FD, F2, F2, 06, 06, 0A, 0B, 02, 03, FF, FA, F3, F5, 01, 03,
  04, 06, 05, F4, FB, 01, 0B, 08, FA, F0, DE, DB, E4, F6, F8, FB,
  06, 0C, 08, 04, 03, 07, 06, FC, F1, F4, FD, 02, 05, 00, FC, FD,
  06, 05, 05, 01, F2, F2, DB, D3, E2, F9, 02, F9, 04, 06, 04, 01,
  06, 04, 00, 03, 04, 0F, EF, F7, F7, F0, F8, FB, FC, F0, EC, F4,
  EF, E6, D5, D8, EA, F2, FA, 07, 01, 07, 09, 0A, 03, 04, 0A, 05,
  16, 04, F7, F8, 04, F5, E5, FB, F5, EF, 06, 14, 15, 07, F4, F6,
  F6, FC, F8, 01, 06, 02, 02, 03, 06, 08, 0A, 09, 0B, 08, 0D, 12,
  1D, 29, 1A, 10, 0C, 0E, 29, 17, 16, 0E, 13, 0C, 05, 0A, 03, 03,
  0A, 05, 08, 08, 0A, 08, 09, 02, 01, 04, 02, 09, 0D, 0C, 11, 0F,
  0F, 13, 11, 05, 08, 09, 07, 09, 02, 07, 0A, 09, 06, 02, 01, 0C,
  06, 00, FB, FC, 04, FA, FC, 01, FD, 04, 03, 00, FF, FD, FD, FF,
  02, 05, 02, 04, 04, 01, 04, 03, FC, FB, FB, 03, FF, 03, 06, 05,
  FE, 01, 00, 05, 04, 01, 01, FF, FD, 03, 09, 04, FC, 05, 01, FA,
  FA, FF, 04, FB, 01, 02, 06, 03, FE, FD, FF, FB, 05, 00, 00, FE,
  F8, FA, FD, FF, FB, FB, 04, 00, 00, 05, FB, 04, FE, FC, 02, 04,
  03, 04, 02, 06, 06, 04, 05, FF, 00, FC, 00, 07, FA, F7, 03, FC,
  F0, 04, 00, E8, F0, F3, F1, F7, F6, F6, 03, F8, FE, 06, 02, FF,
  01, FD, FB, 06, FB, FA, FA, 01, F7, 08, F8, FE, 04, 02, FA, 02,
  02, 04, 04, 02, 07, 06, 15, 1B, 05, 05, 05, 03, FF, FB, FD, 01,
  F9, F3, F0, F8, 01, 09, 0C, 0C, 06, 08, F8, FC, FB, 0A, 0A, FE,
  07, 11, 0A, 0B, 0C, FE, FD, FB, 00, FD, 00, F2, EF, FD, F8, 06,
  05, FA, FE, 05, FD, FF, FE, FA, 02, F9, FC, 0C, FB, FA, FB, F8,
  FB, 03, 06, 06, 01, 00, 04, F8, EF, FE, 0B, 01, 07, 09, 12, 0C,
  06, FE, 00, FC, 01, 08, FE, 04, FF, 01, FF, FD, 00, 05, 06, FB,
  FF, FB, 04, FD, F2, FE, FF, F6, 04, 07, 04, 0B, 01, ED, 0C, 10,
  0A, F7, FC, F3, FE, F8, EE, F5, FF, 01, FB, FF, 02, FD, 05, 04,
  00, 08, FC, FF, FD, 0C, 13, 15, F4, DD, F1, 05, 05, FD, F9, F7,
  FB, F7, EA, F0, FC, 03, FE, FE, FC, FC, 00, F9, 06, 11, 00, 07,
  05, 11, 0F, 15, F6, D5, D9, F0, 05, 09, F5, F8, FE, 01, FC, F6,
  FC, FE, F9, FF, 06, 00, 04, F3, F3, 10, 11, 0E, 0A, 0A, 1F, 0C,
  FC, E0, E3, F2, 04, 11, 0C, 06, F9, F3, 09, 0E, FA, F5, FE, 04,
  FE, FC, FD, F6, 00, 17, 17, 05, 0D, 05, 07, 07, 02, E9, E3, E5,
  FC, 03, 06, 07, 05, EB, 0D, 2C, 08, ED, F8, 03, 02, 05, 01, ED,
  14, 13, FE, 09, 06, FE, 07, 00, 00, ED, DE, DD, FA, 05, F8, 04,
  00, 08, 10, 15, 11, FD, 00, FB, 05, FE, 04, F1, 07, 0B, 03, 0F,
  0E, 00, FB, FF, F9, E6, E0, DE, 08, 10, 0A, 00, 0C, 06, 19, 19,
  12, FB, FE, 05, FC, FB, 04, F9, 04, 07, 0D, 16, 0A, 0F, 0D, FF,
  05, F7, CA, D3, 00, 0C, 08, 05, 02, FE, 01, FF, 08, F9, 00, FC,
  00, 01, FB, F5, 03, 16, 0B, 06, 0B, 02, FD, 07, 03, E1, CB, E7,
  0B, 0A, 09, 06, 03, 02, F2, F4, FB, 01, FF, 03, 00, FC, FD, F9,
  03, 14, 02, F7, 01, 04, 02, FF, F4, DB, D7, F7, 1A, 19, 12, 03,
  00, 01, 02, F4, FC, 09, FF, 02, FC, 05, F9, F6, 0A, 08, 09, FC,
  FF, 04, FF, 04, F2, E0, E8, 04, 24, 1F, 0E, 09, 09, 05, FD, E5,
  F7, FB, 00, 01, FF, 05, FD, FD, 08, FC, 10, 14, FF, 01, FC, FF,
  E9, CE, E4, 0B, 1F, 0E, 13, 0F, FB, FE, FA, EB, FF, FD, FD, 00,
  03, 04, 04, F4, 06, 0D, 09, F6, FC, F4, EB, F0, EE, E4, F5, 0A,
  17, FF, FF, 07, E5, F0, F5, EA, 03, 01, 04, 01, FB, FA, FC, F3,
  FE, 15, 01, F6, FD, EB, F3, F6, F7, EE, FB, 0B, 0A, F8, 01, FB,
  FC, FF, 0B, 07, 10, F8, FE, 04, FF, 00, 01, F8, EF, FD, F5, FE,
  FA, F3, F8, F7, F6, 02, 0F, 0D, 07, 08, 0B, 06, 07, 02, 03, 07,
  0E, FE, 03, FE, 04, 02, FC, FC, EB, F6, F5, F6, FD, F5, FD, 02,
  07, FE, 1D, 13, 09, 11, 01, FC, FE, 0A, 06, FD, FF, FB, FB, 05,
  05, FC, 05, 03, 00, FD, F8, EF, F5, FB, EF, F8, F8, FB, 02, 09,
  02, 0B, FB, 0B, 13, 03, 12, 09, F8, 03, FF, FE, 02, FC, 01, 05,
  02, 02, F5, E3, E4, F5, E1, F2, F1, FA, 0E, 07, FC, 0A, 0E, 0F,
  0A, 0D, 05, 06, 04, 02, 01, 00, FC, FE, 04, FE, 02, FE, 03, FA,
  08, 0E, 02, 02, 04, 02, 0F, 0B, 0C, 0B, 0D, 13, 09, 0C, FF, FC,
  FF, 00, 05, FC, 04, FF, 06, 03, 01, FF, 03, FB, FE, 04, 07, 02,
  02, FD, 09, 05, 05, 02, 04, 05, 07, FE, FE, 06, 06, 03, 03, FC,
  FF, FC, 00, 05, FE, 05, 04, 02, FD, 01, FE, FD, 01, FC, 01, 05,
  02, FF, 07, 01, 06, 02, FF, 00, 05, 06, FC, 05, FD, FE, FD, FC,
  FD, 07, 06, 00, 05, FC, 01, 05, 04, 00, 06, FC, FE, 00, 02, 07,
  00, FC, FF, 03, 01, FE, 00, 04, 04, FF, 06, 03, 06, FD, 05, 03,
  FF, 03, FC, 01, F9, F9, FA, 06, 00, 06, 01, 03, 04, 01, 06, 07,
  02, 06, 06, FF, 00, FF, 04, FC, 06, 08, 04, 00, FF, 01, FF, 0C,
  0E, 03, 14, 0F, FF, F8, 09, F2, F2, FB, F3, F8, 05, 04, 07, FF,
  FC, 00, 00, 02, 05, 07, 08, 09, 0A, 04, 0D, 1F, 07, 01, 09, 10,
  F8, F7, 0B, 06, FD, 00, FB, FE, 09, 09, 03, 05, 07, 04, FD, FF,
  0A, 09, 04, FF, FC, FB, FE, 0E, 02, 01, FD, 05, 08, 09, 06, 06,
  08, FD, FB, 05, 0B, 0A, 04, 01, 03, FC, 00, 08, 0A, 0D, 0E, 07,
  0B, FB, 09, 01, 07, 06, FE, F9, 0D, 09, 06, 06, 06, 03, FE, 03,
  1D, 16, 0F, 07, 07, 07, 05, 07, 0B, 10, 0B, F8, FB, FE, 06, 02,
  01, 03, 0B, FB, 09, 08, 08, 01, 01, 02, FE, 01, 0A, 1F, 09, 01,
  FE, 02, 04, 04, 09, 0D, FC, E2, FB, 02, 01, F4, FE, 01, 02, 01,
  0F, 13, 0E, 04, 05, 03, 03, 0B, 0E, 17, 0A, FD, FE, 05, FD, 0A,
  0C, 00, 14, 07, FD, 06, 03, 02, FE, 06, 0E, 04, F9, F3, EF, EE,
  03, 02, 17, 03, 10, 1D, 02, 01, 02, FE, FB, 10, 01, FC, 0E, 08,
  01, F8, FE, 0B, 03, 0B, FC, F3, EE, EB, EE, EE, F4, F9, E8, ED,
  FF, 0B, 00, 02, FE, 03, 02, 05, FB, FA, F9, FF, F8, F7, FD, FF,
  F9, FB, F8, F0, F4, FC, 00, EE, F5, F1, E3, EA, EF, 06, 09, 05,
  04, FC, 00, FE, FF, FB, EE, 06, 00, FA, 06, F8, FD, 06, 0E, 0A,
  00, 01, 05, F2, 05, F8, EE, EF, EC, FC, FE, 00, 07, FD, 04, FE,
  F7, 0E, 02, 09, FD, F7, 02, 02, 05, 17, 16, 03, 01, FC, 04, F7,
  F1, 01, 01, F0, EF, F6, 00, FB, 01, FF, 06, 04, F1, F5, 05, 0D,
  02, 04, 0D, 03, 17, 12, 0C, F7, FD, F2, F7, EE, F0, 07, 09, 0E,
  F6, FE, FE, 02, 06, 08, FE, FE, E5, D9, DE, D7, F7, 09, 1F, 17,
  22, 11, 00, F8, FB, F5, FA, 01, FF, 05, 13, 1B, 02, F9, 01, 03,
  01, 04, 00, 01, E2, CD, B6, B4, C8, D9, 00, 08, 0E, 12, 02, F5,
  F6, FA, 05, 01, FD, FC, 07, 03, 16, FC, FE, 06, 02, 07, 03, 06,
  EF, D3, BA, BC, 97, 82, 81, A2, AA, CF, DE, FB, FA, 00, 07, 05,
  FF, 01, 01, 05, 0A, FB, 03, 02, 07, 07, 02, 14, 01, E6, E5, E8,
  D5, B1, B4, A6, 94, C7, E1, F0, FE, 01, 02, 07, 0A, 19, FE, FB,
  04, 00, 06, 07, FC, 03, FE, 12, 0B, 06, FF, 06, 02, 08, 07, 00,
  F6, F8, ED, F3, FC, FF, 03, FF, 07, 10, FE, 11, 07, FF, 06, 07,
  04, FE, FA, 0B, 0A, 15, 1B, 0E, 20, 1E, 1F, 21, 21, 14, 07, 05,
  ED, 00, 00, F9, 01, FB, 06, FF, FA, 02, 03, FD, 01, 05, F7, FE,
  0E, 0C, 06, 12, 0C, 0C, 17, 15, 14, 13, 10, FE, FF, F3, F0, F0,
  F9, FA, FF, 04, F2, 02, 02, 07, 02, 00, FE, FC, 02, 03, FD, FF,
  08, 08, 0E, 09, 05, 08, 0C, FE, FA, ED, F3, 02, FD, F8, 03, 07,
  FC, FF, 05, FF, 04, 04, FF, 0D, 1B, 1A, 01, 05, 09, 13, 1C, 1A,
  02, 03, 05, 03, 05, 03, 04, F8, FC, F7, F5, F7, 06, 00, 01, 02,
  FC, 04, 01, 0B, 12, 15, 0D, 15, 16, 11, 13, 06, 03, 05, 07, 01,
  08, 14, F5, EC, 00, FA, F5, F8, FF, 01, FE, FE, FE, 02, 03, FC,
  03, 11, 15, 1B, 18, 06, F5, 06, 11, 1B, 02, 01, 0C, 0F, 10, 08,
  03, 03, 08, 06, 01, FE, 00, 02, FD, FD, FF, FD, 00, 0C, 08, 0D,
  FB, 0F, 12, 1B, 16, 13, 0D, 0E, 1A, 18, 0C, 0B, 0B, 09, 00, FC,
  03, FD, 04, 00, 00, FE, 05, 06, FD, FF, 02, 06, FF, 02, 02, 01,
  00, 01, 03, 07, 01, 01, 06, 03, FD, 03, 04, 01, 03, 00, FD, 01,
  FF, FE, 04, 06, FF, FD, 06, 05, 05, 02, FC, 06, FF, FF, 01, FF,
  07, 03, 02, 05, 06, 02, 06, FE, 04, 03, 01, FD, FC, 00, 02, 05,
  FC, 03, FC, FE, FE, 04, FD, 03, 02, 08, 01, 00, 03, 06, 09, 08,
  02, FF, FD, 05, 02, FC, 05, 06, 04, 04, 00, 05, FE, 06, FC, 03,
  F8, EE, F6, 00, FD, FB, 07, 1D, 2B, 23, 1E, 1E, 0B, 09, 08, 06,
  FD, 03, 07, 06, 01, 01, 01, FC, 03, FC, 04, 07, FB, E4, DE, DC,
  E3, EE, FA, 13, 10, 1B, 29, 22, 27, 25, 16, 13, 0E, FE, 04, FD,
  00, FE, FE, FF, FD, 04, FF, FB, FB, F4, 07, F8, F6, F7, F6, 0B,
  06, F8, 08, FF, FE, 15, 18, 19, 0C, 05, 01, 05, 04, FD, 06, 06,
  03, 0E, 07, F8, FE, FC, FE, 02, EF, FE, 03, 0D, 0F, 03, 09, 0B,
  FF, 06, 14, 1C, 0D, 06, FF, FC, 07, 02, 04, 03, 11, 0F, 00, E7,
  F3, F4, FE, 0E, 07, 01, 0A, 12, 01, 09, 18, 18, 17, 01, FA, 0B,
  0B, 14, 07, 04, FF, 06, FC, 02, 07, 0E, F8, F5, F4, F8, FB, 07,
  05, 01, 19, 05, 00, 0F, 0E, 0F, 0F, 02, F7, FA, 01, 01, 09, FC,
  FE, 00, FB, FE, 07, F8, F7, F5, E8, F0, F8, F8, F3, FF, 0A, F9,
  F4, F9, F2, F5, FC, F7, E5, E4, F2, F8, 08, 00, 05, 01, FE, 01,
  02, F3, F7, FD, FE, F7, F4, E3, E8, F4, FC, F1, DF, D6, D1, DC,
  E6, E5, DA, DC, F8, 09, FD, 05, FD, FE, FC, 06, 01, EF, F4, F6,
  F1, E6, E8, E6, F1, 07, FD, E5, DE, DB, D1, D0, CD, B9, C2, CC,
  F0, FE, 04, 04, FE, 03, 06, 04, F6, F0, E2, F0, E3, F0, F3, F6,
  04, 0B, FF, F3, F6, F2, ED, D8, BB, B7, B1, CA, EC, FF, 06, 04,
  05, 03, FD, 08, FC, FF, FA, F7, F9, F7, 0C, 09, 0F, 0E, 00, FA,
  FE, EE, F1, DA, D5, CB, BF, D9, F6, FF, FF, 05, 05, 03, FC, 02,
  FE, 04, 09, FF, 01, 07, 06, 0A, 0B, 03, 09, FB, 03, F7, F7, FB,
  00, ED, CF, D5, ED, FE, 02, FE, FC, 05, 02, 05, 00, F1, F4, FB,
  09, 0D, 02, F8, F3, E8, 06, 04, FD, F3, 04, 0F, 18, 14, FB, E4,
  EA, F7, F7, 04, 07, 03, 08, FB, F9, ED, EA, EC, FA, FD, FB, 05,
  03, F2, 02, FA, 01, 00, 13, 0D, 19, 1E, 09, EC, E5, F7, F8, FC,
  FC, FF, 01, 00, FD, F7, DF, ED, E9, E2, F5, F6, F2, F4, 08, FA,
  F3, F8, 0E, 1F, 0B, 18, 1E, E8, E4, F0, F7, 03, FE, FE, FF, 0E,
  00, FE, 07, 02, F4, DC, F1, EB, DE, F1, 00, F0, F1, FB, 07, 12,
  09, 0C, 0B, F5, E5, E5, F7, 01, 03, FD, 06, 1F, 13, 12, 12, 0C,
  04, ED, F8, EB, E0, FB, 0A, 00, FB, 08, 03, 08, 03, 0D, FE, EE,
  F8, F4, F7, FE, FF, 06, 03, 11, 0A, 0C, 15, 0E, 08, 08, F9, FF,
  02, 01, 0D, 0C, 18, FE, 0A, F0, FB, 08, 12, 12, F9, FE, FD, 00,
  02, 01, 05, 14, 04, 02, 09, 09, 0F, 13, FF, F7, 01, FF, 14, 11,
  0D, 0C, 11, 00, 02, 02, 03, F3, F4, 01, FA, FD, FF, FD, FB, 04,
  07, 00, FA, FC, FB, 08, 03, 06, 08, 05, 19, 14, 0A, 07, 0C, 07,
  FF, FE, EC, EA, F8, 00, 03, 06, FD, FB, 00, 01, 0C, 0D, F2, F3,
  F8, FE, FD, F6, 00, FE, 04, 07, 07, FB, 03, 0B, 02, 03, F8, FD,
  01, 01, 03, FE, 05, 06, 03, 0C, 1A, 1A, 02, FC, F7, 05, 11, FC,
  02, FE, FD, 05, 02, 00, F5, FE, F8, F0, F6, 02, F7, 00, 04, 02,
  00, 04, 00, 02, 09, 0C, 05, 15, 0B, 12, 15, 02, 01, FA, 06, FA,
  F5, 02, E9, F0, F4, FA, FE, FB, 02, 06, 06, FF, 07, FD, 04, 07,
  0B, 07, 04, 12, 12, 0E, 0B, 0E, 00, F3, EC, E9, EC, F4, F7, 07,
  08, 01, 09, FD, 02, 04, 07, FD, 00, FC, 06, 03, 04, 01, 01, FC,
  00, FC, 00, 08, FC, FD, 03, FF, 04, FC, 05, FF, FF, 07, 03, 00,
  06, FF, FB, 07, 03, 00, 02, FD, 04, 03, 01, FF, 04, FC, FC, 00,
  00, FF, 02, FD, 07, 00, 06, 01, 07, 05, FE, 05, 05, FD, 06, 02,
  00, 07, 04, 04, 02, 07, 01, FF, 05, 01, 03, 00, 07, 06, 04, 06,
  03, 05, 05, 05, 06, 01, 03, FE, 05, 03, 04, FF, 09, 08, 09, FF,
  06, FF, FF, 05, 03, FF, 00, 06, 02, 08, 06, 0A, 05, FF, 05, 05,
  FE, FD, 07, 05, 03, FF, 06, 03, 04, 06, 03, 08, 00, FF, 04, 09,
  03, 06, FE, FE, 04, 04, FE, 0C, 02, FE, FB, F3, FA, FD, 06, 05,
  06, 02, 07, 00, 04, 06, 01, 06, 08, 00, 04, 07, 01, 01, 01, 05,
  03, 09, FF, F5, FC, FF, 01, F8, FE, 01, 07, 04, 04, 07, FF, 02,
  03, 05, 09, 09, 04, FF, 04, 00, 02, 00, F9, 00, 04, 01, EC, EA,
  F1, F8, 0F, 0A, 0E, 11, 14, 01, 0C, 08, 06, 03, 04, FE, FF, FF,
  02, 05, 07, 03, FC, FA, F8, E2, EF, FC, F9, F9, FA, 01, 08, 0E,
  07, 02, 04, 0F, 10, 04, 06, 02, 00, 01, 05, FF, 02, 02, 02, F0,
  EC, F9, FD, FB, 07, 11, 0E, 1A, 1B, 22, 26, 0D, 0C, 11, FC, 04,
  FD, 0D, 08, 03, FE, 02, 00, 0B, FB, F8, F9, F2, EF, F3, F7, FE,
  0D, 0C, 1C, 2F, 24, 13, 10, 07, 07, 08, F0, F3, 02, 05, 04, 08,
  06, 09, FF, 03, F8, F7, F4, FD, 05, 02, 01, 13, 01, 13, 20, 18,
  11, 0B, 00, FF, FD, FE, 07, F4, 06, 0E, 0B, 02, 03, 00, 04, 01,
  F7, F9, FF, 03, 04, 09, 09, 08, 14, 17, 0F, FE, EE, FA, EF, FB,
  F8, F1, 11, 01, 0A, 0E, 0B, 00, 02, 06, 07, 05, 02, 02, 16, 06,
  02, 04, F2, F5, F9, EA, D7, C7, D7, E5, FE, 0B, 01, F3, 0B, 16,
  04, 06, 08, 06, 08, 06, 07, 01, FF, FC, 01, FC, 06, F7, E7, E7,
  D6, CB, D6, E1, FF, 05, 05, 09, 0C, 00, 0F, 06, 0D, 12, 0D, 05,
  06, 07, 04, 08, 10, EC, F1, F1, EC, F2, EB, DB, C9, E1, 08, 17,
  15, 0E, 09, 11, FF, 07, 16, 13, 06, 14, 0D, 04, 01, 08, 07, 12,
  F6, DE, E5, E6, ED, F1, EE, EF, E7, 11, 14, 12, 0D, 0F, 0E, 04,
  02, FB, 05, FE, F0, 03, 09, 03, 01, 06, 04, 0E, EF, D6, EE, E0,
  EB, E5, FE, FE, 02, 0A, 0F, 0F, FB, 15, 03, FB, 05, FE, F3, F3,
  F5, 01, FF, 02, 05, 04, 04, 00, F9, F6, F2, F5, F3, F5, 00, 09,
  01, 12, 0F, 10, 03, 05, F9, F8, 0A, F8, E6, F1, F6, F8, 09, 03,
  00, FF, 02, 0F, 0B, F0, F5, 07, 00, 03, 0B, 0D, 05, 0B, 07, 06,
  06, 00, FB, F5, F3, E5, ED, EE, F6, FF, 00, 09, 07, 06, 06, 0B,
  0D, F3, F5, 0A, 0E, 09, FF, 11, 10, 0A, 08, 09, FA, FB, FB, F0,
  F3, EC, E6, E3, F2, 03, 05, 00, 06, 00, 02, 0A, 0F, F6, 0F, 08,
  00, FD, 0E, 0A, 01, FE, 06, 0A, FF, 08, 05, 03, F6, 03, E6, E6,
  E8, FB, 05, 02, 07, 01, 0A, 08, 00, F6, 06, 0A, 08, 05, FB, EE,
  FD, 03, 0D, 05, 0A, 07, 12, 11, F3, EF, EA, EA, F9, 03, 05, FE,
  08, 06, FF, 03, 00, FA, 0A, 05, 01, EA, E7, F4, FF, 0A, FF, 09,
  0E, 05, 05, 10, EA, D9, E6, F4, FD, 03, 03, 03, FE, 03, FC, FC,
  F3, ED, 04, 0C, FA, EC, F6, F8, 03, FE, F8, FD, 03, FD, 0C, 02,
  EA, E6, EF, F1, 01, 04, FF, FF, 05, 02, 03, F4, F2, E5, 02, 10,
  F8, F0, 05, FC, FD, EB, F2, F8, FA, FA, EF, F1, EA, E6, F6, FE,
  00, FF, FD, 09, 07, 03, FE, 07, FD, E5, F9, FE, F9, F5, FD, F8,
  EB, F2, F4, FA, FF, 01, F0, F3, 02, 0A, 15, 06, FE, 04, 01, 01,
  FE, 00, 02, 09, 11, FA, 0E, 05, 08, F3, F7, FA, 01, 0D, 06, 12,
  0D, 0C, 02, 07, 15, 0C, 08, FD, 02, FD, 06, 05, FF, 07, 06, FE,
  08, 00, 10, 1E, 28, 1E, 0C, 11, 1F, 16, 16, 10, 18, 0A, 11, 18,
  17, 0D, 00, 05, 03, 04, 01, 01, 02, 03, 06, FF, FF, FC, FE, 14,
  16, 22, 2B, 24, 19, 1B, 1F, 1A, 23, 1D, 22, 1A, 19, 07, 01, 08,
  03, 07, 08, FF, 00, 02, 00, 02, 03, 02, 06, 07, FD, FF, 08, 04,
  0A, 05, 0A, FF, 09, 07, 0A, 03, 00, 04, FD, FF, 05, 01, 01, 06,
  01, FD, FD, FE, 05, FF, 04, FC, 03, FF, FF, 03, 01, 06, 00, 06,
  01, 06, 02, 05, FD, 00, FE, 07, 06, 04, FF, FD, 06, 07, FC, 02,
  FF, FF, FC, FC, FC, 00, FD, 01, 04, FF, FE, 06, 08, 06, 06, 03,
  06, 00, FD, 07, 05, 07, 06, 00, 00, 02, 01, 02, 04, 04, 06, FD,
  FD, 02, 07, 01, 06, 02, FA, 05, 05, 0B, 0A, 0B, 08, 0E, 04, 00,
  02, 00, 05, FC, 04, 03, 02, FD, FE, FB, 00, 00, 04, FD, FD, F3,
  F4, F2, F8, EC, F9, 0F, 1A, 15, 0F, 0F, 11, 15, 0D, 00, FC, FD,
  FC, FD, FF, 05, 06, FA, F9, EF, E4, E6, E8, F0, F4, F4, F9, F7,
  FB, 0A, 03, 07, 0F, 12, 06, F8, F4, F4, 05, 01, 02, 04, 07, 06,
  FD, ED, E9, DE, E1, EE, 07, FF, F6, 03, 08, FE, F3, 07, 06, FB,
  0C, 0F, 01, DF, F4, 02, FF, FE, 07, FE, FE, 00, FF, EE, E0, DB,
  E5, EE, FB, 02, 04, 04, 09, 17, 03, 02, F5, 01, F5, FE, 14, F9,
  F7, 0E, F9, 04, 05, 06, 03, FF, FB, E8, EA, D9, E4, 02, 0E, 0E,
  0B, 0C, 03, 0B, 0D, 0B, 12, 00, F9, 06, 09, 08, 03, F7, 01, 02,
  FE, FF, 04, FC, F5, E6, DA, E4, 03, 0E, 01, 07, 10, 13, 06, FD,
  FC, 15, 06, FA, FD, F1, F7, 0F, 03, F5, 04, FC, 07, 03, 01, FE,
  F4, E7, D2, E9, F8, 01, FD, 02, 02, 06, FE, E8, EC, F6, F3, F6,
  F9, FF, F5, 03, 0B, 0D, 02, F9, 04, 00, 02, FB, FA, F4, F2, 04,
  09, 10, 03, 08, 0E, 0D, 0C, EF, DB, EC, F8, EC, FC, 05, 0A, 13,
  0C, FF, 06, 05, FF, 00, 04, FC, F7, EC, 01, 14, 06, 0C, EF, FC,
  F9, 12, FF, EB, E3, E5, FB, FE, F0, 02, FD, 0A, 11, 0E, 07, 08,
  07, 01, 03, FC, F3, EF, 09, 01, FA, 0E, 00, 00, 0B, 0E, FF, F0,
  EB, F7, 02, 01, FA, 02, 01, 12, 15, FE, 01, FC, 06, 05, 05, 01,
  F8, F1, 09, F5, F4, 09, 09, 05, 11, 09, F6, ED, E7, E9, F0, 00,
  FE, F8, 09, 0D, 03, 0B, 01, 05, 07, 07, 07, FB, F5, 0A, FF, F9,
  FB, 03, 10, 0B, 06, FA, E8, E8, E5, FC, EF, E8, F0, 04, 07, 00,
  09, FD, FD, 04, 02, 07, 03, FC, F4, 18, 00, FA, F4, 13, 0D, 11,
  0D, E1, EC, E9, EE, 06, 02, F1, FA, FE, F1, FB, 04, F7, F6, 04,
  07, FF, 02, FF, FE, 07, 00, FB, 0D, 1E, 1A, 12, FC, DA, F6, F9,
  F3, FF, F8, F1, EF, F7, F9, FA, F6, FD, F8, 01, FE, 06, 02, 07,
  09, FF, 04, 05, 0A, 14, 31, 14, ED, E2, FF, 02, EF, F0, FA, FB,
  F9, F5, F6, F5, FC, F6, FA, 06, 07, FC, 03, F8, 04, FB, 0A, 09,
  0F, 20, 16, FA, D3, D3, F2, 07, FD, EB, F2, F5, F1, F5, FD, FE,
  06, F7, 01, 07, 05, 04, 09, F7, 05, 01, 09, 02, 14, 24, 1B, F7,
  DC, E0, FB, 0A, F6, F1, E6, F9, EE, F4, 08, 03, FF, FB, FE, FF,
  02, 09, 05, F9, 0C, 09, 10, 11, 1E, 23, 22, 0B, F6, F7, 00, 08,
  EC, EA, DE, F3, 03, 00, 0D, 07, F4, FC, 00, 03, FE, 04, 03, 02,
  01, FB, 06, 13, 0E, 1D, 15, 17, 0F, 04, 02, 03, F5, EE, F6, F7,
  01, FE, 05, 08, F8, FC, 00, FF, 04, 03, 05, 05, 06, 03, 00, 0E,
  02, 14, 1A, 1B, 17, 07, 03, 0E, 00, F8, 02, 00, F9, EC, FE, FF,
  01, FE, 00, 01, 05, 06, 05, FC, 05, 00, 08, 0A, 0F, 0C, 17, 0C,
  0B, 0B, 03, 07, FB, F9, 02, 08, EE, EC, 0B, 0F, 08, 02, FA, 07,
  07, 02, 03, FD, FB, F3, F2, F6, 06, 16, 19, 10, 18, 07, 01, 09,
  FE, F9, 04, 02, F9, F0, F8, 00, 0A, 06, 03, 01, 01, 07, 06, 06,
  FE, E9, EF, ED, E7, FC, 0A, 09, F7, 0B, 11, 1C, 18, 12, 03, 01,
  07, 06, 03, 06, 01, 01, 07, 05, FC, 04, FE, 05, 05, F6, FB, F2,
  FD, F1, F1, 03, 02, 02, 00, 04, 03, 03, FC, 09, FD, 04, 03, 00,
  05, 05, 05, FC, 00, 00, 01, 07, FF, 07, 05, FD, FE, FE, 06, 07,
  00, FE, FB, 02, 02, FC, FD, 01, FE, FF, FF, 02, 01, 01, FE, 04,
  FF, 04, 08, 04, 05, 08, 08, 00, 02, 04, 08, FF, FF, 07, 04, 02,
  08, FF, 01, FF, 00, 03, FE, 02, FE, 09, FD, 01, 05, FF, 05, 03,
  06, 02, 02, 08, 09, 02, 01, 06, 08, 08, F6, F8, 10, 0D, 04, 05,
  02, 04, FD, 04, 00, 07, 04, 00, FD, 01, 06, 08, 05, 02, FD, 00,
  02, 12, 06, FF, 02, F2, F5, F0, 02, 00, 05, F0, F6, F6, FA, 01,
  01, 00, 04, FE, FF, 07, FE, 05, 02, FE, 04, FF, 0D, 18, 1D, 11,
  0D, FD, FC, F2, 01, FC, EC, EC, F5, F8, F3, F6, 04, FE, 02, 07,
  00, 02, 07, 03, 02, 02, 00, FA, F4, FF, 0D, 0C, FF, E1, E6, EA,
  F5, F0, E0, ED, EB, E2, DC, EE, 01, 0A, 00, FE, 06, 02, 07, 04,
  08, F9, ED, F6, EC, F3, 01, 01, EE, D9, DD, DD, F3, EA, E1, EC,
  EE, E7, E4, E9, EA, F3, 09, 08, 04, 09, FF, 04, 0B, 06, FD, F3,
  E9, EB, ED, EF, F3, EF, F3, ED, FA, F4, FF, 04, F8, F9, F3, FE,
  EE, 00, 0E, 07, 05, 04, FE, 08, 0C, 01, FC, FE, FF, F4, F4, 07,
  F9, F6, F1, F3, FD, F9, 00, F7, F1, F5, FC, F5, 04, 0D, FD, FE,
  0A, 01, 06, 04, 04, F8, F7, F1, F4, EF, 04, 08, FD, FB, F9, FB,
  FD, FD, 05, 0F, 10, 0B, 08, 10, 19, 19, 01, 07, 08, FF, FF, 03,
  F9, FC, F6, FF, F9, FC, 00, FF, 02, 00, 0D, 07, FD, 05, 11, 0E,
  11, 05, 05, FC, 20, 28, 14, 00, FE, 07, 04, 07, F8, 09, 0A, 07,
  FD, 02, 05, 0A, 09, 03, 10, 17, 0D, 02, F6, F3, 02, FF, 08, 13,
  28, 32, 0F, 04, FE, 07, 05, 00, FC, 12, 01, 0A, 06, F8, FF, 0C,
  FB, ED, 02, FD, 09, FE, E9, F3, F8, 0C, 14, 10, 1C, 1F, 0B, 06,
  01, 07, FC, F1, FA, 04, F8, 02, FB, F6, 0B, 0A, 05, F9, F9, F4,
  F3, E1, DA, E0, E9, E5, E4, DD, EE, 19, 14, 03, 04, 08, F7, F3,
  F8, 00, FD, F7, 03, 03, 04, 0C, 0C, 13, F9, F1, EC, E6, FC, EA,
  DB, D3, E8, F7, FF, 1E, 1D, 03, 08, FD, 01, 01, F1, FE, FB, FD,
  02, 0E, 12, 0D, 11, 0B, FB, F5, 09, 05, 0D, F3, E4, E3, F4, 09,
  14, 0D, 18, 06, FE, 07, 02, FA, 01, FB, F4, F3, F7, 05, 0A, 02,
  14, 04, E7, FD, 07, 01, 06, FD, F4, ED, F8, FD, 15, 1D, 13, 04,
  FE, 07, 04, 02, 0F, 05, 05, F7, F3, 01, 04, 0B, 03, FD, FC, 08,
  0B, 14, 04, F9, F1, 0C, 14, 10, 10, 25, 1A, 09, 04, 04, 02, 04,
  13, 1F, 16, FD, FE, 0E, 09, 05, FA, FA, 02, 0C, 0C, 0E, 0A, FC,
  F1, F9, 04, FD, F6, 19, 06, 10, FE, 00, FE, 0F, 29, 29, 16, 0C,
  15, 14, 0D, 05, FF, 05, FE, FD, 0B, 00, 05, 06, F2, F9, 06, 0A,
  15, 0E, 02, 00, 07, 03, 05, 0F, 29, 19, FF, 06, 0D, 05, 0F, 08,
  FC, 06, 0B, 0A, F5, FA, 0E, 0D, 04, 05, 18, 23, 1A, 13, 0E, FE,
  FD, 02, 07, 09, 21, 0A, F1, F6, F7, FD, 0D, 0F, 02, FB, F4, E3,
  D7, F6, 06, FC, FC, 02, 0C, 11, 0F, 17, 00, FD, 07, 03, 05, 11,
  14, 00, F7, F5, E3, F7, FE, 01, FE, F8, DA, D9, CE, E4, E8, E6,
  EB, F5, FF, FF, 05, 1A, 02, 04, 00, 02, 00, 0D, 04, F1, F2, EE,
  E1, E4, E1, F0, F2, DE, C8, D3, E3, E3, E6, DD, E6, FF, FF, FC,
  15, 0B, 08, FF, 02, 06, 04, 01, FC, E2, DF, DB, E4, DB, D8, CA,
  C0, C1, CF, E5, EE, E9, E5, EA, F4, F7, 00, FE, 0A, 04, FE, 07,
  FF, 02, FE, 05, FF, EF, D9, D7, DF, D1, D3, E0, DB, DA, EB, FE,
  FE, F6, F2, FB, 00, 09, 0A, FC, 0E, 03, FF, 07, 06, 09, 00, 08,
  FB, F5, EA, E1, E6, E0, E5, F8, F5, F4, 03, 13, 0A, FE, FC, FB,
  FB, 0B, 0B, 12, 14, 02, FF, 07, 04, 08, 04, FF, 01, FA, F5, FC,
  FB, E8, F5, 02, 01, 0C, F8, 02, 01, 0A, FD, 00, FF, 01, FF, 03,
  08, FF, FF, FD, 05, 08, FE, 08, 04, FE, 05, FB, FD, 00, 01, 03,
  09, 02, FD, FE, FE, 00, F7, FD, 01, FE, 02, FE, 06, 05, 00, 01,
  00, 01, FD, FE, FD, 03, 03, 01, 05, 07, 01, FC, 05, FE, 03, 05,
  04, 07, 03, 02, 03, 01, 00, 04, FC, 03, 08, 06, 07, 04, 05, 02,
  02, 08, 04, 01, 01, 02, 05, 04, FC, 02, 08, 01, FF, 03, 04, FF,
  FF, 04, 07, 06, 04, 05, FF, 01, 06, FD, 05, 06, 04, 06, 03, 03,
  00, 01, FA, FC, F4, 03, FB, 01, 00, 04, FE, 03, 01, 04, 08, 04,
  06, FF, 06, 02, 06, 03, FF, 06, 06, FD, FC, FE, 00, FB, FB, FE,
  F9, FD, FB, F3, 00, F7, F1, FF, 08, 02, 04, 09, 06, 00, FC, FD,
  01, 03, 05, 02, 04, FC, FA, F5, F1, EF, F8, F5, F5, 00, F4, F1,
  E2, F6, 05, FC, FA, 07, 0B, 10, 07, 06, 06, FE, FE, 03, 03, 01,
  03, 02, F8, EF, EC, DF, EC, 02, 06, 08, FB, 00, EA, F6, 09, 02,
  FF, 0F, 12, 0D, 0D, 04, 03, 02, FF, 00, 06, 04, FB, F8, EA, EB,
  F3, EF, 04, 01, 08, 18, 12, 12, 11, 09, 07, F2, FB, 00, 03, F0,
  FC, FE, 00, 03, FE, 01, 03, 04, F4, E8, E6, F1, FD, 15, 0E, 04,
  0D, 18, 18, 0F, 0B, 0E, FF, F6, F8, EA, E1, DA, E8, FC, FE, FF,
  FC, 04, 00, 01, FA, F4, F5, F3, 10, 11, 02, 07, 0F, 11, 1C, 12,
  07, 01, 02, F2, F6, F5, E0, DA, E8, ED, FA, 06, FE, 00, 09, 0E,
  08, F0, F8, 08, 12, 12, 17, 17, 0B, FD, 07, 02, 08, 0A, 0E, FB,
  04, F6, F0, DE, F5, FB, FF, 03, 06, 09, 0E, 0F, F8, F7, 03, 01,
  0A, 15, 0C, 0B, FE, F9, 01, 01, 0F, 03, 0D, 03, 0C, FC, F4, F3,
  EE, FF, FC, 05, 05, FF, 0C, 12, 05, F9, 0C, 02, 15, 09, 07, 02,
  F2, 00, FE, 11, 03, 10, 0E, 0D, 0D, 08, 14, 03, F6, FF, 03, 00,
  00, 09, 04, 16, 1A, 10, 15, 04, 0D, 01, 09, F5, E7, F7, 08, 07,
  FF, 01, 0B, 04, 07, 06, 16, 1A, F6, FC, 02, 06, FD, 07, 00, 18,
  1C, 0C, 05, 10, 08, FF, 01, EE, FC, FA, FD, F1, 08, 0C, 00, F7,
  05, 06, 02, F9, E8, F4, FB, 02, 07, 04, 07, 10, 06, FC, FA, FF,
  03, FD, F5, F3, FA, FC, EC, EE, FB, 02, 01, 03, 10, 06, FB, F0,
  FC, F8, FC, 00, 07, FF, 01, FB, 01, 07, 05, FC, 00, ED, F8, F2,
  F8, F3, E5, F6, F9, 05, FA, 06, 07, 10, EC, F7, F9, F1, FF, 03,
  FE, 07, 07, FD, 02, 07, 05, F7, 05, F7, FF, FB, F5, E8, EC, F9,
  EE, 06, 05, 05, 05, F4, F9, F0, F2, F4, FD, 05, 07, 08, 01, 01,
  03, 02, 03, 09, 0A, 01, 08, 02, F5, EC, F0, F6, 00, 01, 04, FC,
  00, ED, FC, E2, EF, F4, FC, 05, FD, FF, 00, F7, 06, 05, 06, 06,
  0F, 14, 15, 0D, F4, EA, F8, FB, 00, 0D, 05, 0A, 0C, 03, F7, D9,
  E2, F3, FF, FE, 05, 07, 00, 01, 00, FE, F6, FE, FD, 03, FE, FC,
  F9, F3, FD, 05, 05, 02, 02, 0D, 08, FE, F2, E4, EA, FF, F9, 07,
  05, 05, 03, FC, FE, 06, F4, E7, DF, DA, DF, D2, DC, EB, FF, F9,
  FB, FC, F3, 02, F9, F8, F3, F1, 03, 01, FC, 02, 02, 04, FD, FA,
  FA, 03, F8, E7, DB, C3, DD, D7, EE, EC, FB, FE, FF, E9, F4, FC,
  FB, 00, F8, F9, 12, 01, 00, 05, 00, 07, FF, FF, F5, F2, F2, EC,
  EE, EC, F8, FD, 09, 02, 0B, 01, 03, EF, F2, F0, FE, FC, 06, 0C,
  0E, FB, 00, FE, 03, 01, FE, FD, F6, F2, F5, EC, E3, E3, 03, 11,
  09, 09, 09, F6, EE, F6, ED, EC, 00, 0C, 0C, 0C, 17, FC, FE, 05,
  FE, 03, 04, 01, FB, FD, F8, F3, F3, F6, 0D, 0D, 03, FD, F1, F6,
  FC, FA, F1, F0, 09, 14, 18, 10, 04, 02, FE, FF, 07, 00, 05, 03,
  01, 01, 02, F5, FB, 06, 02, 16, 0B, 04, 0A, F2, 06, F4, 01, 07,
  06, 12, 06, 08, 04, FE, 06, 07, 08, FE, FC, 08, 07, 05, 07, 02,
  14, 17, 12, 16, 15, 1A, 37, 1C, 1C, 14, 15, 19, 1A, 12, 09, 03,
  08, FE, 04, FF, 03, 06, 06, FF, 04, 04, 07, FF, 07, 0A, 01, 04,
  0A, FF, 02, 09, 05, 04, 03, 00, 04, 01, FF, 06, FD, 03, FD, FF,
  00, FB, FC, 01, 03, FF, 04, 04, 01, 01, 00, 00, 05, FD, 04, FD,
  02, FB, 04, FF, 00, FF, 05, 00, 01, 05, FB, 06, FF, 04, 06, FB,
  05, 01, 00, FF, FE, FE, 06, FD, 03, 02, 04, F7, F4, FA, 03, FD,
  01, 00, FF, 00, FC, 02, FF, 00, 04, FE, 03, 03, 02, FC, FE, 02,
  05, 0B, 0D, 09, 05, 05, 07, 08, 08, 0E, 03, FE, 07, 04, FC, FF,
  03, 04, 02, 04, FC, 00, 03, FA, 00, 09, 03, 08, 06, 0E, 02, 05,
  FB, FE, FF, 07, FA, E2, EC, F5, E2, EE, F7, 00, FF, 05, 04, FE,
  01, 03, FF, FF, 00, 03, 0B, 0B, 06, 0F, 00, FE, 0C, FE, 0B, F4,
  F7, 04, FE, FB, F5, F4, F6, F3, EF, 05, FC, FE, FC, FD, FF, 01,
  FF, FA, FE, FB, F8, EC, F8, 02, 10, 03, 06, 06, 03, 05, 15, 10,
  11, 15, 03, 06, F8, 00, 05, 05, FB, 05, FF, 04, 0B, F4, EC, EC,
  E6, EB, E9, 00, 07, F1, FA, FA, F5, F5, EE, F5, F8, 07, 0E, 0B,
  FD, FC, F7, 04, FE, 01, FD, F9, 09, EC, EC, EE, F2, ED, EF, FB,
  04, 06, F5, F6, EE, EB, EB, F4, F5, 02, 02, F3, FF, F7, FF, FC,
  FC, FC, 03, FA, 06, FD, F6, EE, F2, EF, F9, 0B, 0B, 0E, FB, EC,
  E3, EC, F7, F8, F7, FC, F9, F4, FC, F6, FE, 03, 04, FB, 06, FD,
  02, 01, F0, F9, F1, F7, FA, 00, 08, 08, FC, E8, EE, FA, FE, FE,
  FB, 06, 01, EE, EE, EA, F9, F9, FE, FC, F7, FD, 10, 0E, FC, F8,
  F1, E5, FA, 09, 04, F6, E9, D9, ED, 02, 08, 00, F8, 01, F1, EF,
  DE, DF, F3, 04, 02, FA, FC, F3, 06, 0B, 00, 01, F2, 01, 00, 03,
  0C, E3, E0, E5, F2, FE, 04, 06, FB, F5, EB, E9, EB, F7, FF, FA,
  FA, FD, FD, FA, 01, 03, F3, FF, FA, 04, 07, FE, FF, F8, F4, F1,
  FC, 04, 01, 04, FC, 07, F6, F4, 01, FE, 00, FF, FD, 05, 00, F9,
  EE, F5, 04, 02, 08, 00, FA, F3, 03, 12, 07, 00, FF, 04, FF, 03,
  FF, FA, F5, FB, 06, 0F, 05, 01, FB, 04, FB, 08, 02, FA, 0F, 13,
  05, 06, F7, FE, FC, 18, 0C, 05, 08, FC, FD, FE, EB, E5, E5, E6,
  F1, 0F, 09, FF, 06, 01, FF, 14, 18, 04, 0B, 0E, 0A, 04, FC, F4,
  0B, 1B, 18, 04, 0D, 00, ED, FA, E8, E7, E8, DB, EF, 22, 10, 03,
  03, 04, FA, 12, 0B, 0D, 1A, 0F, FB, 0C, 12, 03, 0D, 13, 1B, 1C,
  1B, 05, F7, FB, F8, 0B, FC, EE, FC, 2B, 0F, 02, 02, 03, 06, 01,
  05, 08, 05, 04, 03, 03, 0D, 0A, 05, 09, 1B, 21, 19, 08, 07, 04,
  0E, 13, FA, 02, FC, 24, 0F, FE, FA, 03, 04, 03, 01, 08, 0E, 12,
  00, 08, 0D, FD, FF, 04, 1B, 13, 0B, 03, 03, 06, 0B, 07, 09, 09,
  1D, 19, FF, 03, FE, FE, FF, FC, FE, 00, 09, 09, 01, 04, 02, FD,
  EC, F5, 03, 13, 0A, 09, 10, 10, 0F, 0B, 0F, 11, 03, 0A, 03, FF,
  00, FE, 06, 03, 08, 02, FF, 0C, FE, 00, 02, FC, F3, E6, F6, 08,
  0B, 05, 19, 0E, 16, 0D, 0F, 15, 0F, 01, 02, 03, 01, 05, 01, 03,
  05, 05, FE, FF, 0B, 0B, FB, FA, FB, F5, FE, 07, 09, 0F, 0F, 1A,
  08, 0C, 1C, 14, 08, FE, 00, 01, FB, 04, 05, 03, 0F, 16, 07, 00,
  03, F9, FE, 02, F7, F7, F4, EF, F2, FD, 05, 13, 17, 16, 0E, 10,
  01, FE, 01, FF, 05, FE, FF, 03, 08, F8, F9, EF, 00, FE, 05, F5,
  F2, F1, F4, F5, E9, EC, 0C, 0F, 18, 21, 1A, 0A, 02, 00, FF, 05,
  01, FE, FB, F8, EE, E9, E7, E5, EA, FB, F0, FE, E9, E7, F3, EA,
  F1, F4, 01, 0C, 03, 0A, 0C, 05, FE, 02, FE, 06, FD, FB, 01, FB,
  F1, ED, F7, F1, E0, D7, E9, E5, E9, F8, F7, F4, F4, EB, EF, E6,
  F2, F9, 02, F8, F9, 06, 04, FD, FE, 00, 03, FD, FD, FC, 03, FA,
  F9, EC, F0, 04, 0D, 0A, 00, 07, 02, FB, F7, F2, F2, 01, FD, 03,
  FD, 00, 05, FF, 04, FE, FB, 02, 01, FE, 06, FD, FD, 05, F5, FD,
  00, FC, 00, FC, FB, 00, FB, 05, FD, F9, FD, FF, FD, 03, 03, FF,
  04, 03, 07, 05, 04, 02, 03, 06, 01, 09, FF, FE, FF, 01, 00, 03,
  00, 03, 03, 03, 08, 02, 00, 04, 02, 06, 00, 04, 04, 01, 08, 01,
  00, 05, FE, 02, 03, 02, 07, 02, 00, 09, 08, 04, FE, 06, 06, 09,
  09, 08, 03, 00, 03, 05, 00, FE, 03, 00, 09, 00, FF, FF, 00, 02,
  0E, 0B, 0B, FF, 0A, 03, 03, 00, FF, FD, 01, 01, FF, FE, 04, 08,
  06, 03, 09, 08, 05, 07, 09, 07, 07, 08, 06, 07, 00, 08, 00, 0E,
  05, FE, F0, ED, D8, DC, F8, F7, FD, 05, 07, 06, 08, 00, 01, FE,
  08, 06, FF, 08, 00, F9, FB, 02, FA, 09, FD, 0D, 02, F2, 03, F9,
  F7, EE, F3, FF, F9, 01, 04, 13, 07, 04, 0B, 04, 06, 02, 09, 03,
  FB, E6, F1, F9, FC, 05, 01, 07, FE, E5, F5, E7, 00, 06, 06, 16,
  0D, 0E, 09, 04, 0B, 0B, 08, FF, 07, 08, FF, F8, ED, EC, F2, 08,
  14, 0B, F9, ED, F5, E2, EA, E6, F1, F7, F9, 03, ED, EB, F6, 17,
  1D, 0F, 08, FE, 04, 09, 00, FB, F4, 02, FD, 07, 11, 05, 07, F4,
  F0, EC, E5, F1, EE, FC, FD, FD, F2, 11, 12, 0E, 0F, 0C, 05, 06,
  04, FD, 01, FF, FF, 05, FE, 0B, 03, 0F, 08, F6, E4, E3, F5, 06,
  07, F3, F3, 02, 05, 1A, 08, 17, 1D, 24, 0B, 0A, FF, FE, FD, F8,
  F9, F1, 03, 04, FD, 15, 07, 01, DD, E0, F2, 0B, 13, 0D, 14, 0D,
  11, 15, 11, 1C, 25, 1C, 0E, 02, 08, 02, FD, FA, 0E, 04, 01, 03,
  FB, 13, 1F, 07, EC, C6, DC, 02, F9, FA, 06, 06, FE, 01, 00, 11,
  21, 0F, 0C, 01, 00, 03, F7, 01, FE, 15, 11, 02, FF, 19, 16, 0E,
  FA, D5, EC, ED, EE, DC, E7, F1, E9, EB, E9, F7, 18, 0E, 0A, FF,
  02, 08, 06, FD, F1, 09, 15, 14, FE, 07, 14, 1C, 28, 05, EC, F1,
  EF, E5, E8, EB, F0, F1, E2, F1, 03, 02, FC, 04, 08, 0B, 09, FB,
  EB, 01, 09, 12, 0F, 0E, 08, 20, 21, 0C, EE, FC, F7, FF, FF, F9,
  F9, F6, 03, EF, EF, F1, FB, 06, 04, 05, 0B, FE, FE, 03, 09, 0C,
  05, 07, 08, 20, 10, 05, 01, FB, FD, 0C, FF, F2, FC, 06, FD, EE,
  E5, F2, FA, FF, 03, 04, 01, 0B, FD, FB, 04, 0A, 07, 09, 10, 15,
  0D, 0B, 03, FA, F6, F2, F1, EF, F2, EE, F3, FE, F3, EF, 03, 07,
  03, 05, 05, 07, F3, E8, F6, EC, F8, 08, FF, 06, 12, 1A, 0A, FD,
  F5, F7, FE, FB, F8, F0, F6, F8, EB, FB, F7, 07, 02, 06, FF, F9,
  E6, F4, E9, DD, F2, FD, F6, FE, 12, 1C, 0D, F2, FD, 03, 04, F9,
  F8, F0, FD, FB, F5, F4, FF, FF, 06, 02, FD, FA, EF, FD, FA, E4,
  F9, F6, FA, 02, 1A, 1D, 06, 00, 02, FB, FD, 01, 08, F6, F4, F7,
  FD, FE, 04, 00, 01, 08, FE, FA, F1, 02, F5, E5, 03, FC, 02, FC,
  06, 15, 19, 0B, 00, 02, 06, FE, 02, FA, FA, 02, FD, F4, FC, 02,
  02, 00, 01, F8, EF, FF, F4, FE, 07, 05, 0C, 10, 11, 05, 09, 10,
  F9, 03, 06, 00, 03, F9, FC, F3, F5, FF, FD, 02, 05, 06, 01, FD,
  F6, EF, F4, 10, 0E, 07, F5, 0C, 0E, 04, 0E, 0E, FB, 06, 00, FB,
  09, 0F, 08, FC, F7, 00, FE, 08, FE, FF, 00, FC, FC, FF, F0, FE,
  0A, 01, FD, 03, 0C, 0A, 0E, 0A, 0D, 16, 0B, 09, 06, 10, FA, FA,
  FD, 03, 03, 01, 07, 06, FF, 04, 04, F2, E4, E6, 04, 04, 02, FB,
  01, 09, 07, 07, 1A, 0D, 0D, 08, 0D, 0B, FD, 05, 05, 05, 09, 02,
  02, 09, 07, FE, 02, EE, E6, E4, E6, FB, 09, 0A, 04, 00, 05, FF,
  02, F7, 00, 0C, 07, FE, FA, 00, 06, 06, 02, FF, 07, FE, 02, 05,
  FF, F3, EA, E2, E7, DB, DB, F1, EB, F3, E8, 02, 00, 07, 03, FD,
  FA, FA, FB, 07, 05, 03, FE, 03, 07, 09, 00, 04, 05, F8, F9, FD,
  F8, E9, DC, F7, 05, F4, E0, E6, EF, F3, F3, EA, F5, FB, 02, 08,
  04, 02, 05, FF, 08, FF, FF, 04, 07, 09, 08, 08, 05, 06, FC, 00,
  05, FE, 00, FF, FB, 03, FD, 00, 08, 01, 02, 03, 09, 07, 08, 01,
  FF, 05, 02, 02, 04, 02, FF, 03, FD, 03, 08, 03, 08, 03, FF, FE,
  05, 04, FD, 00, 07, 02, 00, FF, FD, 01, FE, 09, FF, 08, 02, 02,
  05, 03, 09, 04, 07, 05, 02, F9, 00, 07, 08, 00, 08, 09, 05, 05,
  05, 02, 08, 00, 00, 07, 08, 00, 00, FF, FE, 00, 06, FE, 04, FF,
  02, FF, 09, 05, 0D, FE, FB, F1, EF, FD, F8, F4, FD, FC, FC, 08,
  01, 07, 05, 04, FF, 05, 02, 00, 00, 09, 05, 0B, 0F, 02, FF, 14,
  0C, F9, E1, E4, F3, 05, F7, EB, EB, FD, 03, FC, 07, 07, 04, 03,
  03, 02, 01, FF, FF, 09, 14, 18, 10, 08, FC, 06, 09, 0D, F1, F0,
  EA, F9, 03, FA, FC, F0, F9, FC, 03, 01, FE, FE, 04, 03, 08, 07,
  05, 0F, 0D, 0F, 1B, 09, 08, 0D, 0A, 0C, 00, FF, 09, FB, FE, FD,
  F8, E5, EF, 03, 03, 03, 01, 04, FF, 01, 08, 08, 03, F9, F7, FF,
  05, 1A, 1B, 05, 06, 06, 04, 06, 0A, 05, FE, FB, 00, F8, F7, 01,
  F9, FF, 05, 01, 05, 03, 07, 02, 02, F8, FB, 02, 01, 07, 06, 0E,
  07, 0E, 04, 04, 02, FE, 00, F9, F5, 00, 00, FE, 03, 06, 06, 06,
  07, 03, FF, 06, 0E, 02, 02, 12, 10, 01, 07, 10, 11, 1B, 1A, 04,
  FA, 07, F9, FB, FA, F8, 09, 01, F5, 11, 04, 04, 01, 06, 00, 00,
  0D, 1B, 0C, FD, FD, 04, 01, 0B, 1E, 0C, 01, F5, EB, 03, FF, 00,
  FE, F8, 12, 0E, FB, 09, 0F, 08, 09, 03, 09, FE, 04, 1E, 0C, 09,
  0F, 0C, 0B, 09, F0, E1, CF, E0, ED, 05, 06, FA, FF, F5, 08, FE,
  FF, FD, 05, 00, FE, FF, 08, F7, 06, 09, 0B, 18, 10, 0A, F3, F6,
  D2, AC, D2, EB, FB, F6, F9, FF, FE, F9, F5, F8, F4, 02, FD, 06,
  07, FD, 04, F1, FD, F5, EB, F0, F3, E9, C1, A2, B9, C5, E9, 01,
  01, F8, FC, F2, F3, FA, FF, F8, 04, 10, FE, 07, 01, 07, 07, EF,
  DE, DB, CD, C5, BE, B0, A5, C1, EC, 09, FE, FF, FF, 01, FD, F1,
  F4, 0B, 0B, 07, 10, 15, 0E, 04, 08, 06, 03, EB, D2, CB, CA, AF,
  91, B0, E7, 03, 11, 0C, FB, F7, F0, 04, 07, FF, 01, 0F, F8, F4,
  02, 16, 12, 07, 00, 00, 07, F0, D6, D6, D3, C6, DA, EC, 14, 11,
  0C, 13, FF, FF, 02, 03, FF, FA, FD, 14, FE, F0, 01, 0F, 09, 07,
  07, FE, 06, F4, DE, D6, DC, F3, 01, 08, 10, 09, 0C, 12, 02, FB,
  0B, 0B, 08, 04, F5, 0B, 00, F7, 07, 15, 08, 03, 03, 02, 06, FF,
  F8, F8, EE, 07, FF, 11, 0A, 03, 0F, 09, FC, 02, 08, 0C, F9, 03,
  F5, F3, 03, EE, 01, 1D, 0E, FE, 04, FF, 06, 0B, 06, 01, FC, 1B,
  0D, F7, FF, 01, 14, 08, FF, 0C, 09, 08, 0C, 09, F3, 00, 01, 01,
  FB, 0E, 08, 02, 06, 06, FE, 0C, 24, 04, 08, 13, 09, FD, 05, 0E,
  10, 12, 0A, 09, F8, 02, FB, FF, EF, FA, FC, F9, FD, 0B, 07, 08,
  FD, 04, 03, 18, 27, 12, 03, 12, 09, 08, 06, 0D, 0B, 04, 06, 08,
  F7, EF, ED, F0, F7, F6, F6, F9, FB, 07, 03, 06, FF, FE, 0F, 18,
  0E, 04, FF, FD, F3, 01, FE, 05, 05, 0A, 03, 00, 02, FA, FF, 0A,
  F9, F8, 0D, 0F, 04, 06, FE, 01, 06, FE, 06, 06, 06, 09, FC, 03,
  FD, F6, 07, 05, FE, 09, 03, 06, FE, 07, 0D, 18, 07, 10, 1E, 15,
  05, 01, 02, 08, 05, 08, 00, F9, FF, 02, 0F, 10, 08, 07, FA, 0B,
  06, 03, FE, 05, FD, FF, 15, 09, 07, 16, 19, 14, 08, 06, 04, 02,
  08, 04, 02, FC, FF, 08, 0B, 03, 0A, 04, 02, 02, FD, FD, 09, 17,
  03, 05, FA, 02, 02, 06, 0A, 00, 07, 06, 08, 04, 01, 07, 00, 08,
